const unsigned char model[] = {
  0x1c, 0x00, 0x00, 0x00, 0x54, 0x46, 0x4c, 0x33, 0x14, 0x00, 0x20, 0x00,
  0x1c, 0x00, 0x18, 0x00, 0x14, 0x00, 0x10, 0x00, 0x0c, 0x00, 0x00, 0x00,
  0x08, 0x00, 0x04, 0x00, 0x14, 0x00, 0x00, 0x00, 0x1c, 0x00, 0x00, 0x00,
  0x88, 0x00, 0x00, 0x00, 0xe0, 0x00, 0x00, 0x00, 0x04, 0x2d, 0x00, 0x00,
  0x14, 0x2d, 0x00, 0x00, 0xd0, 0x34, 0x00, 0x00, 0x03, 0x00, 0x00, 0x00,
  0x01, 0x00, 0x00, 0x00, 0x04, 0x00, 0x00, 0x00, 0xaa, 0xd2, 0xff, 0xff,
  0x0c, 0x00, 0x00, 0x00, 0x1c, 0x00, 0x00, 0x00, 0x38, 0x00, 0x00, 0x00,
  0x0f, 0x00, 0x00, 0x00, 0x73, 0x65, 0x72, 0x76, 0x69, 0x6e, 0x67, 0x5f,
  0x64, 0x65, 0x66, 0x61, 0x75, 0x6c, 0x74, 0x00, 0x01, 0x00, 0x00, 0x00,
  0x04, 0x00, 0x00, 0x00, 0x94, 0xff, 0xff, 0xff, 0x0b, 0x00, 0x00, 0x00,
  0x04, 0x00, 0x00, 0x00, 0x07, 0x00, 0x00, 0x00, 0x64, 0x65, 0x6e, 0x73,
  0x65, 0x5f, 0x38, 0x00, 0x01, 0x00, 0x00, 0x00, 0x04, 0x00, 0x00, 0x00,
  0x7e, 0xd3, 0xff, 0xff, 0x04, 0x00, 0x00, 0x00, 0x0d, 0x00, 0x00, 0x00,
  0x64, 0x65, 0x6e, 0x73, 0x65, 0x5f, 0x36, 0x5f, 0x69, 0x6e, 0x70, 0x75,
  0x74, 0x00, 0x00, 0x00, 0x02, 0x00, 0x00, 0x00, 0x34, 0x00, 0x00, 0x00,
  0x04, 0x00, 0x00, 0x00, 0xdc, 0xff, 0xff, 0xff, 0x0e, 0x00, 0x00, 0x00,
  0x04, 0x00, 0x00, 0x00, 0x13, 0x00, 0x00, 0x00, 0x43, 0x4f, 0x4e, 0x56,
  0x45, 0x52, 0x53, 0x49, 0x4f, 0x4e, 0x5f, 0x4d, 0x45, 0x54, 0x41, 0x44,
  0x41, 0x54, 0x41, 0x00, 0x08, 0x00, 0x0c, 0x00, 0x08, 0x00, 0x04, 0x00,
  0x08, 0x00, 0x00, 0x00, 0x0d, 0x00, 0x00, 0x00, 0x04, 0x00, 0x00, 0x00,
  0x13, 0x00, 0x00, 0x00, 0x6d, 0x69, 0x6e, 0x5f, 0x72, 0x75, 0x6e, 0x74,
  0x69, 0x6d, 0x65, 0x5f, 0x76, 0x65, 0x72, 0x73, 0x69, 0x6f, 0x6e, 0x00,
  0x0f, 0x00, 0x00, 0x00, 0x20, 0x2c, 0x00, 0x00, 0x18, 0x2c, 0x00, 0x00,
  0x04, 0x2c, 0x00, 0x00, 0x88, 0x2b, 0x00, 0x00, 0xe8, 0x29, 0x00, 0x00,
  0xc8, 0x02, 0x00, 0x00, 0x28, 0x01, 0x00, 0x00, 0xb4, 0x00, 0x00, 0x00,
  0xac, 0x00, 0x00, 0x00, 0xa4, 0x00, 0x00, 0x00, 0x9c, 0x00, 0x00, 0x00,
  0x94, 0x00, 0x00, 0x00, 0x8c, 0x00, 0x00, 0x00, 0x6c, 0x00, 0x00, 0x00,
  0x04, 0x00, 0x00, 0x00, 0x36, 0xd4, 0xff, 0xff, 0x04, 0x00, 0x00, 0x00,
  0x58, 0x00, 0x00, 0x00, 0x0c, 0x00, 0x00, 0x00, 0x08, 0x00, 0x0e, 0x00,
  0x08, 0x00, 0x04, 0x00, 0x08, 0x00, 0x00, 0x00, 0x10, 0x00, 0x00, 0x00,
  0x28, 0x00, 0x00, 0x00, 0x00, 0x00, 0x06, 0x00, 0x08, 0x00, 0x04, 0x00,
  0x06, 0x00, 0x00, 0x00, 0x04, 0x00, 0x00, 0x00, 0x01, 0x00, 0x00, 0x00,
  0xeb, 0x03, 0x00, 0x00, 0x00, 0x00, 0x0a, 0x00, 0x10, 0x00, 0x0c, 0x00,
  0x08, 0x00, 0x04, 0x00, 0x0a, 0x00, 0x00, 0x00, 0x02, 0x00, 0x00, 0x00,
  0x02, 0x00, 0x00, 0x00, 0x04, 0x00, 0x00, 0x00, 0x06, 0x00, 0x00, 0x00,
  0x32, 0x2e, 0x31, 0x35, 0x2e, 0x30, 0x00, 0x00, 0x9a, 0xd4, 0xff, 0xff,
  0x04, 0x00, 0x00, 0x00, 0x10, 0x00, 0x00, 0x00, 0x31, 0x2e, 0x31, 0x34,
  0x2e, 0x30, 0x00, 0x00, 0x00, 0x00, 0x00, 0x00, 0x00, 0x00, 0x00, 0x00,
  0xfc, 0xcc, 0xff, 0xff, 0x00, 0xcd, 0xff, 0xff, 0x04, 0xcd, 0xff, 0xff,
  0x08, 0xcd, 0xff, 0xff, 0x0c, 0xcd, 0xff, 0xff, 0xca, 0xd4, 0xff, 0xff,
  0x04, 0x00, 0x00, 0x00, 0x64, 0x00, 0x00, 0x00, 0xbf, 0xb2, 0xf7, 0xfb,
  0xcb, 0x90, 0x8f, 0xf3, 0xf5, 0xff, 0xfe, 0xfc, 0xfa, 0xc2, 0xa1, 0xb6,
  0xb3, 0xf6, 0xd9, 0xfe, 0xfd, 0xef, 0x01, 0xf9, 0xcf, 0xfb, 0x81, 0xf7,
  0xf7, 0xf8, 0xc9, 0xb7, 0xee, 0xa9, 0xf8, 0xde, 0xad, 0xfa, 0xfc, 0xff,
  0xfd, 0xdd, 0x8a, 0xf8, 0xf7, 0x8d, 0xff, 0xff, 0x01, 0xee, 0xf7, 0xf3,
  0x8c, 0xf1, 0xca, 0xfb, 0xe1, 0xfd, 0x02, 0xfc, 0xf5, 0xfd, 0xfc, 0xc4,
  0xfa, 0x93, 0xe4, 0x01, 0xf9, 0xfe, 0xdd, 0xcc, 0x00, 0xff, 0xfe, 0x00,
  0xfc, 0xf9, 0xf9, 0xe0, 0xf3, 0xfd, 0x8c, 0xab, 0xfb, 0x98, 0xfc, 0xfd,
  0x8c, 0x9a, 0xdf, 0xfa, 0xfd, 0xfc, 0xb2, 0xf8, 0x8b, 0xfa, 0x02, 0xf6,
  0x3a, 0xd5, 0xff, 0xff, 0x04, 0x00, 0x00, 0x00, 0x90, 0x01, 0x00, 0x00,
  0x00, 0x00, 0x00, 0x00, 0x00, 0x00, 0x00, 0x00, 0x00, 0x00, 0x00, 0x00,
  0x0b, 0xff, 0xff, 0xff, 0x00, 0x00, 0x00, 0x00, 0x00, 0x00, 0x00, 0x00,
  0x00, 0x00, 0x00, 0x00, 0x96, 0xf9, 0xff, 0xff, 0x5c, 0xfa, 0xff, 0xff,
  0x9f, 0xfe, 0xff, 0xff, 0xca, 0xfe, 0xff, 0xff, 0x77, 0xfb, 0xff, 0xff,
  0x00, 0x00, 0x00, 0x00, 0x00, 0x00, 0x00, 0x00, 0x00, 0x00, 0x00, 0x00,
  0x00, 0x00, 0x00, 0x00, 0x00, 0x00, 0x00, 0x00, 0xbf, 0xfb, 0xff, 0xff,
  0x00, 0x00, 0x00, 0x00, 0x02, 0xfe, 0xff, 0xff, 0x0c, 0xfc, 0xff, 0xff,
  0x00, 0x00, 0x00, 0x00, 0x38, 0xfc, 0xff, 0xff, 0xe4, 0xf8, 0xff, 0xff,
  0x00, 0x00, 0x00, 0x00, 0x23, 0xff, 0xff, 0xff, 0x00, 0x00, 0x00, 0x00,
  0x5a, 0xfc, 0xff, 0xff, 0x00, 0x00, 0x00, 0x00, 0x25, 0xfc, 0xff, 0xff,
  0x00, 0x00, 0x00, 0x00, 0x00, 0x00, 0x00, 0x00, 0x00, 0x00, 0x00, 0x00,
  0x00, 0x00, 0x00, 0x00, 0xad, 0xfb, 0xff, 0xff, 0x00, 0x00, 0x00, 0x00,
  0x00, 0x00, 0x00, 0x00, 0xb8, 0xf9, 0xff, 0xff, 0x00, 0x00, 0x00, 0x00,
  0xc1, 0xfe, 0xff, 0xff, 0x07, 0xfe, 0xff, 0xff, 0x00, 0x00, 0x00, 0x00,
  0x00, 0x00, 0x00, 0x00, 0x00, 0x00, 0x00, 0x00, 0xf1, 0xf7, 0xff, 0xff,
  0x00, 0x00, 0x00, 0x00, 0xb1, 0xfb, 0xff, 0xff, 0x70, 0xff, 0xff, 0xff,
  0x38, 0xfb, 0xff, 0xff, 0x00, 0x00, 0x00, 0x00, 0x11, 0xfd, 0xff, 0xff,
  0x00, 0x00, 0x00, 0x00, 0x00, 0x00, 0x00, 0x00, 0x00, 0x00, 0x00, 0x00,
  0x00, 0x00, 0x00, 0x00, 0x69, 0xfe, 0xff, 0xff, 0x00, 0x00, 0x00, 0x00,
  0xf9, 0xfa, 0xff, 0xff, 0xf4, 0xf8, 0xff, 0xff, 0x37, 0xff, 0xff, 0xff,
  0xbe, 0xfc, 0xff, 0xff, 0x18, 0xfe, 0xff, 0xff, 0x1a, 0xff, 0xff, 0xff,
  0x00, 0x00, 0x00, 0x00, 0xb8, 0xfa, 0xff, 0xff, 0x00, 0x00, 0x00, 0x00,
  0x00, 0x00, 0x00, 0x00, 0xb2, 0xfc, 0xff, 0xff, 0x74, 0xff, 0xff, 0xff,
  0x00, 0x00, 0x00, 0x00, 0x00, 0x00, 0x00, 0x00, 0x00, 0x00, 0x00, 0x00,
  0xff, 0xfc, 0xff, 0xff, 0x7e, 0xfe, 0xff, 0xff, 0xb6, 0xfd, 0xff, 0xff,
  0x58, 0xfc, 0xff, 0xff, 0x7d, 0xfc, 0xff, 0xff, 0xbf, 0xfc, 0xff, 0xff,
  0xad, 0xfe, 0xff, 0xff, 0x00, 0x00, 0x00, 0x00, 0x00, 0x00, 0x00, 0x00,
  0x89, 0xfa, 0xff, 0xff, 0x00, 0x00, 0x00, 0x00, 0x00, 0x00, 0x00, 0x00,
  0xa5, 0xfc, 0xff, 0xff, 0x00, 0x00, 0x00, 0x00, 0xb3, 0xfb, 0xff, 0xff,
  0xb5, 0xfd, 0xff, 0xff, 0x00, 0x00, 0x00, 0x00, 0x00, 0x00, 0x00, 0x00,
  0x00, 0x00, 0x00, 0x00, 0xfd, 0xfc, 0xff, 0xff, 0x54, 0xfb, 0xff, 0xff,
  0xa1, 0xfd, 0xff, 0xff, 0x00, 0x00, 0x00, 0x00, 0x00, 0x00, 0x00, 0x00,
  0x00, 0x00, 0x00, 0x00, 0x62, 0xfa, 0xff, 0xff, 0x67, 0xf9, 0xff, 0xff,
  0x00, 0x00, 0x00, 0x00, 0xd6, 0xd6, 0xff, 0xff, 0x04, 0x00, 0x00, 0x00,
  0x10, 0x27, 0x00, 0x00, 0x04, 0x0a, 0x08, 0xfc, 0xf9, 0x07, 0xf6, 0x05,
  0xfe, 0xf9, 0xfa, 0xff, 0xf9, 0x0a, 0xf7, 0x05, 0x02, 0xf3, 0xff, 0x0c,
  0xf5, 0x08, 0x02, 0x05, 0xfb, 0xfa, 0x0d, 0xf2, 0xf3, 0xfb, 0xfc, 0x0a,
  0xfd, 0xfd, 0x08, 0x04, 0xff, 0xf9, 0xff, 0xfe, 0xf3, 0xfa, 0xf9, 0x00,
  0xf3, 0xf3, 0x05, 0xf4, 0x07, 0xfd, 0x01, 0xf5, 0x03, 0x05, 0x09, 0x00,
  0xf3, 0x0b, 0x07, 0x06, 0x08, 0xf9, 0xf8, 0x0b, 0xfb, 0x00, 0xf4, 0x09,
  0xf5, 0x08, 0xf8, 0xfc, 0xf7, 0xf8, 0xfe, 0xf8, 0x04, 0x09, 0xf4, 0xf3,
  0x0a, 0x08, 0x0c, 0xfd, 0xfd, 0xf8, 0x06, 0xf8, 0x0b, 0xf8, 0x01, 0x02,
  0xf8, 0xff, 0xf9, 0x08, 0xf8, 0x07, 0xf7, 0x09, 0x0c, 0x03, 0xfa, 0x0c,
  0xf5, 0x07, 0xf8, 0xfc, 0x00, 0x07, 0xf4, 0xfa, 0xf6, 0x0a, 0x0b, 0x0a,
  0xf9, 0xf9, 0xfb, 0xff, 0xfa, 0xfc, 0xf6, 0x0c, 0xf3, 0xf7, 0x08, 0xf9,
  0xfc, 0xf9, 0xf3, 0x06, 0xf2, 0xfb, 0xf3, 0x04, 0x09, 0xf5, 0x02, 0xfe,
  0x05, 0x09, 0xfd, 0xf5, 0xfa, 0xf3, 0x04, 0xf5, 0x08, 0x0c, 0xf8, 0xf5,
  0xfa, 0xf3, 0x0b, 0x08, 0x02, 0x0c, 0x03, 0x07, 0xfc, 0xf9, 0xfb, 0x02,
  0xfa, 0xf3, 0xf9, 0xfc, 0xfa, 0xfe, 0xfc, 0xfa, 0x05, 0x06, 0x06, 0x0c,
  0x05, 0xfa, 0xfe, 0xfa, 0x02, 0x00, 0xfe, 0x07, 0xfc, 0x01, 0x06, 0x02,
  0xf5, 0xf4, 0xfb, 0x00, 0xf3, 0x0b, 0x0b, 0x09, 0xfc, 0xff, 0x07, 0xf5,
  0x03, 0x09, 0xfb, 0xfa, 0x09, 0xfa, 0xf8, 0x07, 0xfb, 0x06, 0x02, 0x09,
  0x0d, 0x0b, 0x00, 0xf9, 0xf6, 0x03, 0x07, 0x03, 0xf4, 0xf3, 0xf7, 0x04,
  0x09, 0x06, 0xfb, 0x03, 0x07, 0xf9, 0x0a, 0xf9, 0xfe, 0x0a, 0x08, 0xf9,
  0x01, 0xfa, 0x04, 0x02, 0x0a, 0x06, 0xf4, 0x08, 0xf5, 0x0d, 0x0d, 0x08,
  0xf6, 0xf8, 0xfc, 0x0c, 0x0b, 0xfd, 0x03, 0xf8, 0x0c, 0xfa, 0x03, 0xfd,
  0x04, 0xfb, 0x00, 0x0c, 0x02, 0xf4, 0x0c, 0x00, 0x09, 0xfc, 0xf6, 0x0d,
  0xfc, 0x06, 0xf7, 0x07, 0xfc, 0xff, 0xff, 0xf7, 0x07, 0x01, 0x02, 0xfa,
  0x02, 0x05, 0xfd, 0x07, 0x09, 0xf3, 0x02, 0xf3, 0x07, 0xf6, 0x01, 0x04,
  0xfd, 0x04, 0xfc, 0x08, 0x08, 0xfe, 0xf7, 0xf1, 0x02, 0xf5, 0x04, 0xf7,
  0xf5, 0x00, 0x09, 0xf2, 0xf4, 0xf6, 0x07, 0x04, 0xf6, 0xfe, 0xfc, 0x08,
  0x0a, 0xf6, 0xf9, 0xfa, 0x04, 0x0a, 0x08, 0x00, 0x0b, 0xf2, 0x0d, 0xf6,
  0xf5, 0x06, 0x06, 0xff, 0xfc, 0xf6, 0x00, 0x0b, 0x05, 0x0b, 0xfa, 0x0d,
  0x04, 0xff, 0xf2, 0x08, 0xff, 0x04, 0x01, 0x07, 0xfb, 0xfb, 0xf9, 0x0b,
  0xf9, 0xf5, 0xfe, 0xff, 0x00, 0x09, 0xfa, 0xfb, 0x08, 0x00, 0x02, 0x0b,
  0x04, 0x07, 0xfd, 0x01, 0xf4, 0x03, 0xf7, 0xf8, 0x08, 0x06, 0x01, 0xfe,
  0xfc, 0x02, 0xf7, 0xf6, 0x09, 0x05, 0x0a, 0x07, 0x06, 0xf5, 0xfb, 0x08,
  0xfc, 0x01, 0xfc, 0xfe, 0xf7, 0x0a, 0xf9, 0xf4, 0x05, 0x09, 0x09, 0xf8,
  0xf9, 0x0c, 0xfc, 0x11, 0x0b, 0x05, 0xf6, 0x00, 0x0a, 0xfb, 0xfb, 0x02,
  0xfa, 0xfb, 0xfb, 0x08, 0xf8, 0xfc, 0x04, 0x0e, 0x0a, 0x01, 0x02, 0x0f,
  0xf7, 0x0b, 0x0b, 0x05, 0x07, 0xf5, 0xfc, 0x0d, 0x04, 0x0b, 0xf6, 0x02,
  0x02, 0xf3, 0xf5, 0xfa, 0xf8, 0x0c, 0xf9, 0x0b, 0xff, 0x08, 0x03, 0xfa,
  0xfb, 0xff, 0x04, 0xf4, 0xff, 0xfc, 0x06, 0x0b, 0xf7, 0xf1, 0xfa, 0x05,
  0xf9, 0xf7, 0x0d, 0x07, 0x04, 0x06, 0x0d, 0x00, 0x06, 0xfd, 0x03, 0xf3,
  0xf6, 0x02, 0x00, 0xf5, 0x0b, 0xfb, 0x0b, 0x0d, 0x02, 0xf8, 0x07, 0xf9,
  0x03, 0xf6, 0x0a, 0x0c, 0x12, 0x08, 0xfa, 0x0a, 0xf8, 0x05, 0xf9, 0xf4,
  0xfd, 0xf6, 0xf8, 0xfa, 0x0c, 0xfa, 0x08, 0xf7, 0xf8, 0x07, 0xf3, 0x06,
  0xf4, 0xfc, 0x0a, 0xf7, 0xfc, 0x04, 0xf7, 0xfd, 0xfa, 0x07, 0x00, 0x02,
  0xfe, 0xf3, 0x03, 0x03, 0x00, 0x04, 0x0d, 0x00, 0xf5, 0x07, 0x0c, 0xf4,
  0x0c, 0xff, 0x03, 0xfe, 0xf6, 0xf9, 0x08, 0xf6, 0xf6, 0xf8, 0xf9, 0x03,
  0xf9, 0x05, 0xf6, 0xf6, 0x09, 0xfa, 0xfd, 0x08, 0x09, 0x08, 0xfd, 0xfe,
  0xfd, 0x09, 0xf9, 0xfd, 0xfd, 0x02, 0x02, 0xf5, 0xf7, 0xf9, 0xff, 0x06,
  0x05, 0x0b, 0x02, 0xf5, 0x0a, 0xff, 0x02, 0xfe, 0x02, 0xf3, 0x09, 0xf3,
  0xf2, 0x01, 0x03, 0x01, 0x01, 0x0b, 0xfe, 0xfe, 0x0a, 0x03, 0x0b, 0xfc,
  0xfe, 0x09, 0xfd, 0x0d, 0xfd, 0x0b, 0x05, 0x02, 0xf5, 0x0a, 0x0c, 0x02,
  0x05, 0x04, 0x01, 0xf7, 0x0b, 0xfe, 0x0a, 0x07, 0x00, 0xfb, 0x08, 0xfa,
  0xfc, 0xf3, 0x09, 0xf7, 0xf3, 0x0c, 0xf6, 0xfb, 0x00, 0xf8, 0x01, 0x09,
  0xf4, 0x0a, 0x03, 0xfd, 0xfb, 0xf2, 0x07, 0xf9, 0xf5, 0xfd, 0x05, 0xfd,
  0x01, 0x09, 0xff, 0xf4, 0xf9, 0x03, 0xfd, 0x0a, 0x0a, 0x0b, 0xfc, 0xfc,
  0xf3, 0x0b, 0x05, 0x04, 0xf9, 0xf7, 0x0b, 0xf8, 0xf7, 0xf7, 0xf6, 0x05,
  0xfa, 0xfb, 0x0a, 0x01, 0xfa, 0x0b, 0x00, 0x02, 0x04, 0xf8, 0xf9, 0xf7,
  0xf3, 0x01, 0x08, 0xf4, 0x01, 0xfb, 0xf7, 0x04, 0x05, 0xff, 0xfa, 0x05,
  0x06, 0xf9, 0xf5, 0x09, 0x03, 0x0a, 0xf5, 0x06, 0xf6, 0xf4, 0xfc, 0xf9,
  0x0d, 0x00, 0x06, 0xfa, 0x01, 0x04, 0xf9, 0xf9, 0xf9, 0xfa, 0xfa, 0x00,
  0x0d, 0xf3, 0x05, 0x0a, 0x07, 0xff, 0xfb, 0x02, 0xf7, 0xf7, 0xf5, 0xf3,
  0xfe, 0xf5, 0xfb, 0xf6, 0xf5, 0x03, 0x03, 0x06, 0xfe, 0xfb, 0x0b, 0x0c,
  0xf5, 0x09, 0xfb, 0x0d, 0x0d, 0x0a, 0xf4, 0x05, 0x06, 0x08, 0xfc, 0x09,
  0xf6, 0x03, 0xf3, 0x09, 0x01, 0xf2, 0xf6, 0xf9, 0x01, 0xf6, 0xf7, 0x08,
  0x04, 0xfe, 0xff, 0x0d, 0x04, 0x07, 0x05, 0xf9, 0xfa, 0xfc, 0xf3, 0xfc,
  0x04, 0x03, 0x03, 0x09, 0x02, 0x03, 0xfa, 0x0c, 0xf4, 0x0c, 0xfc, 0xfb,
  0xfc, 0xf4, 0xf8, 0xf8, 0x03, 0xf6, 0x0d, 0x08, 0x09, 0xf2, 0x05, 0xf5,
  0x06, 0xf9, 0x00, 0xff, 0xfb, 0xff, 0x00, 0xf9, 0x03, 0x09, 0xf2, 0x04,
  0xfb, 0x03, 0xf8, 0x0d, 0x09, 0xf4, 0xf7, 0xf7, 0xf4, 0xf8, 0xf7, 0x00,
  0xf6, 0xf4, 0x04, 0x02, 0xf3, 0xf7, 0x06, 0x08, 0x06, 0x07, 0xf7, 0x04,
  0x09, 0x05, 0xfd, 0x07, 0x0b, 0x04, 0x0a, 0xfe, 0x00, 0x06, 0xfe, 0xf8,
  0xf2, 0xfa, 0xf8, 0x0d, 0x0c, 0x08, 0x00, 0x03, 0xf6, 0xf8, 0xf8, 0x0b,
  0xf8, 0x0c, 0x03, 0x01, 0xf7, 0x09, 0x06, 0x0f, 0x0d, 0xfa, 0x09, 0xf9,
  0x01, 0x09, 0x07, 0xfa, 0xf5, 0xff, 0x05, 0x0c, 0xf4, 0xf7, 0x03, 0xfc,
  0xff, 0x03, 0xfd, 0xf5, 0x09, 0xf8, 0xf5, 0x0d, 0xf7, 0x0b, 0x0b, 0x03,
  0xf6, 0x05, 0x0a, 0xfe, 0xff, 0x01, 0xff, 0x07, 0x0b, 0xf9, 0xf8, 0xf8,
  0x0a, 0x06, 0xfc, 0x08, 0x0b, 0xfb, 0xf4, 0xf3, 0xf3, 0x06, 0x0a, 0x0b,
  0xf9, 0xf7, 0xf7, 0x02, 0x07, 0xfd, 0x03, 0xf3, 0x03, 0xfd, 0x0a, 0x0d,
  0xf3, 0x02, 0x0a, 0x06, 0x06, 0xf1, 0x07, 0xfb, 0xf2, 0xf6, 0x05, 0xfc,
  0xfc, 0xfa, 0x0c, 0x08, 0x01, 0xfe, 0xf1, 0xf7, 0x04, 0x00, 0x02, 0x04,
  0x0c, 0x0a, 0x03, 0x09, 0x04, 0x00, 0xfd, 0xfa, 0x07, 0x0a, 0x0c, 0x0a,
  0x05, 0x07, 0x02, 0x02, 0xfb, 0xf9, 0x07, 0xf8, 0x09, 0xfe, 0xf9, 0x0d,
  0x09, 0x05, 0x0a, 0xf6, 0xfc, 0xfc, 0x08, 0x03, 0x05, 0xfc, 0xf5, 0x0a,
  0x05, 0xfc, 0x01, 0xf8, 0xff, 0xf2, 0x0b, 0xf6, 0x0c, 0x02, 0x0b, 0x03,
  0xf9, 0x08, 0xfb, 0x07, 0x0f, 0xf5, 0x0a, 0x04, 0x01, 0x0c, 0xfa, 0xf6,
  0x07, 0xfe, 0xf5, 0x03, 0x07, 0xf3, 0x05, 0xfb, 0x08, 0x0b, 0xff, 0x02,
  0xfa, 0xfc, 0x07, 0xf6, 0x0c, 0x07, 0x06, 0x00, 0xf9, 0xfd, 0xfc, 0x03,
  0xf8, 0xfc, 0xfe, 0x09, 0xfd, 0x0d, 0x03, 0x00, 0xf5, 0xf3, 0xfc, 0xfb,
  0xf9, 0xf6, 0xfe, 0x03, 0xf5, 0x08, 0x02, 0xf6, 0x0d, 0x0f, 0x01, 0x0d,
  0x0d, 0xf4, 0x0a, 0xf4, 0x02, 0xff, 0x0d, 0x09, 0x0a, 0xf6, 0x01, 0xf7,
  0xfd, 0x0c, 0x0c, 0x0b, 0x00, 0x08, 0xf4, 0x00, 0xfc, 0xf5, 0x01, 0x0c,
  0xff, 0xfa, 0x04, 0x0b, 0xfa, 0x03, 0xf4, 0xfb, 0x01, 0xfd, 0x0b, 0x08,
  0xf3, 0xff, 0xf7, 0xf8, 0x03, 0xf4, 0xf7, 0xf4, 0xf8, 0x04, 0xf4, 0x03,
  0xfc, 0x02, 0x01, 0x02, 0x0a, 0x0b, 0xff, 0xfe, 0x09, 0x0c, 0xff, 0x07,
  0x0a, 0xf4, 0xfc, 0x01, 0x07, 0xf6, 0x04, 0x02, 0xfd, 0x04, 0x07, 0x00,
  0x0b, 0xfb, 0x05, 0x07, 0x0b, 0xfd, 0xfc, 0x00, 0xfc, 0xf7, 0x04, 0x05,
  0xf4, 0x03, 0x07, 0xf9, 0x04, 0x06, 0xfd, 0xff, 0x0b, 0x01, 0x02, 0x0a,
  0xf5, 0xfe, 0x0f, 0x0d, 0x0a, 0x0b, 0xfa, 0x0c, 0x09, 0x04, 0xf7, 0x03,
  0xfc, 0x03, 0x0b, 0xff, 0x01, 0xff, 0x04, 0x07, 0x06, 0xff, 0x0d, 0x06,
  0x00, 0x0c, 0x04, 0x01, 0x0a, 0x08, 0x07, 0xf7, 0x0a, 0x05, 0xf6, 0xfc,
  0xf8, 0xf2, 0x04, 0x0a, 0x08, 0xfa, 0xf9, 0x01, 0xf4, 0x05, 0xfd, 0x0a,
  0xfe, 0xf8, 0x05, 0x0b, 0x0d, 0xf8, 0xf8, 0xfa, 0xf3, 0xfe, 0x09, 0xf2,
  0x0a, 0xfc, 0xfb, 0xfd, 0x00, 0xff, 0xfd, 0xf5, 0x08, 0x06, 0x05, 0xff,
  0x03, 0x09, 0xf6, 0xfc, 0x01, 0xf7, 0xf7, 0xf5, 0x02, 0xff, 0xf6, 0xfb,
  0x02, 0xf5, 0xf8, 0xff, 0xf6, 0x05, 0xf2, 0xfc, 0xf4, 0x07, 0xf6, 0x06,
  0x02, 0xfd, 0x08, 0xfe, 0xfa, 0x00, 0x08, 0x00, 0xfe, 0xfa, 0xff, 0xf8,
  0xf7, 0xf5, 0xf6, 0x00, 0x00, 0x03, 0x0a, 0xf3, 0x0d, 0x04, 0x08, 0xf4,
  0x08, 0x00, 0x06, 0xf9, 0xf8, 0xf4, 0xff, 0xf8, 0x03, 0x0b, 0xf7, 0xfe,
  0x04, 0x00, 0xfd, 0x02, 0x00, 0x02, 0x08, 0x0d, 0x06, 0x02, 0x08, 0x0d,
  0xf5, 0xfe, 0x0c, 0x0b, 0xf4, 0xf8, 0xf3, 0xf5, 0x01, 0xf6, 0xfc, 0x0c,
  0xf9, 0x00, 0x04, 0xf4, 0x04, 0xfa, 0xfc, 0x00, 0xfb, 0x04, 0x08, 0x00,
  0xf8, 0xf7, 0x0c, 0x0c, 0x0a, 0xfb, 0xff, 0x02, 0x0c, 0xf8, 0xf9, 0x06,
  0xf7, 0x0c, 0xfe, 0x0c, 0x00, 0x0d, 0xf6, 0x05, 0x06, 0xfd, 0x08, 0x0b,
  0x0c, 0x0d, 0x06, 0xf5, 0xf8, 0xf4, 0xff, 0xfe, 0xf9, 0x0d, 0x06, 0x09,
  0x05, 0xfa, 0x03, 0x03, 0x0b, 0xf8, 0x08, 0xfc, 0x03, 0xf5, 0xf9, 0xfb,
  0x06, 0xfe, 0xfa, 0xfc, 0x0a, 0xf7, 0xf2, 0x0b, 0xfb, 0x06, 0x0a, 0x0a,
  0xf8, 0xf4, 0xf9, 0x06, 0xfc, 0x02, 0xf5, 0xfa, 0xf5, 0xf7, 0xf5, 0x0b,
  0x03, 0xfe, 0xff, 0xf6, 0x02, 0x06, 0xff, 0xfd, 0xfc, 0xff, 0x05, 0x0a,
  0xff, 0xf6, 0x07, 0x01, 0xfb, 0xff, 0x01, 0x09, 0x0b, 0xf9, 0x05, 0x0d,
  0x0c, 0x06, 0x09, 0xfd, 0xf9, 0x03, 0x01, 0x0c, 0xf6, 0x04, 0xf8, 0x07,
  0xfc, 0x0b, 0xf7, 0xf8, 0xfb, 0xf5, 0xfe, 0x04, 0x08, 0x0b, 0x08, 0x08,
  0xf2, 0x07, 0x02, 0xf6, 0xfa, 0x01, 0x02, 0x0b, 0x04, 0x03, 0x03, 0x0a,
  0xf1, 0xf8, 0x02, 0x06, 0x02, 0xf6, 0xf3, 0x07, 0x01, 0xf5, 0x09, 0x00,
  0xfe, 0x0e, 0xfd, 0x01, 0xfd, 0xfb, 0xf4, 0x06, 0x0b, 0x01, 0x01, 0x07,
  0xf5, 0x00, 0xfb, 0x0a, 0xf8, 0xff, 0xf3, 0xf5, 0xff, 0xfb, 0x0b, 0x02,
  0xfb, 0x0a, 0x09, 0x05, 0xfc, 0x02, 0xf4, 0xfb, 0x0c, 0x02, 0xf4, 0xfe,
  0xf4, 0xfb, 0x0a, 0x00, 0x03, 0x08, 0x00, 0xfc, 0xf2, 0x04, 0x03, 0xfc,
  0xf8, 0xfe, 0xf6, 0xfe, 0x06, 0xff, 0xfb, 0xf2, 0xf9, 0x09, 0x05, 0xfc,
  0xf4, 0x06, 0x04, 0xfd, 0x0d, 0x00, 0xf7, 0xfd, 0x0c, 0xf7, 0xf6, 0x03,
  0x03, 0xfe, 0xfe, 0x0e, 0x06, 0xfa, 0xfd, 0xf7, 0xff, 0xf3, 0xf7, 0xfc,
  0xf4, 0xef, 0x01, 0xf7, 0xf6, 0xf3, 0xf3, 0xf7, 0x0b, 0x07, 0x00, 0x09,
  0xf6, 0x0d, 0xff, 0xf7, 0xfe, 0x08, 0x09, 0x06, 0xf9, 0xff, 0xf3, 0xfb,
  0xfb, 0xf3, 0xf3, 0x03, 0xf4, 0xf8, 0x04, 0xf8, 0xf6, 0x08, 0xfa, 0x08,
  0x08, 0x0c, 0xfc, 0xf9, 0x01, 0xfd, 0xff, 0x08, 0x03, 0x01, 0x0b, 0x02,
  0x00, 0xff, 0x0b, 0x05, 0xf7, 0x04, 0x09, 0xfc, 0x00, 0xf6, 0xfa, 0xf6,
  0x05, 0x06, 0xf6, 0x0c, 0xfe, 0x0d, 0xf8, 0xf5, 0x03, 0xf9, 0x06, 0x06,
  0x03, 0x0b, 0xf7, 0x0b, 0x0b, 0xf8, 0x0f, 0x02, 0xfa, 0xfa, 0xfe, 0x02,
  0xf3, 0xfc, 0x05, 0xf5, 0xfe, 0x05, 0xff, 0x07, 0x0a, 0x07, 0xf4, 0xf6,
  0x03, 0xf4, 0xfa, 0x0e, 0xf6, 0x00, 0x04, 0xf7, 0x0d, 0x08, 0x04, 0xf3,
  0x06, 0xf3, 0xf3, 0xf5, 0xfe, 0x04, 0xf4, 0xf3, 0x07, 0x09, 0x05, 0xf8,
  0xfb, 0x0a, 0xfd, 0xfe, 0xfb, 0x00, 0xf7, 0x08, 0xf4, 0x04, 0x08, 0xf7,
  0xf4, 0xf8, 0xf7, 0x05, 0x06, 0x06, 0x08, 0xfd, 0x09, 0xfc, 0x08, 0xfd,
  0x07, 0x04, 0x00, 0xfe, 0xf9, 0xf3, 0x0d, 0x0b, 0xfc, 0x04, 0xfa, 0x08,
  0xfe, 0xfe, 0xff, 0x02, 0x08, 0x03, 0x09, 0x01, 0x06, 0x08, 0x07, 0xfd,
  0x09, 0xfa, 0xf6, 0x00, 0x0a, 0xf0, 0xfc, 0xf8, 0x01, 0xf9, 0xff, 0xf8,
  0xfb, 0x0c, 0x03, 0xf4, 0xf2, 0xf8, 0x0c, 0xff, 0xf2, 0x03, 0x05, 0x04,
  0xf5, 0xf3, 0x03, 0x0c, 0xf8, 0xf6, 0x02, 0x02, 0x02, 0x07, 0x02, 0xfa,
  0xfd, 0x06, 0xf8, 0xf4, 0xf8, 0x01, 0xfd, 0xf8, 0xf7, 0x04, 0xf8, 0x08,
  0x07, 0x06, 0x0a, 0xf4, 0x03, 0x05, 0x05, 0xf3, 0x00, 0x03, 0x03, 0x0b,
  0x02, 0xf8, 0xfb, 0x02, 0xf4, 0xfe, 0xf6, 0xfa, 0xf8, 0x07, 0xff, 0x05,
  0x03, 0xf6, 0x06, 0x04, 0xfb, 0xff, 0x03, 0xf9, 0x09, 0x0a, 0xf5, 0xff,
  0xf5, 0x00, 0xf6, 0xfb, 0xfe, 0x05, 0xf9, 0x06, 0x09, 0xff, 0x0d, 0xf3,
  0x05, 0x06, 0x0b, 0x03, 0x0a, 0x0c, 0x05, 0x05, 0xff, 0xf3, 0x05, 0xf9,
  0x06, 0x02, 0x04, 0xfa, 0x0c, 0x09, 0x06, 0x06, 0x01, 0x0c, 0x05, 0x01,
  0xfa, 0x0b, 0xf3, 0x05, 0xfe, 0xfb, 0xfc, 0xfb, 0xf3, 0xfb, 0x0c, 0x0b,
  0x0c, 0xf7, 0x08, 0x09, 0xff, 0xf3, 0xfc, 0x08, 0xf5, 0xf3, 0xf6, 0xf4,
  0xf9, 0x09, 0x07, 0x04, 0x02, 0xfc, 0xfa, 0xf7, 0xf9, 0xff, 0xfd, 0xf9,
  0xf7, 0x0d, 0x04, 0x0d, 0xfa, 0x00, 0xfa, 0x01, 0xf7, 0x02, 0xfd, 0x00,
  0x01, 0x09, 0xf7, 0xfc, 0x05, 0xf6, 0xfd, 0xfb, 0xfc, 0xf5, 0xf7, 0x0b,
  0x0b, 0x06, 0xfe, 0xfa, 0xfa, 0x04, 0xff, 0xf2, 0x00, 0x04, 0xf4, 0xff,
  0xf5, 0xf5, 0xff, 0x02, 0x08, 0x0b, 0x08, 0xf6, 0x02, 0xfd, 0xf7, 0x04,
  0xf5, 0x09, 0x01, 0xfe, 0xf4, 0xfb, 0x06, 0xf8, 0x07, 0xff, 0x09, 0x07,
  0x06, 0xf6, 0x02, 0x06, 0x01, 0xf4, 0xf3, 0xf6, 0xf5, 0xf6, 0x03, 0x00,
  0x0a, 0x0b, 0xff, 0x09, 0x04, 0xf1, 0x05, 0xfd, 0xf5, 0x06, 0x04, 0xf8,
  0x0c, 0x06, 0x0c, 0x0b, 0xf9, 0x08, 0xfa, 0xfe, 0x0b, 0xfa, 0xf8, 0xf9,
  0xff, 0x03, 0xfa, 0xf6, 0x0b, 0xfd, 0xf6, 0x0d, 0xf8, 0xf6, 0x06, 0x01,
  0x0b, 0xf9, 0xf5, 0x04, 0xf3, 0xfc, 0x01, 0x0d, 0x06, 0x01, 0x08, 0x02,
  0x0b, 0xf4, 0x0d, 0xf5, 0xf5, 0xf5, 0xf4, 0xff, 0xfb, 0x02, 0x07, 0x06,
  0xf3, 0x04, 0x00, 0x02, 0x04, 0x02, 0x05, 0xf6, 0x00, 0xf8, 0x06, 0xff,
  0xf9, 0xfd, 0x01, 0x03, 0xfa, 0x03, 0xf4, 0xfb, 0xfa, 0x08, 0x03, 0x0c,
  0x07, 0xf5, 0xfa, 0x09, 0xf4, 0x05, 0x0c, 0xf6, 0x07, 0x00, 0xf7, 0xf3,
  0xfb, 0xf9, 0xfb, 0x09, 0x09, 0xf8, 0xff, 0x08, 0x06, 0xfa, 0xfc, 0xf5,
  0xf5, 0xf4, 0x01, 0x01, 0xfb, 0xf7, 0x01, 0xf4, 0xfa, 0xf6, 0xfc, 0x0a,
  0x03, 0x0b, 0xfb, 0x07, 0x07, 0xf9, 0x07, 0x05, 0xf7, 0x04, 0xfd, 0xfa,
  0xfc, 0xf5, 0xfb, 0xf4, 0x02, 0xfc, 0xf8, 0xf5, 0x01, 0x02, 0x01, 0xf3,
  0x0c, 0x01, 0xfd, 0x08, 0xfb, 0x03, 0xff, 0xf6, 0xf5, 0xfd, 0x09, 0x0a,
  0x08, 0xfb, 0x00, 0xf5, 0x01, 0xfa, 0xfa, 0xfc, 0x00, 0xf1, 0x0d, 0x0c,
  0xf7, 0xfd, 0xf7, 0xf8, 0xff, 0xfd, 0x08, 0x03, 0x04, 0x03, 0x0d, 0x04,
  0x0c, 0xfd, 0xf3, 0x01, 0xf7, 0xfe, 0xfb, 0x0a, 0x04, 0x01, 0x05, 0xfa,
  0xfa, 0x05, 0xfd, 0xf5, 0xfa, 0x00, 0xf4, 0xfa, 0x06, 0x0a, 0xfd, 0x05,
  0xf3, 0xf9, 0xf1, 0xfc, 0xf8, 0xfc, 0x0b, 0xfe, 0x03, 0xf3, 0x0d, 0x03,
  0xfc, 0x09, 0x01, 0x09, 0x07, 0xf5, 0xf3, 0xf3, 0xf2, 0xf8, 0x0a, 0x03,
  0x08, 0xf2, 0x03, 0x02, 0x0c, 0xff, 0xfd, 0x0c, 0x04, 0x01, 0x05, 0xf0,
  0x0a, 0x07, 0xf7, 0xf4, 0xf3, 0x03, 0xf5, 0xf7, 0x0c, 0xff, 0xf5, 0x01,
  0xf5, 0xfb, 0x0d, 0xf4, 0x02, 0xff, 0xfa, 0x07, 0x00, 0x04, 0x06, 0xff,
  0x07, 0x03, 0xf4, 0xf8, 0xfc, 0x07, 0x05, 0x03, 0xff, 0xf7, 0x0c, 0xf8,
  0xfa, 0xfd, 0x06, 0xfd, 0xfc, 0x02, 0xf5, 0xf7, 0xfc, 0xfc, 0x08, 0xfc,
  0xf8, 0xfe, 0xf6, 0xf8, 0xfd, 0xf6, 0x0c, 0x0c, 0x09, 0x07, 0x0c, 0x09,
  0x0c, 0x00, 0x0a, 0xf6, 0x02, 0xf1, 0xf7, 0xf8, 0xf3, 0xf9, 0xfd, 0x05,
  0xf5, 0xf5, 0xf7, 0xf4, 0x0d, 0xfb, 0xf6, 0x06, 0x09, 0x00, 0x0a, 0x00,
  0x02, 0x0b, 0x02, 0xf9, 0x05, 0xf3, 0x05, 0xfe, 0x01, 0x01, 0xfe, 0x08,
  0xfb, 0x07, 0xfd, 0x08, 0x05, 0xf5, 0x04, 0xfa, 0x03, 0xfe, 0xfc, 0x0d,
  0xf6, 0xf5, 0x0c, 0x08, 0xff, 0x0a, 0x0b, 0x07, 0xf3, 0xf4, 0x0c, 0xf7,
  0x01, 0x07, 0x04, 0xfd, 0x09, 0x04, 0xf6, 0xfd, 0xfe, 0xf6, 0xf3, 0x0a,
  0xfe, 0x0a, 0x08, 0xfa, 0x06, 0xfd, 0x00, 0xfa, 0x04, 0x07, 0x00, 0xf8,
  0xfb, 0xf6, 0x03, 0xf5, 0x04, 0xf8, 0xf5, 0xff, 0xf5, 0x0c, 0x0b, 0xf4,
  0x05, 0x0b, 0xfe, 0x07, 0x04, 0x02, 0x06, 0x07, 0xff, 0xf6, 0x09, 0xfe,
  0xf8, 0xf6, 0xfe, 0xfa, 0x07, 0xf3, 0x00, 0x07, 0x0a, 0x04, 0xfa, 0x04,
  0xf5, 0x03, 0xf8, 0x08, 0xfb, 0xfa, 0x0c, 0xf6, 0x0a, 0x04, 0x05, 0xfc,
  0x03, 0x09, 0xfe, 0x09, 0x05, 0x02, 0x06, 0xf7, 0x08, 0x06, 0x0b, 0xf9,
  0x05, 0xf9, 0xf4, 0x0b, 0x0c, 0xf7, 0x0d, 0xf5, 0xf4, 0xfc, 0xf8, 0x04,
  0xf4, 0xf5, 0xf6, 0xf7, 0x03, 0x0d, 0x08, 0xf7, 0x06, 0xfe, 0x00, 0xf6,
  0x02, 0xf4, 0x09, 0x03, 0xf8, 0x00, 0xfa, 0x08, 0x0c, 0x0b, 0xf4, 0x0a,
  0x03, 0x0b, 0xf7, 0x0c, 0xff, 0x00, 0x0c, 0x06, 0x0c, 0xf9, 0x0a, 0x02,
  0xfc, 0x06, 0xfb, 0xfa, 0x06, 0xfb, 0x08, 0x09, 0x09, 0x06, 0xfb, 0x03,
  0x0d, 0x01, 0x07, 0xfc, 0x03, 0xfa, 0xf9, 0x00, 0x01, 0xfa, 0xf5, 0xf9,
  0x0c, 0x09, 0x01, 0x05, 0x08, 0x07, 0xfe, 0x09, 0x08, 0x04, 0x0d, 0xfc,
  0x0c, 0x0a, 0x0c, 0x0b, 0x06, 0xfb, 0xfb, 0x08, 0xfd, 0xf7, 0xf9, 0x05,
  0xfb, 0xfc, 0xf6, 0x05, 0x09, 0x0b, 0x05, 0xff, 0xfd, 0xf2, 0xfb, 0xf9,
  0x0b, 0xf7, 0x03, 0xf4, 0x02, 0x09, 0x02, 0xf4, 0xfe, 0x0b, 0x06, 0xfe,
  0x06, 0x0a, 0x09, 0x0c, 0xfc, 0x06, 0x02, 0xf3, 0x0b, 0x03, 0xfe, 0xf5,
  0x0d, 0xf3, 0x06, 0xf7, 0x0b, 0x06, 0xfc, 0x03, 0xf3, 0xf4, 0x0b, 0x06,
  0x01, 0x08, 0xfe, 0x08, 0xf7, 0x06, 0xf6, 0x0d, 0xfd, 0xf4, 0x07, 0x02,
  0x0c, 0x01, 0xff, 0xf8, 0x0c, 0xfc, 0x09, 0x09, 0x06, 0xfd, 0x03, 0x08,
  0xf9, 0xff, 0xf3, 0xf3, 0x03, 0x0c, 0x02, 0xf7, 0xfe, 0xfa, 0x04, 0x0a,
  0xf3, 0x06, 0x06, 0xf7, 0x07, 0x0d, 0x02, 0x0d, 0xfc, 0x00, 0x05, 0xff,
  0x09, 0xff, 0xfe, 0x0a, 0x0a, 0x09, 0x09, 0x01, 0x00, 0x07, 0xf6, 0x0b,
  0x05, 0x05, 0x06, 0xfd, 0x00, 0xf4, 0x06, 0x02, 0x05, 0x0b, 0x02, 0x08,
  0x01, 0xf3, 0x07, 0x02, 0x0b, 0x0d, 0x06, 0x06, 0x0c, 0xff, 0xfe, 0x07,
  0x0d, 0xf7, 0xff, 0x0a, 0x09, 0x05, 0xf3, 0x09, 0x02, 0x0d, 0x05, 0x03,
  0x05, 0x06, 0x09, 0x05, 0x03, 0xf5, 0x02, 0x08, 0x0d, 0x04, 0xf5, 0xf3,
  0xfb, 0x02, 0x0c, 0xf4, 0xfb, 0xf7, 0xfb, 0xf9, 0x07, 0x07, 0xf5, 0x0b,
  0xfc, 0x07, 0x04, 0xfd, 0x08, 0x04, 0x0b, 0xf7, 0xf7, 0x06, 0xf8, 0xfa,
  0x09, 0x00, 0x05, 0x04, 0x05, 0x06, 0xf4, 0x02, 0xfa, 0x0d, 0x0a, 0x03,
  0x05, 0x04, 0x0b, 0xf6, 0xfb, 0xfa, 0xf5, 0x04, 0xf9, 0x01, 0xfe, 0xf9,
  0x09, 0xf7, 0x06, 0x07, 0xfb, 0x09, 0x05, 0x01, 0x05, 0x05, 0x0c, 0x0b,
  0x07, 0xfd, 0xf3, 0xf4, 0x0c, 0xf7, 0xf7, 0x0d, 0xf4, 0x01, 0xf8, 0xfd,
  0x00, 0x0b, 0xf4, 0x01, 0x01, 0x03, 0x06, 0xf8, 0xf8, 0xfe, 0xf3, 0xfb,
  0x08, 0x0a, 0x05, 0x0d, 0xfa, 0xf9, 0xf6, 0xf7, 0xf5, 0xf7, 0xf6, 0xf7,
  0xfa, 0x0d, 0xf4, 0xf4, 0xfb, 0x0a, 0xfd, 0xfa, 0xf4, 0x00, 0xf3, 0x06,
  0x09, 0xf7, 0x03, 0x07, 0x0b, 0xf6, 0x0b, 0xf4, 0x08, 0xfa, 0xf7, 0x07,
  0xfa, 0x01, 0x06, 0xff, 0x00, 0x00, 0x0c, 0x08, 0xf9, 0xf4, 0xfc, 0xf7,
  0xff, 0x02, 0xf6, 0xf8, 0x05, 0x07, 0xfa, 0xff, 0x05, 0xff, 0xf5, 0xf8,
  0x02, 0x08, 0xfd, 0xf4, 0x06, 0x09, 0xfb, 0x09, 0xf9, 0xfd, 0x07, 0x01,
  0xff, 0x00, 0xf9, 0xfc, 0xfb, 0x03, 0xfb, 0xf8, 0xfc, 0xfc, 0xff, 0x01,
  0x0d, 0xf5, 0x01, 0x03, 0x03, 0x0c, 0xfe, 0x08, 0x09, 0xfc, 0xfe, 0xf6,
  0xff, 0xff, 0x03, 0xfc, 0x02, 0x02, 0x08, 0xf3, 0x04, 0x09, 0x06, 0x0e,
  0x0c, 0xfe, 0xf6, 0x0a, 0xfa, 0x0a, 0xf3, 0xf8, 0xf6, 0x0d, 0x0c, 0x01,
  0xfe, 0xf6, 0xff, 0x09, 0xfd, 0x0a, 0x05, 0x01, 0x05, 0x0d, 0xfb, 0xf7,
  0xf6, 0x09, 0xf6, 0xf5, 0x0b, 0xfb, 0xf8, 0x0d, 0xf4, 0x06, 0xff, 0x01,
  0x05, 0xff, 0xf6, 0x05, 0xf4, 0xf4, 0x02, 0xf9, 0xf6, 0xfb, 0x09, 0x06,
  0xf6, 0xf4, 0xfe, 0x0d, 0xf9, 0xf7, 0x06, 0x04, 0xf5, 0xf9, 0xfa, 0x04,
  0xf7, 0xfd, 0x0a, 0x08, 0xfb, 0x08, 0x05, 0x09, 0xf8, 0xfc, 0x0c, 0x07,
  0x00, 0xf4, 0xfb, 0x0a, 0x02, 0xfe, 0x0b, 0xf9, 0xf4, 0x07, 0x04, 0x03,
  0x07, 0xfb, 0x09, 0x09, 0xf8, 0x0c, 0x07, 0xf5, 0xf3, 0xfd, 0xf8, 0x0d,
  0x05, 0xfb, 0x02, 0xf3, 0x00, 0xf7, 0x09, 0xf6, 0xf4, 0x05, 0x05, 0xf9,
  0xf5, 0x06, 0x0d, 0xfe, 0xf5, 0x07, 0x05, 0xfc, 0x0d, 0x0d, 0xf9, 0x0d,
  0xfd, 0x05, 0x01, 0x05, 0x05, 0xf8, 0xf8, 0xf4, 0x0a, 0xfa, 0xf3, 0xf7,
  0x0a, 0xfa, 0x02, 0x02, 0xf8, 0x01, 0xf3, 0x03, 0x08, 0xf5, 0x0a, 0xf3,
  0xf5, 0xfd, 0xfd, 0xf6, 0xfb, 0xfb, 0x00, 0x02, 0xfe, 0x00, 0x01, 0x06,
  0xfd, 0x03, 0xf8, 0x04, 0x04, 0x02, 0x03, 0x02, 0xf8, 0xff, 0x01, 0x0b,
  0x0d, 0x0a, 0xfc, 0x01, 0xf4, 0xf9, 0xf7, 0x03, 0x03, 0xef, 0xf6, 0x08,
  0xee, 0x01, 0xf2, 0xfd, 0x09, 0x0c, 0xf7, 0x0b, 0xf8, 0xfb, 0xff, 0x0d,
  0xf5, 0xfd, 0x06, 0x01, 0xfe, 0xfc, 0x07, 0xf9, 0xff, 0xfb, 0xfd, 0x07,
  0xfc, 0x05, 0x03, 0xf8, 0xfa, 0x04, 0x06, 0x0c, 0x0d, 0x0a, 0xfa, 0x04,
  0x08, 0xf7, 0xf4, 0x03, 0xf7, 0xf9, 0x06, 0x01, 0xf1, 0xf7, 0xf7, 0xf8,
  0x0d, 0xf3, 0xfa, 0x00, 0xf7, 0xf7, 0x00, 0xfe, 0xfc, 0x00, 0x0a, 0x04,
  0x08, 0xfb, 0xfc, 0x04, 0xf3, 0x03, 0x04, 0xf8, 0x08, 0xfc, 0x0a, 0xfb,
  0x08, 0xff, 0x09, 0xf9, 0x09, 0xf5, 0xfb, 0x06, 0x08, 0x04, 0xf5, 0xfa,
  0xf3, 0xff, 0x05, 0xfe, 0x03, 0x06, 0x0c, 0xfd, 0x07, 0x03, 0xfe, 0x09,
  0xfc, 0xf3, 0xfd, 0x07, 0xf3, 0xf9, 0x03, 0xf9, 0x0d, 0x03, 0x09, 0xfd,
  0x09, 0xf8, 0x0c, 0x00, 0xf5, 0x02, 0x08, 0xf3, 0xff, 0xfd, 0x07, 0x09,
  0xf6, 0xf6, 0x08, 0xf4, 0x02, 0x05, 0xf2, 0x07, 0x00, 0x0d, 0x02, 0x09,
  0xf4, 0xf9, 0xf6, 0xfa, 0x0b, 0xf6, 0xf9, 0x03, 0x06, 0x07, 0xf3, 0x0c,
  0x05, 0xf7, 0xfe, 0x0c, 0xf3, 0xf6, 0xfd, 0xfe, 0x05, 0xf3, 0xfe, 0x04,
  0x07, 0xf4, 0x0d, 0x05, 0xfe, 0x08, 0xf5, 0x04, 0x08, 0xf9, 0xf6, 0x02,
  0x0d, 0xf3, 0x0c, 0x05, 0x01, 0xf6, 0xfb, 0xf9, 0xfb, 0xf5, 0xfc, 0xf3,
  0xf8, 0xf7, 0x08, 0xf5, 0x02, 0x01, 0xf6, 0x02, 0xfd, 0x04, 0xfe, 0x0b,
  0x0c, 0x06, 0xf9, 0xf4, 0xfe, 0xfc, 0x00, 0x04, 0x01, 0x08, 0xff, 0x00,
  0x07, 0x0d, 0x09, 0x04, 0x07, 0x02, 0x07, 0x02, 0x02, 0xf5, 0xfc, 0xfb,
  0x05, 0xf5, 0x01, 0x0a, 0xf9, 0xf4, 0xfd, 0xfa, 0xf9, 0xf5, 0xfb, 0x09,
  0xfd, 0x0c, 0x01, 0xf5, 0x04, 0xf5, 0x03, 0x02, 0x04, 0x03, 0x08, 0xf5,
  0xfd, 0xf5, 0xf0, 0xf5, 0x03, 0xf7, 0x00, 0xfe, 0xfb, 0x02, 0x0a, 0x07,
  0xfc, 0x0b, 0x05, 0x0c, 0xf5, 0x06, 0x0d, 0x0a, 0xfe, 0xff, 0x0c, 0xf3,
  0xf5, 0x0c, 0x09, 0x08, 0xf6, 0xfd, 0x0b, 0xf9, 0x08, 0xf8, 0x05, 0x0d,
  0x0d, 0x09, 0x05, 0xff, 0x0d, 0x03, 0x02, 0xf5, 0x07, 0xf5, 0x00, 0xf5,
  0x05, 0xf4, 0xf5, 0xfb, 0x08, 0xf6, 0x02, 0xf4, 0x03, 0xf3, 0x0a, 0xf9,
  0xf1, 0x08, 0x09, 0x0b, 0xfc, 0xf8, 0x03, 0xf1, 0x0b, 0x05, 0x00, 0xf3,
  0x00, 0xfd, 0xf1, 0xf7, 0x00, 0x00, 0xfe, 0xfa, 0x00, 0x04, 0x08, 0xf5,
  0xf9, 0x06, 0x09, 0x06, 0x05, 0x03, 0xf8, 0x0c, 0xf4, 0x0a, 0x00, 0xfd,
  0xf7, 0x08, 0xfd, 0x04, 0xf9, 0x0c, 0xf8, 0x0c, 0x0a, 0xfc, 0xf5, 0x0a,
  0xf7, 0x09, 0xf7, 0xff, 0xf4, 0xf3, 0xf8, 0xf4, 0xfe, 0x06, 0xf5, 0xfa,
  0xf8, 0xf9, 0xf4, 0x06, 0x08, 0xf9, 0x09, 0x00, 0xfa, 0x00, 0x0d, 0xf8,
  0xf1, 0xf3, 0xf4, 0x08, 0xf3, 0xfd, 0xf7, 0x07, 0xfb, 0x02, 0x03, 0x0a,
  0x07, 0xfd, 0x06, 0xfb, 0x0d, 0x07, 0xf8, 0xfe, 0x0c, 0x0c, 0x00, 0xfe,
  0xfb, 0xfc, 0x06, 0xf9, 0x0c, 0xf5, 0xfc, 0x00, 0x04, 0xf6, 0x03, 0x05,
  0x0b, 0xf3, 0x02, 0xff, 0x07, 0x03, 0xfb, 0x0e, 0x00, 0xf4, 0x0d, 0x0d,
  0xf5, 0x09, 0xfb, 0xf5, 0xf7, 0xfa, 0xfb, 0xf6, 0x0d, 0xff, 0x0a, 0xfc,
  0x0c, 0xf8, 0x06, 0x04, 0xf9, 0xfa, 0x07, 0xff, 0x09, 0x0c, 0x04, 0xfb,
  0x09, 0xfb, 0x00, 0xfe, 0x02, 0x07, 0x02, 0x05, 0x0b, 0xfb, 0x09, 0xfa,
  0xfb, 0x06, 0xfa, 0x00, 0x05, 0xf8, 0x06, 0xf3, 0xf8, 0x02, 0xf6, 0x01,
  0x0a, 0x04, 0xfd, 0x03, 0x07, 0x07, 0xf3, 0xfb, 0x06, 0xf5, 0x04, 0x05,
  0x05, 0x09, 0xf6, 0x0c, 0xfd, 0xfc, 0xfc, 0xfa, 0x01, 0xfb, 0x02, 0xf5,
  0xfe, 0x07, 0xf5, 0x04, 0xf7, 0xfc, 0xff, 0xf8, 0xff, 0x06, 0xf9, 0x04,
  0x03, 0xf4, 0xf5, 0xfd, 0xfb, 0xfd, 0x08, 0x03, 0xf5, 0x0b, 0xf4, 0x02,
  0xf6, 0x03, 0x04, 0x00, 0xf6, 0xf6, 0x03, 0xf7, 0xf8, 0x04, 0x00, 0x0d,
  0xfe, 0x0a, 0xfd, 0x0a, 0xf8, 0x0d, 0x08, 0x08, 0x03, 0x07, 0xfa, 0x0c,
  0xfa, 0xf6, 0xf6, 0xff, 0x06, 0x04, 0x05, 0x03, 0xfd, 0xfd, 0x07, 0xf4,
  0xfe, 0xfc, 0xf1, 0xf3, 0xf2, 0x02, 0x0b, 0xf7, 0xfc, 0xf9, 0x02, 0x02,
  0x01, 0xf3, 0x03, 0x03, 0x07, 0x00, 0x0c, 0x07, 0xf1, 0xfa, 0xfc, 0x04,
  0xff, 0x07, 0xfd, 0xf4, 0xf7, 0x05, 0x06, 0xf5, 0xfd, 0xfb, 0x0a, 0x08,
  0xf7, 0x08, 0x04, 0xf4, 0x02, 0x09, 0x0b, 0xf4, 0xf3, 0x07, 0xf4, 0xfb,
  0x02, 0x08, 0xf9, 0xfd, 0xf8, 0xf5, 0x02, 0x00, 0x05, 0x01, 0x0a, 0x02,
  0x08, 0xfb, 0x02, 0xfc, 0x0a, 0xf5, 0x07, 0x00, 0xf5, 0xf2, 0x09, 0xf5,
  0xfe, 0xf4, 0x05, 0xf6, 0x01, 0x08, 0x02, 0x09, 0x00, 0xfb, 0xff, 0x00,
  0xfc, 0x06, 0x04, 0xf5, 0xff, 0xf6, 0x06, 0x0c, 0x01, 0xf5, 0xfd, 0xf5,
  0xfa, 0x0d, 0xfa, 0x07, 0x0b, 0x08, 0xf9, 0x0a, 0x0d, 0xfb, 0xfd, 0x09,
  0x00, 0x01, 0xf4, 0x0a, 0xf3, 0xff, 0xf4, 0x09, 0x09, 0xfa, 0x01, 0xfe,
  0xfc, 0x04, 0x09, 0x0b, 0xfe, 0x03, 0xf8, 0x0c, 0x05, 0x0b, 0xfe, 0x0a,
  0xfa, 0x0a, 0x02, 0xfe, 0x01, 0x07, 0xfd, 0xf7, 0xf9, 0x09, 0xfa, 0x0b,
  0x0d, 0x01, 0x08, 0xfc, 0x01, 0x0d, 0x06, 0x0a, 0x0b, 0xf6, 0x0a, 0x0a,
  0xff, 0xfb, 0x06, 0xf7, 0xf5, 0x0d, 0xff, 0xf8, 0xfd, 0xf6, 0xfe, 0xf3,
  0x03, 0x00, 0x03, 0xfe, 0xfa, 0x00, 0xf5, 0x02, 0xf7, 0x05, 0x05, 0x04,
  0x00, 0x04, 0x07, 0xfc, 0xfa, 0x00, 0xf7, 0x09, 0xf9, 0xf8, 0x09, 0xff,
  0x01, 0xf5, 0xf8, 0x01, 0x0a, 0xfc, 0xf3, 0x04, 0xf3, 0x0b, 0x0c, 0x06,
  0xf6, 0xf3, 0x09, 0x04, 0xfc, 0x01, 0xf5, 0xf9, 0x08, 0xf3, 0x0b, 0x04,
  0x00, 0x02, 0xfc, 0x05, 0x0a, 0x09, 0x02, 0x08, 0x06, 0xfa, 0x05, 0xf4,
  0xfe, 0xf6, 0xf7, 0x04, 0xfa, 0xf9, 0x07, 0xf2, 0xff, 0x07, 0xf8, 0x02,
  0xfd, 0x00, 0x04, 0x0c, 0xf6, 0x01, 0x08, 0x08, 0x0b, 0x03, 0x06, 0xfc,
  0xf6, 0x00, 0x01, 0xf8, 0xff, 0x08, 0x0a, 0xfc, 0x07, 0xfc, 0x06, 0x00,
  0xf6, 0x08, 0xf9, 0x0d, 0x0b, 0x0d, 0x06, 0x05, 0x06, 0x08, 0xf3, 0xf8,
  0x04, 0x04, 0x09, 0x05, 0xf7, 0x09, 0xfa, 0x04, 0x09, 0x02, 0xfd, 0xfa,
  0x0a, 0x0e, 0x02, 0xfc, 0x06, 0x04, 0x0d, 0xfc, 0xf7, 0x03, 0x02, 0xf9,
  0x08, 0x0c, 0xf5, 0x07, 0xfe, 0xf9, 0xf9, 0xfb, 0x08, 0xf8, 0x0d, 0xf6,
  0xf3, 0xff, 0x09, 0x06, 0x08, 0x00, 0xf5, 0xf9, 0xfc, 0x06, 0xf5, 0xfd,
  0x02, 0xf2, 0x05, 0xf8, 0x07, 0xf7, 0x06, 0xfd, 0x07, 0x03, 0x0a, 0x03,
  0xfd, 0xfc, 0x01, 0xf4, 0xfd, 0x0e, 0x09, 0x0d, 0xfd, 0xf9, 0x0c, 0xf4,
  0xfd, 0xfa, 0xfa, 0x06, 0xf9, 0xf8, 0xfb, 0x00, 0x03, 0xf6, 0xf7, 0xf4,
  0x0d, 0xf4, 0x03, 0xf8, 0x07, 0x01, 0x03, 0x0a, 0xf3, 0x01, 0x06, 0x00,
  0x08, 0x03, 0x02, 0x08, 0xfd, 0xf9, 0x06, 0x04, 0x09, 0x0a, 0x00, 0xfa,
  0x0c, 0xef, 0x03, 0xfe, 0xf3, 0xf2, 0xfc, 0xf7, 0xfa, 0x05, 0xfa, 0xff,
  0xfa, 0x0b, 0x00, 0xf6, 0xf4, 0xf3, 0x06, 0x04, 0xf9, 0xfb, 0xf3, 0xf9,
  0x0b, 0xfe, 0x01, 0xff, 0x00, 0x01, 0xf4, 0x02, 0xff, 0x06, 0x0c, 0x04,
  0xf0, 0x03, 0x0b, 0x07, 0x08, 0x07, 0xfd, 0x06, 0x03, 0x01, 0x06, 0xfe,
  0xfc, 0xfc, 0xf8, 0x05, 0x09, 0xf6, 0x01, 0xf9, 0x04, 0xf8, 0x0b, 0xf4,
  0xfe, 0x0b, 0xff, 0xf7, 0xfd, 0xf5, 0xf9, 0xf6, 0x0d, 0xff, 0x01, 0x08,
  0xfd, 0xfc, 0x0a, 0x02, 0xfc, 0xfd, 0xfb, 0xfb, 0xf3, 0xfd, 0xfa, 0x0b,
  0x01, 0x07, 0x08, 0x0c, 0xf5, 0x08, 0xfc, 0xfc, 0xf4, 0x00, 0x04, 0x04,
  0x00, 0x0b, 0xff, 0x09, 0xf9, 0xfa, 0xf8, 0xfb, 0x02, 0xfb, 0xf5, 0x0b,
  0x06, 0x01, 0xfe, 0x01, 0x0b, 0x09, 0xf7, 0x09, 0x0b, 0x0b, 0xf4, 0xf6,
  0x09, 0x09, 0xf2, 0x00, 0xfa, 0xff, 0x0b, 0x0a, 0x00, 0x07, 0xfd, 0x08,
  0xfe, 0x0c, 0x08, 0x0a, 0x0d, 0xff, 0xff, 0x00, 0xfd, 0xf2, 0x09, 0x06,
  0x0a, 0x02, 0xf8, 0xfd, 0x02, 0x01, 0x07, 0xfa, 0x04, 0x00, 0xf9, 0x04,
  0xf3, 0xff, 0xfe, 0xfc, 0x01, 0xf7, 0x08, 0xf8, 0xf4, 0x0b, 0x07, 0x09,
  0x0c, 0x04, 0xff, 0xf8, 0x08, 0xf3, 0x0b, 0xf9, 0xf3, 0x02, 0xfe, 0xf7,
  0xfe, 0x07, 0x05, 0xf8, 0xf6, 0x05, 0x09, 0xfa, 0xf8, 0x06, 0xee, 0xf4,
  0xfb, 0xff, 0xf2, 0xfe, 0x08, 0xfc, 0x0c, 0xfe, 0x01, 0xf3, 0x00, 0x06,
  0xf1, 0x09, 0x03, 0xfb, 0x00, 0x00, 0x0c, 0x09, 0x05, 0xf5, 0xfc, 0x04,
  0xf3, 0xf6, 0x0b, 0xf6, 0xfe, 0x08, 0x03, 0xfd, 0xf9, 0xf1, 0x03, 0xfb,
  0xf7, 0x06, 0xf2, 0xf2, 0xfe, 0xf4, 0x05, 0xf8, 0xf7, 0x0d, 0xf3, 0x0d,
  0x0c, 0xfb, 0x01, 0x00, 0xf7, 0xfc, 0xf7, 0xf7, 0xff, 0xf9, 0x08, 0x0b,
  0xf4, 0xfd, 0xf8, 0x0b, 0x09, 0xfe, 0xf5, 0xff, 0x02, 0x0c, 0x05, 0xf6,
  0xf6, 0xff, 0xf4, 0xfb, 0x0b, 0x09, 0x07, 0xf7, 0x0a, 0x08, 0xf7, 0xf8,
  0xf5, 0xfb, 0x0d, 0xf5, 0xf9, 0xf4, 0xfc, 0xff, 0x07, 0xff, 0xf7, 0xf4,
  0x06, 0x08, 0x03, 0xf3, 0x09, 0x05, 0x03, 0x0d, 0x02, 0x05, 0x06, 0x06,
  0x0a, 0x00, 0x0a, 0x0a, 0x05, 0x02, 0x09, 0x05, 0x09, 0x00, 0x01, 0x02,
  0x06, 0x0b, 0x06, 0xf7, 0xfb, 0xf7, 0xf3, 0x09, 0xfb, 0xf7, 0xfc, 0xf4,
  0x0d, 0xf3, 0xfc, 0x02, 0xf4, 0x06, 0xfb, 0x01, 0xfb, 0x01, 0xf3, 0xfb,
  0xf8, 0xf9, 0x05, 0xfa, 0xf5, 0xfe, 0xfd, 0xf4, 0x0a, 0x06, 0x0b, 0xfb,
  0xfc, 0xf4, 0xff, 0xfd, 0xf8, 0x0b, 0x07, 0x04, 0x06, 0xfa, 0xf4, 0x04,
  0xfa, 0x02, 0xff, 0x08, 0xf3, 0x04, 0x01, 0x0c, 0xfb, 0x05, 0x08, 0xf3,
  0x06, 0xfd, 0xfd, 0x02, 0x0c, 0xf8, 0xfa, 0x0c, 0xfc, 0xf8, 0x0d, 0x0d,
  0x0c, 0xf6, 0x04, 0x0a, 0xf5, 0xf4, 0x07, 0x09, 0x03, 0xf7, 0xf9, 0x0d,
  0xf3, 0x00, 0x0c, 0xf4, 0x03, 0xfa, 0xf6, 0x05, 0x0e, 0x07, 0xfb, 0xfd,
  0xfa, 0x0d, 0x02, 0xf9, 0xf3, 0x01, 0xf8, 0x03, 0x0d, 0xfb, 0x06, 0xfd,
  0x06, 0x07, 0xfa, 0xfc, 0xf8, 0xf8, 0x0b, 0xfe, 0x0d, 0xf5, 0x03, 0x00,
  0x03, 0x0b, 0x0b, 0xf8, 0x0b, 0x05, 0x04, 0xf9, 0x05, 0x09, 0x01, 0x0a,
  0xfc, 0xf9, 0xfa, 0x0a, 0x0c, 0x08, 0xf5, 0xfb, 0xf6, 0xfe, 0x06, 0x03,
  0x00, 0x04, 0x00, 0xf5, 0x01, 0xf3, 0xfe, 0x01, 0xfc, 0x0d, 0x0a, 0x0a,
  0x00, 0x03, 0xfa, 0x08, 0xfe, 0x00, 0xf6, 0xf8, 0xf4, 0xfb, 0xec, 0xfc,
  0xf8, 0xf9, 0x08, 0x01, 0x05, 0xf5, 0x05, 0x02, 0x01, 0x00, 0x09, 0x02,
  0x0a, 0xf4, 0x01, 0x0b, 0xf4, 0x0d, 0x02, 0x01, 0x00, 0xf6, 0xf9, 0x0c,
  0x07, 0xfd, 0xf2, 0xf6, 0xfc, 0xf3, 0xf6, 0xf9, 0x02, 0xfb, 0xfd, 0xf3,
  0xf8, 0x00, 0x08, 0x01, 0x0c, 0x0f, 0xf7, 0x0d, 0x0d, 0x09, 0xf7, 0x02,
  0x01, 0xfb, 0x00, 0xfc, 0xfa, 0xfc, 0xf9, 0x0c, 0x0a, 0x07, 0xfc, 0x00,
  0x06, 0x0f, 0x0a, 0x09, 0xf3, 0x04, 0x04, 0xfa, 0xfc, 0x0c, 0x09, 0x00,
  0xfe, 0xff, 0xfc, 0xfe, 0x04, 0xf3, 0xf9, 0xfe, 0xfc, 0x03, 0xf3, 0xfd,
  0xfc, 0xf4, 0xf5, 0x04, 0x0d, 0xf6, 0x05, 0xfe, 0x02, 0xfa, 0xfb, 0x07,
  0xff, 0xfe, 0x07, 0xf6, 0xf8, 0xf3, 0xfc, 0x04, 0x05, 0xf5, 0x01, 0x0a,
  0xfb, 0x02, 0xfd, 0x08, 0x0b, 0x05, 0xf8, 0xff, 0x0a, 0x03, 0xf3, 0xf8,
  0x0a, 0xf6, 0x0a, 0xff, 0x02, 0x0a, 0x09, 0x05, 0xf6, 0xfb, 0xf7, 0x02,
  0x09, 0x09, 0xf5, 0xff, 0x02, 0x02, 0x00, 0x03, 0x0a, 0x05, 0x09, 0x0b,
  0xfc, 0xfc, 0x0b, 0x02, 0x04, 0x07, 0x06, 0x02, 0x01, 0x0c, 0x08, 0xf9,
  0xf5, 0xfb, 0x07, 0x0b, 0x0b, 0xf8, 0xf7, 0xf8, 0xf6, 0x0b, 0xfe, 0xf4,
  0x08, 0xfb, 0x05, 0xfa, 0xfd, 0x0d, 0x02, 0xf8, 0xf5, 0x03, 0xf5, 0xf6,
  0xf4, 0xfe, 0x03, 0xfd, 0x07, 0x02, 0x01, 0xf6, 0xf8, 0x05, 0x02, 0x04,
  0x07, 0xfe, 0xfb, 0xfb, 0x00, 0x04, 0x03, 0xf4, 0xf9, 0x01, 0x04, 0x0b,
  0x00, 0x0d, 0x00, 0x00, 0xff, 0xfa, 0x01, 0x09, 0x02, 0x06, 0x09, 0x0c,
  0xfd, 0x08, 0x0c, 0xf5, 0xf4, 0xf5, 0xfd, 0x07, 0xfb, 0x08, 0xf7, 0xfd,
  0x05, 0xf3, 0x0c, 0xff, 0xfe, 0xf3, 0x00, 0xfb, 0xf7, 0x03, 0x04, 0xfd,
  0x02, 0xf8, 0xf9, 0x02, 0xff, 0xf9, 0x03, 0xf8, 0x00, 0xf6, 0xfd, 0xf4,
  0x07, 0xfa, 0x06, 0x06, 0xf6, 0x05, 0xf3, 0xf4, 0x0a, 0x0b, 0x0c, 0x09,
  0x0a, 0x06, 0x00, 0x09, 0xf3, 0xf4, 0x0a, 0xfe, 0xf7, 0x0c, 0x06, 0xf6,
  0x02, 0x07, 0x09, 0x02, 0xfa, 0xfe, 0x04, 0x02, 0x09, 0xf3, 0xf4, 0xfd,
  0xf5, 0xf8, 0x0d, 0xf3, 0xf8, 0xff, 0xf8, 0xfd, 0x03, 0xf4, 0x07, 0x04,
  0x0a, 0x00, 0x02, 0x01, 0x02, 0x03, 0xfb, 0x01, 0xfe, 0xf6, 0xf3, 0xfc,
  0xf4, 0xf8, 0x04, 0xf4, 0x02, 0xfc, 0xfa, 0x03, 0x0d, 0x06, 0xf5, 0x02,
  0xfe, 0x0a, 0x0a, 0x06, 0xf4, 0xf5, 0x08, 0xf8, 0xf5, 0x07, 0x00, 0x08,
  0x06, 0xf7, 0xfc, 0x03, 0x04, 0x03, 0x0c, 0x07, 0xfb, 0xff, 0x01, 0x03,
  0xfa, 0x05, 0x04, 0x01, 0xf5, 0x04, 0xff, 0xf5, 0xf3, 0x0a, 0xf7, 0xf9,
  0x02, 0xff, 0xf6, 0x03, 0xf5, 0x0c, 0x02, 0xf5, 0xfe, 0x07, 0xfb, 0xfb,
  0xfe, 0x05, 0xf7, 0x02, 0xf5, 0xf7, 0x0c, 0x03, 0x09, 0x00, 0x0a, 0x07,
  0xf4, 0x08, 0x02, 0xfa, 0xf5, 0x0c, 0xf8, 0x03, 0x07, 0x05, 0xff, 0xf3,
  0xfe, 0x07, 0xf8, 0xf4, 0xfa, 0xf0, 0x06, 0x07, 0x04, 0xfd, 0xf4, 0xfa,
  0x06, 0x04, 0x03, 0x06, 0x06, 0xfc, 0x0c, 0xfd, 0x07, 0xf6, 0xff, 0x08,
  0x01, 0xf6, 0xfc, 0xff, 0xf7, 0xf5, 0x05, 0x03, 0x05, 0xf4, 0xfc, 0xff,
  0x09, 0xf4, 0x0d, 0xf5, 0x08, 0xf9, 0x0b, 0xfd, 0xf6, 0xfa, 0xf7, 0xf6,
  0xf5, 0x0b, 0x0c, 0x02, 0x0c, 0x03, 0x09, 0xfa, 0xf3, 0x05, 0x05, 0xf3,
  0xfa, 0x0d, 0xfa, 0x03, 0xfe, 0x0a, 0xfc, 0x0d, 0x0d, 0x09, 0xf8, 0x06,
  0xf5, 0x08, 0xf3, 0x02, 0x05, 0x09, 0x0a, 0x02, 0xf9, 0x05, 0xf8, 0x01,
  0x06, 0xf6, 0x0a, 0xf6, 0xfa, 0x0b, 0x04, 0x06, 0xf6, 0x09, 0x0a, 0x0b,
  0xfe, 0x00, 0x03, 0xf6, 0xfe, 0x03, 0x00, 0xfa, 0x00, 0x0a, 0x06, 0x02,
  0x09, 0xfc, 0xf6, 0x0a, 0x0a, 0xf3, 0xff, 0xf9, 0xfe, 0x08, 0x04, 0xfb,
  0xff, 0xf9, 0x07, 0x04, 0xfa, 0xfc, 0xf4, 0xff, 0xfb, 0x01, 0xfb, 0x05,
  0xf6, 0xf7, 0x02, 0xfd, 0x01, 0xf5, 0x09, 0x0b, 0x08, 0xf8, 0xf5, 0x0c,
  0xfc, 0xfc, 0x04, 0x07, 0xf5, 0x09, 0xf9, 0x0d, 0xf9, 0xfb, 0x0c, 0xf1,
  0xf9, 0x06, 0x01, 0xf6, 0x09, 0x03, 0x00, 0x0a, 0x0d, 0x0c, 0xfa, 0xf5,
  0x07, 0x09, 0xfa, 0x01, 0xf7, 0x01, 0xf6, 0x07, 0x02, 0x07, 0xf7, 0x09,
  0x03, 0x0a, 0xff, 0xf8, 0x0a, 0xf9, 0x03, 0xf3, 0x06, 0x08, 0x0b, 0x0b,
  0xfe, 0xf4, 0xfd, 0xff, 0xf7, 0x07, 0xf6, 0x0d, 0xf6, 0x08, 0xfd, 0x09,
  0xf8, 0x06, 0x0b, 0x07, 0x02, 0xfc, 0xf5, 0x0a, 0x00, 0x07, 0xf5, 0x03,
  0xf8, 0x0c, 0xfb, 0xf6, 0x00, 0xfb, 0xf9, 0x04, 0xfa, 0xfb, 0xf9, 0xfa,
  0xfa, 0x0a, 0xfd, 0x03, 0xf6, 0x0d, 0x0c, 0xf3, 0x08, 0x08, 0xf3, 0xfe,
  0xf5, 0x02, 0xf7, 0xfd, 0x06, 0x09, 0x08, 0x0d, 0xf9, 0xf2, 0x0a, 0xf8,
  0xf1, 0x0d, 0x04, 0x0b, 0x06, 0x0b, 0xfa, 0x02, 0xf8, 0x03, 0x08, 0x06,
  0x00, 0x0d, 0xfc, 0x05, 0xf8, 0xf9, 0x0a, 0xf5, 0xf5, 0xf9, 0x00, 0x00,
  0x07, 0x0a, 0x0a, 0x02, 0x05, 0xfd, 0x0c, 0x05, 0xff, 0x08, 0xfe, 0xfd,
  0xfc, 0x06, 0xfa, 0x05, 0xff, 0xfe, 0x01, 0x02, 0x08, 0xf6, 0xfd, 0xf5,
  0x0d, 0xf5, 0xf7, 0x0c, 0x0a, 0xfb, 0xfd, 0xf4, 0x08, 0x07, 0xfa, 0x04,
  0x09, 0xf5, 0xf6, 0x09, 0xfc, 0x02, 0x02, 0x08, 0x0d, 0x03, 0x05, 0x06,
  0x02, 0xfe, 0xfc, 0xfa, 0x07, 0x05, 0xf4, 0x0a, 0xf2, 0x06, 0x02, 0xf8,
  0x02, 0xf8, 0x0d, 0xfb, 0xf8, 0x0b, 0x09, 0x0c, 0x03, 0x05, 0xff, 0x09,
  0x07, 0xfa, 0xff, 0xf4, 0xf1, 0x0d, 0xf6, 0xf5, 0xfe, 0xfc, 0xf6, 0xf6,
  0xf6, 0x07, 0x00, 0x01, 0x0c, 0xf2, 0xfb, 0x09, 0xf4, 0xff, 0xf8, 0x03,
  0x04, 0x0a, 0x0a, 0x09, 0xfa, 0xfe, 0xf6, 0xf7, 0xfa, 0xf4, 0xf8, 0xf8,
  0xf5, 0x05, 0xf7, 0x05, 0xfe, 0x09, 0x0b, 0xff, 0xf3, 0x08, 0xfe, 0xff,
  0xf8, 0x02, 0x03, 0x0b, 0x05, 0xfb, 0x0b, 0x0b, 0x0a, 0xfb, 0x01, 0xfa,
  0xf4, 0xfe, 0xf6, 0x02, 0xfb, 0x0c, 0x0c, 0x03, 0x03, 0xf9, 0x0b, 0xfa,
  0xf5, 0x01, 0x08, 0xfe, 0x06, 0xfe, 0x0d, 0x0b, 0xf3, 0xff, 0xfd, 0xfa,
  0xfe, 0x0a, 0xfe, 0x08, 0xff, 0x06, 0xfe, 0xfb, 0xf9, 0xf9, 0x09, 0xfa,
  0x0d, 0xf9, 0x0a, 0xf4, 0xf5, 0x03, 0x0c, 0xfa, 0xf3, 0xfd, 0xf6, 0x01,
  0x0d, 0xf3, 0x05, 0xf6, 0x0a, 0x06, 0x0a, 0x01, 0xfc, 0xf8, 0xf7, 0x02,
  0xf4, 0xf6, 0x00, 0x09, 0xfc, 0x01, 0x04, 0x02, 0x09, 0xf8, 0x06, 0x04,
  0xff, 0x09, 0x0b, 0x08, 0x06, 0x01, 0xfc, 0xf4, 0x0e, 0x03, 0x0a, 0xff,
  0x0b, 0x02, 0x0a, 0xf6, 0xfa, 0xfd, 0x05, 0xf3, 0xfd, 0xfa, 0x0b, 0x07,
  0x05, 0xfc, 0x04, 0x03, 0x03, 0xf5, 0x08, 0xf7, 0x0b, 0x07, 0xf4, 0x03,
  0xfa, 0xfc, 0x0c, 0xfd, 0x06, 0x09, 0xf6, 0xf3, 0xfb, 0xfa, 0x08, 0xf6,
  0x0d, 0x0c, 0x01, 0xfa, 0x06, 0xf5, 0x04, 0xf6, 0xf6, 0xf4, 0x07, 0xfc,
  0xfe, 0xf9, 0xf7, 0xfe, 0xf9, 0xff, 0xf3, 0x02, 0xfa, 0x06, 0xfe, 0xfa,
  0x04, 0x0c, 0x03, 0x04, 0x0a, 0x0b, 0x00, 0xfa, 0x06, 0xf9, 0xfb, 0x0a,
  0x06, 0xf6, 0x09, 0xf5, 0x0b, 0xf3, 0xff, 0xf2, 0xf4, 0xff, 0x05, 0xf6,
  0xfa, 0x00, 0xf9, 0x04, 0x01, 0x02, 0xfe, 0xfa, 0xfa, 0x07, 0x09, 0x0b,
  0x01, 0xfd, 0xf7, 0x0a, 0x03, 0x01, 0xfd, 0xf8, 0xfc, 0x09, 0xfb, 0x09,
  0xf7, 0xf7, 0xf3, 0x01, 0xf8, 0xfe, 0xfe, 0x09, 0xfd, 0x04, 0x07, 0x08,
  0x01, 0x07, 0x05, 0xf7, 0xf7, 0x09, 0x01, 0xf5, 0xfe, 0x0a, 0xf7, 0xf2,
  0xf3, 0xf9, 0x06, 0x0a, 0xf6, 0xfd, 0xfa, 0xf4, 0xf8, 0x05, 0x0b, 0x00,
  0xfd, 0x0b, 0x05, 0x0d, 0xf7, 0x06, 0xf5, 0xfd, 0x00, 0xff, 0xf7, 0x02,
  0xf9, 0x00, 0x08, 0x0c, 0xff, 0x07, 0x0a, 0x00, 0x03, 0x06, 0x02, 0xfc,
  0x01, 0xfd, 0xf8, 0x09, 0xf7, 0x0c, 0xf4, 0xf2, 0x0d, 0xf6, 0x0d, 0xf7,
  0x0c, 0x05, 0x0b, 0x0b, 0xfc, 0x02, 0x06, 0xf6, 0x06, 0x03, 0xf6, 0x0c,
  0xfe, 0xf6, 0x01, 0xfd, 0xf8, 0xff, 0x0a, 0x0b, 0xf6, 0x09, 0x02, 0xf8,
  0xfa, 0xf8, 0xf6, 0xfa, 0xf4, 0xff, 0x08, 0x03, 0xf3, 0xf8, 0xf4, 0xf9,
  0xfb, 0x0a, 0xfc, 0xfa, 0xfb, 0xfe, 0xf8, 0xfc, 0xff, 0x02, 0x02, 0xff,
  0xfb, 0xfb, 0x01, 0xf2, 0xf8, 0x06, 0x0b, 0x05, 0x03, 0xf4, 0x04, 0x09,
  0x0b, 0x07, 0x00, 0x00, 0xf8, 0xfe, 0x03, 0x0d, 0xf1, 0xfa, 0xf2, 0x03,
  0x08, 0xf8, 0xfb, 0xfc, 0xf7, 0xf7, 0x0b, 0x02, 0xf3, 0x0a, 0x09, 0xfa,
  0xf5, 0xf6, 0xfc, 0xf6, 0x06, 0xf8, 0x05, 0xf4, 0x0b, 0x0a, 0xfa, 0xf4,
  0x0c, 0x03, 0x09, 0xf9, 0xf8, 0x06, 0xf8, 0xfd, 0x01, 0x0b, 0xfb, 0x02,
  0xf7, 0x0c, 0x0c, 0xf4, 0xf3, 0x0b, 0x0a, 0x07, 0x01, 0x0b, 0xf6, 0x01,
  0x07, 0xfb, 0x08, 0xf6, 0xf4, 0xfc, 0xfc, 0xfe, 0xf8, 0xf9, 0xf9, 0xfa,
  0xfc, 0xf3, 0x00, 0xff, 0xf9, 0x0b, 0xfb, 0x05, 0xf9, 0x08, 0x05, 0x05,
  0xf7, 0x04, 0x01, 0xfe, 0x08, 0xfe, 0x06, 0x0b, 0x03, 0xfa, 0x0b, 0x03,
  0x04, 0x02, 0xf8, 0xfa, 0x08, 0xf8, 0xf4, 0x09, 0x03, 0x0e, 0xf7, 0x09,
  0xfd, 0xf9, 0x08, 0xf8, 0xfd, 0xf3, 0x07, 0xf8, 0xfc, 0x01, 0x0a, 0x09,
  0xf1, 0xf9, 0x04, 0x02, 0x08, 0xfd, 0xf3, 0x06, 0xfb, 0xff, 0xf4, 0x02,
  0x03, 0x02, 0x07, 0xfa, 0xf6, 0x05, 0xf4, 0x04, 0xfb, 0x07, 0xfd, 0x02,
  0x03, 0xf9, 0xfb, 0x0a, 0x08, 0xfc, 0xf3, 0xfb, 0x0d, 0xf8, 0xf6, 0x04,
  0xf6, 0xfc, 0x03, 0xfb, 0xf9, 0x07, 0x0d, 0xf6, 0xf6, 0x08, 0x07, 0xfd,
  0x0c, 0x02, 0xff, 0x08, 0xfb, 0xff, 0xff, 0xf7, 0x08, 0xf3, 0x01, 0xf4,
  0xf8, 0xf5, 0xfa, 0x0d, 0xfa, 0xf5, 0xf4, 0x0c, 0x04, 0x0d, 0xf6, 0x02,
  0x08, 0xfa, 0x07, 0xfc, 0xf4, 0x05, 0xf5, 0xf6, 0x09, 0xf7, 0x0d, 0x04,
  0xfc, 0x06, 0xfa, 0x03, 0xf4, 0xf8, 0x09, 0x04, 0x02, 0xff, 0x00, 0xfd,
  0x01, 0x00, 0xfc, 0x0b, 0xfb, 0xf4, 0xfd, 0x0a, 0x0d, 0x07, 0x0d, 0x05,
  0xfd, 0x03, 0xfa, 0xf7, 0x06, 0xf1, 0x05, 0x02, 0x0d, 0xfa, 0x04, 0x09,
  0xf6, 0x06, 0xfa, 0xfa, 0xf8, 0x02, 0xf5, 0x02, 0x09, 0xff, 0xf9, 0xf7,
  0xfe, 0x0a, 0x0b, 0xff, 0x0a, 0xf6, 0xf8, 0xfa, 0xfd, 0xf6, 0x03, 0xfa,
  0x06, 0x03, 0xfc, 0xf5, 0x00, 0xfb, 0x02, 0xf7, 0xf6, 0xfa, 0xff, 0xfd,
  0x06, 0xf8, 0x0a, 0xfa, 0xf3, 0x05, 0xfa, 0xf6, 0x04, 0xf7, 0x05, 0x06,
  0x0b, 0x0b, 0xfc, 0x06, 0xfa, 0xf6, 0xfc, 0xf4, 0xf8, 0xfd, 0x07, 0xf3,
  0xf3, 0xf3, 0x04, 0x08, 0xfc, 0x03, 0x00, 0xff, 0x0b, 0xff, 0xfa, 0x08,
  0x09, 0x03, 0xff, 0xf8, 0xfc, 0xfd, 0xf5, 0xff, 0x0b, 0x08, 0xfa, 0xf3,
  0xfc, 0x0a, 0x05, 0x0a, 0x09, 0xfc, 0x02, 0xfb, 0xf4, 0xf3, 0x05, 0xf6,
  0x00, 0x0b, 0xf4, 0x0c, 0xf5, 0xf6, 0x04, 0x02, 0xfe, 0x06, 0x09, 0x0b,
  0x04, 0xf6, 0x0c, 0xf8, 0x02, 0x00, 0x04, 0x08, 0xfe, 0xf5, 0x09, 0x09,
  0xfb, 0x08, 0x0d, 0xfe, 0xfa, 0x03, 0xfd, 0xf4, 0xf7, 0x0c, 0x03, 0x05,
  0x0c, 0x02, 0x06, 0x0b, 0x0b, 0xf6, 0x03, 0x0a, 0x06, 0x04, 0xf1, 0x05,
  0x09, 0xf4, 0x05, 0x05, 0xfd, 0xfe, 0xfb, 0xf3, 0xfc, 0x06, 0xf8, 0xff,
  0x07, 0x03, 0xf7, 0x01, 0x0b, 0xf3, 0x03, 0xf1, 0x0c, 0xf9, 0xfc, 0xf3,
  0x0a, 0x02, 0xff, 0xf8, 0xf8, 0x06, 0xf4, 0x0d, 0xf9, 0xf9, 0x00, 0xf4,
  0xf5, 0x01, 0xfa, 0x08, 0x04, 0xfa, 0x06, 0x09, 0xfc, 0x05, 0x0a, 0x06,
  0x07, 0xf7, 0xf3, 0xf5, 0xfe, 0x0c, 0xf3, 0x02, 0xf6, 0xf9, 0x0a, 0xf8,
  0xfe, 0x0c, 0x02, 0xff, 0x04, 0xfc, 0xff, 0x0c, 0xfb, 0xf7, 0xf5, 0xfa,
  0x03, 0x04, 0x0b, 0xf6, 0x09, 0x04, 0xf7, 0x01, 0xf3, 0x05, 0x05, 0xf8,
  0x09, 0x06, 0xf5, 0x01, 0x09, 0xf9, 0x03, 0x09, 0xf6, 0xf3, 0xf6, 0xff,
  0xf8, 0x01, 0x05, 0x03, 0xfb, 0x01, 0xf7, 0xf4, 0xf5, 0x01, 0xf5, 0xff,
  0x04, 0x04, 0x06, 0xfd, 0x0a, 0x0c, 0x07, 0x0d, 0x09, 0x00, 0xf4, 0x03,
  0xf5, 0xfb, 0x00, 0x00, 0xf8, 0x09, 0x05, 0xfb, 0x06, 0xfb, 0x01, 0x08,
  0x08, 0x07, 0x00, 0xf8, 0xfc, 0x06, 0x04, 0x05, 0xf9, 0x0b, 0xfe, 0x02,
  0xfc, 0x09, 0x01, 0x0a, 0x08, 0xf5, 0xf8, 0xfb, 0xf5, 0x0b, 0xf8, 0xf5,
  0xf6, 0xf8, 0x03, 0x0b, 0x0d, 0xf6, 0xff, 0xf4, 0xf3, 0xfd, 0xf4, 0x03,
  0xf8, 0xf9, 0x0c, 0x0a, 0xff, 0xfa, 0x02, 0xf9, 0xfc, 0xff, 0xf4, 0xfa,
  0x04, 0xf5, 0x0c, 0x08, 0x0c, 0x04, 0x0b, 0x03, 0x0d, 0xf3, 0xf6, 0xf6,
  0xf6, 0x04, 0xf6, 0x0b, 0xf4, 0x04, 0x03, 0x08, 0xf3, 0x0c, 0x06, 0xf6,
  0x04, 0xf7, 0x00, 0xf3, 0x04, 0xf4, 0x08, 0x03, 0x00, 0x0b, 0x03, 0x0b,
  0x07, 0xf3, 0x0a, 0x01, 0xfd, 0xfb, 0xfd, 0x06, 0x02, 0x04, 0x05, 0x02,
  0xf8, 0xf5, 0xff, 0x03, 0x02, 0xf6, 0x0b, 0x0b, 0x0d, 0x00, 0xf6, 0xf8,
  0xf5, 0x0c, 0x05, 0xff, 0x00, 0x09, 0x0d, 0x0b, 0x0a, 0xf6, 0x0c, 0xf5,
  0xf6, 0x09, 0xfc, 0x08, 0xf5, 0x03, 0x02, 0xef, 0x00, 0x0a, 0x03, 0xf6,
  0x0b, 0x0c, 0xf7, 0xfe, 0xfb, 0xfe, 0x06, 0xf6, 0xfa, 0xf9, 0xf6, 0xf3,
  0xfe, 0xf3, 0x01, 0x05, 0x01, 0xf7, 0xfa, 0xf9, 0xf8, 0x03, 0xf8, 0xfc,
  0x09, 0x07, 0xf5, 0x06, 0xfd, 0xf7, 0x0a, 0xfe, 0xf9, 0xfa, 0x03, 0x0a,
  0x07, 0x09, 0xf9, 0xf9, 0xf3, 0xfa, 0x01, 0x0c, 0xf4, 0xf1, 0xf3, 0xfe,
  0xf6, 0x08, 0x03, 0x0b, 0x09, 0xf3, 0x0b, 0xf2, 0x0a, 0xf4, 0x04, 0xfd,
  0x03, 0x01, 0x00, 0x0b, 0x04, 0xfe, 0xf7, 0x02, 0xff, 0x00, 0x0a, 0xf4,
  0xf0, 0x03, 0xfd, 0x06, 0xf3, 0x0b, 0x0b, 0x01, 0x06, 0x0a, 0xfa, 0x0c,
  0x0c, 0x09, 0x06, 0x04, 0xfc, 0xf9, 0x0a, 0x06, 0x05, 0x08, 0x01, 0x07,
  0xfd, 0xf4, 0xfe, 0x07, 0x04, 0xfb, 0x00, 0xff, 0xf6, 0xf1, 0x07, 0x0c,
  0x04, 0x01, 0xf8, 0xf8, 0xf8, 0x0b, 0x08, 0x05, 0x04, 0xf8, 0xf4, 0x05,
  0x05, 0x02, 0xf2, 0xf7, 0x09, 0xf5, 0x08, 0xfb, 0x05, 0xff, 0x0b, 0xf5,
  0x02, 0x09, 0xf9, 0x00, 0xf3, 0x04, 0xfb, 0xf5, 0x0c, 0x05, 0x0b, 0x02,
  0xff, 0x04, 0xf9, 0x03, 0xfe, 0xf3, 0xf3, 0x07, 0xf7, 0x0a, 0xff, 0x03,
  0x08, 0xfa, 0xfa, 0x04, 0x09, 0x00, 0xfe, 0x08, 0xff, 0x02, 0x0b, 0xfc,
  0x00, 0xfd, 0xfc, 0xfb, 0x08, 0xf4, 0xfe, 0x00, 0x01, 0x04, 0x0a, 0x00,
  0x04, 0x07, 0x0a, 0x00, 0x02, 0xf4, 0x06, 0x0c, 0x06, 0xf7, 0xf4, 0x01,
  0xf9, 0x00, 0x0d, 0x0c, 0xfd, 0xf9, 0xf8, 0xf8, 0xf5, 0x0b, 0xfb, 0x04,
  0xf8, 0x01, 0x02, 0xfd, 0xf8, 0xf5, 0xfe, 0x0f, 0xfd, 0x04, 0x01, 0xff,
  0xf8, 0x0e, 0x0b, 0x08, 0xfd, 0xfd, 0xfd, 0x03, 0x08, 0xf4, 0x07, 0xfb,
  0x08, 0xfb, 0xfb, 0xfe, 0x09, 0xf3, 0xfc, 0xf4, 0x00, 0xf8, 0x03, 0x01,
  0xfa, 0x08, 0xfb, 0x0b, 0x03, 0xf6, 0xfe, 0xf9, 0xfb, 0x0f, 0x0c, 0xfb,
  0xf6, 0x01, 0xf7, 0xfc, 0x09, 0xf6, 0xfa, 0x06, 0x0c, 0x03, 0xfa, 0xf5,
  0x04, 0x00, 0xf5, 0xf8, 0x08, 0x0b, 0xfb, 0x06, 0x05, 0xf3, 0x0d, 0xf3,
  0xfa, 0xfe, 0x00, 0xfb, 0xfe, 0xfa, 0xfa, 0xfb, 0xf9, 0x0a, 0x02, 0x08,
  0x0c, 0x0d, 0xf3, 0x06, 0x03, 0xfb, 0xfd, 0xf4, 0x0a, 0xfc, 0x05, 0x09,
  0xf5, 0x0d, 0xfe, 0x03, 0xf5, 0x0c, 0xf6, 0x00, 0x0c, 0x04, 0xf6, 0xfc,
  0x06, 0x05, 0xfa, 0x07, 0x02, 0x09, 0xff, 0xfe, 0x0d, 0x01, 0xf7, 0x0d,
  0x08, 0xf6, 0x06, 0xfe, 0xf8, 0x03, 0x03, 0xf8, 0x03, 0xff, 0xf6, 0x02,
  0x0a, 0xf4, 0xfb, 0xf9, 0x02, 0xfc, 0x04, 0x0a, 0x01, 0x0b, 0x06, 0xfc,
  0x05, 0x0d, 0x07, 0x0b, 0x0c, 0x0a, 0x01, 0xf2, 0x03, 0x01, 0x0e, 0x00,
  0x03, 0x07, 0x0a, 0xfc, 0xfe, 0xf4, 0x08, 0xf9, 0xf7, 0x02, 0xf8, 0xfc,
  0xf5, 0xfd, 0xfd, 0x06, 0xfb, 0x01, 0xfe, 0xf9, 0xf4, 0xf6, 0xfd, 0x03,
  0xfb, 0x00, 0x02, 0xf8, 0x01, 0x06, 0x03, 0xff, 0xf8, 0xf7, 0xf8, 0xf4,
  0xfd, 0xfe, 0x05, 0x04, 0xfe, 0xfe, 0x00, 0xf4, 0xf6, 0x0c, 0xf6, 0x00,
  0xf9, 0x0c, 0xf9, 0x06, 0x09, 0xff, 0xf8, 0xf8, 0xfc, 0xfe, 0x0c, 0xff,
  0x0a, 0x03, 0xfc, 0x09, 0xfc, 0x09, 0xfc, 0x03, 0xf8, 0x09, 0x06, 0x08,
  0xff, 0xfb, 0xfa, 0x0c, 0x07, 0x05, 0x0b, 0x06, 0xf8, 0x02, 0x0c, 0xf5,
  0xfb, 0x03, 0x02, 0x0d, 0x05, 0xf9, 0x05, 0x0c, 0x0b, 0xfd, 0x08, 0xfd,
  0xff, 0x02, 0x09, 0xfc, 0xf9, 0x08, 0x01, 0x03, 0x00, 0x00, 0xfa, 0x0b,
  0x0c, 0xff, 0xf9, 0xff, 0x09, 0xfd, 0xfb, 0xfc, 0x0d, 0x00, 0xfb, 0x00,
  0xf3, 0xf9, 0xfc, 0xfc, 0xf4, 0xf7, 0xf7, 0xfb, 0x0a, 0xf3, 0x03, 0xff,
  0xfe, 0x0b, 0x06, 0x0b, 0x01, 0xfc, 0x09, 0x03, 0x03, 0x0b, 0x07, 0x0a,
  0xf2, 0x05, 0x01, 0x09, 0x04, 0xf5, 0xf2, 0xf6, 0x04, 0x06, 0xfb, 0x07,
  0xf3, 0x01, 0x09, 0x07, 0x05, 0xf5, 0x0b, 0x07, 0xf9, 0xff, 0x09, 0xf5,
  0x06, 0xf3, 0xf3, 0x05, 0xf2, 0xf7, 0xf9, 0xfa, 0xfd, 0x04, 0x0b, 0xf9,
  0x08, 0x08, 0x0a, 0xff, 0xfd, 0xf9, 0xf4, 0xf2, 0x09, 0xf4, 0x0d, 0xfa,
  0x05, 0xfa, 0x0a, 0x0c, 0xff, 0x09, 0xfc, 0x01, 0x0a, 0x0c, 0xfa, 0xf3,
  0xfb, 0xfd, 0xfa, 0xf4, 0xf8, 0xfa, 0xfa, 0x0d, 0xfb, 0xf5, 0xff, 0xf6,
  0x06, 0x08, 0xff, 0x07, 0xf6, 0x09, 0x00, 0xf3, 0x04, 0xf3, 0x05, 0x05,
  0x00, 0x03, 0xff, 0x06, 0xfb, 0xfb, 0xf6, 0xf7, 0xf5, 0x0c, 0xfc, 0xee,
  0xf5, 0x06, 0xff, 0xf3, 0xff, 0xf9, 0x0a, 0xf9, 0x05, 0x06, 0x07, 0xf7,
  0xf6, 0x06, 0xfa, 0xfe, 0xfd, 0xf7, 0x02, 0xfb, 0x05, 0xfd, 0xf6, 0xf9,
  0xf3, 0x08, 0x02, 0xfc, 0xf5, 0x0a, 0xfd, 0x05, 0xfd, 0xfe, 0xf0, 0x0b,
  0xf5, 0x08, 0xf9, 0xf6, 0xfb, 0x09, 0x09, 0x03, 0xfb, 0x03, 0x07, 0xfa,
  0xf2, 0x07, 0xf6, 0xfd, 0xef, 0x0b, 0x01, 0x07, 0x01, 0x00, 0xfb, 0x0b,
  0xf5, 0xf5, 0xf7, 0x03, 0xfc, 0x08, 0xfd, 0x09, 0x05, 0xf5, 0xfd, 0xf3,
  0x04, 0x0c, 0xfb, 0xf7, 0xf3, 0x0d, 0x02, 0xf9, 0x09, 0xff, 0x01, 0x00,
  0xfd, 0xfe, 0xf9, 0xf4, 0xf5, 0xf3, 0x04, 0x05, 0xfb, 0xfd, 0xf8, 0xf3,
  0x0a, 0x02, 0xf9, 0x0a, 0x01, 0xff, 0xf5, 0x01, 0x05, 0xff, 0xf7, 0x0a,
  0xff, 0xfb, 0x02, 0xf8, 0x0a, 0xfd, 0xf5, 0x03, 0xff, 0xf8, 0xfe, 0xf4,
  0x09, 0x02, 0xf6, 0x09, 0xfd, 0xfc, 0x0b, 0x0a, 0xfb, 0x0a, 0xf5, 0x0d,
  0xfd, 0xf4, 0x03, 0xfa, 0xf9, 0xfd, 0xf3, 0xf5, 0x09, 0x0c, 0x0a, 0x01,
  0xfc, 0xf6, 0xf5, 0x04, 0xf9, 0x04, 0xfd, 0x0c, 0x0b, 0xf7, 0xff, 0xf8,
  0xf9, 0xfe, 0x0c, 0x09, 0x0a, 0x07, 0x0b, 0x0b, 0xfd, 0xfe, 0x05, 0xf8,
  0xf9, 0x0a, 0xf4, 0x01, 0xf3, 0x07, 0xfd, 0x08, 0xfa, 0xf5, 0x0b, 0x04,
  0xfa, 0x01, 0xf4, 0x09, 0xfb, 0xfb, 0x0a, 0xf8, 0x02, 0x07, 0xf4, 0x01,
  0xf5, 0x0b, 0xf5, 0xfe, 0xf3, 0x01, 0x03, 0xf3, 0x0b, 0xfc, 0x09, 0x0a,
  0xf5, 0xf7, 0x09, 0xf4, 0xfd, 0x0c, 0xfd, 0x00, 0x09, 0xfc, 0x00, 0xf4,
  0x01, 0xfc, 0xfc, 0x0a, 0xf7, 0xf7, 0x01, 0xfb, 0x0c, 0xf6, 0x09, 0xf9,
  0x07, 0x09, 0x07, 0xff, 0x02, 0x0c, 0x0d, 0x08, 0x06, 0xfc, 0x05, 0x0c,
  0xfb, 0x09, 0x01, 0x04, 0xf4, 0x0d, 0xf9, 0xfc, 0x02, 0x0c, 0x05, 0x03,
  0xf7, 0xfe, 0x07, 0xfe, 0xf3, 0x04, 0x07, 0xfa, 0xf7, 0xf8, 0xfe, 0x01,
  0x05, 0x03, 0x03, 0x0d, 0xfd, 0xfb, 0xfb, 0x00, 0x00, 0x0d, 0x0b, 0x00,
  0xfe, 0x05, 0x0a, 0x05, 0x01, 0xfa, 0xfb, 0xff, 0xff, 0xfe, 0xfd, 0xfd,
  0xfc, 0x00, 0xff, 0xf3, 0xfa, 0xfb, 0xf7, 0xf4, 0xff, 0xf4, 0x00, 0xff,
  0xf9, 0xf4, 0xf7, 0xf4, 0xfa, 0x03, 0x08, 0x0a, 0x01, 0xf5, 0x03, 0x03,
  0x0a, 0x04, 0x07, 0xf3, 0x0b, 0x05, 0x02, 0xf3, 0x02, 0xfd, 0xf4, 0xf3,
  0xf6, 0x04, 0x09, 0x01, 0x00, 0x09, 0x02, 0x09, 0x07, 0x02, 0xfa, 0x07,
  0x00, 0x04, 0xf2, 0x01, 0xfb, 0xfd, 0xf6, 0x07, 0xf7, 0x01, 0xfe, 0xfd,
  0x09, 0x04, 0x07, 0x03, 0xf9, 0xf6, 0x09, 0xf7, 0x05, 0x0b, 0xf3, 0x00,
  0xf7, 0x06, 0xf2, 0xf3, 0xfb, 0xf6, 0x0c, 0xff, 0xfe, 0xf6, 0x0b, 0x06,
  0xfa, 0x03, 0x09, 0xf7, 0x07, 0xfe, 0xf6, 0xf4, 0xf4, 0x02, 0xf6, 0x05,
  0x07, 0xfa, 0xf6, 0x0b, 0x06, 0x04, 0x0a, 0xf6, 0x09, 0xfa, 0x08, 0x01,
  0xf3, 0x04, 0xfd, 0xfc, 0x07, 0xfa, 0xfc, 0x0d, 0x0c, 0xf6, 0x01, 0xf6,
  0xf7, 0x09, 0xfc, 0x08, 0xff, 0x04, 0xfa, 0xfe, 0x0b, 0xfd, 0xf8, 0x00,
  0x0b, 0xfe, 0x04, 0x08, 0xfb, 0xf9, 0x07, 0x0a, 0x0b, 0xfe, 0xf4, 0xf3,
  0x07, 0x0b, 0x0a, 0x0b, 0x06, 0xf9, 0xf3, 0x08, 0x02, 0x0d, 0x06, 0xf5,
  0x04, 0xf8, 0xf1, 0x05, 0x05, 0xfc, 0x09, 0x06, 0x02, 0x06, 0x08, 0xff,
  0xfe, 0x00, 0xf7, 0x01, 0xfe, 0xf7, 0x0a, 0xf3, 0x09, 0xef, 0x03, 0x08,
  0xf8, 0x0a, 0xf7, 0xff, 0xf7, 0xfd, 0x08, 0x01, 0x06, 0x04, 0xf3, 0xfb,
  0x04, 0x03, 0x04, 0x0c, 0x09, 0xfa, 0x08, 0x0d, 0xfd, 0xf7, 0xf5, 0xf8,
  0xfc, 0xfb, 0xfa, 0xfe, 0x0e, 0x02, 0xf3, 0x0a, 0xfb, 0xfd, 0x0b, 0x04,
  0x09, 0xf4, 0x08, 0x02, 0x00, 0xff, 0xf2, 0x08, 0xf8, 0xf5, 0x0c, 0xf8,
  0xf5, 0xf1, 0xf5, 0xf4, 0xf7, 0xfa, 0xf9, 0x02, 0xf5, 0xf3, 0xf8, 0x0a,
  0x0b, 0xff, 0xfc, 0x03, 0x0a, 0xf4, 0xf1, 0xf7, 0x04, 0xff, 0x09, 0x08,
  0xf9, 0xf9, 0x02, 0xfb, 0x0c, 0x03, 0xfa, 0x08, 0x02, 0x00, 0xf6, 0xfc,
  0xf7, 0xfe, 0xfa, 0xf4, 0x0d, 0x0c, 0x0b, 0x05, 0x0a, 0x01, 0x01, 0xff,
  0xf9, 0x02, 0xf9, 0x08, 0x08, 0xf2, 0xf4, 0xf5, 0xf8, 0xf6, 0xf7, 0x0a,
  0x0d, 0xf5, 0x04, 0xf5, 0x01, 0x0b, 0xfc, 0xfe, 0x0d, 0xfd, 0x06, 0x01,
  0x0d, 0x0c, 0xf3, 0x0c, 0x08, 0xfa, 0xfa, 0xf9, 0xfa, 0xfd, 0xf8, 0xf7,
  0xfe, 0xfa, 0x06, 0xfc, 0x06, 0x03, 0x09, 0xff, 0xf5, 0x02, 0x0d, 0xf8,
  0x03, 0xfe, 0x05, 0x09, 0x08, 0x06, 0xf8, 0x08, 0x04, 0x0b, 0xfe, 0xfe,
  0xff, 0x09, 0xf6, 0xf5, 0xfd, 0xfa, 0x04, 0xff, 0x00, 0xfb, 0xfb, 0xf8,
  0xf5, 0xf6, 0x06, 0x00, 0xfd, 0xfb, 0xfc, 0x02, 0xf2, 0xfc, 0xf5, 0x0b,
  0xf8, 0xf7, 0xfd, 0x06, 0x03, 0x0c, 0xf5, 0xf9, 0x0b, 0xf9, 0x0c, 0xfb,
  0xfe, 0xf5, 0xf4, 0x08, 0xf3, 0xff, 0x01, 0xf4, 0xf4, 0xf4, 0x07, 0x08,
  0x08, 0xfe, 0xfc, 0xf2, 0x01, 0xf7, 0x06, 0x06, 0xfe, 0xfa, 0xfd, 0x04,
  0x02, 0x03, 0xf3, 0x0a, 0x06, 0xf9, 0xf5, 0x02, 0x01, 0x01, 0xfa, 0xf0,
  0x07, 0xf1, 0x01, 0x05, 0xf7, 0xfd, 0xf8, 0xf5, 0x00, 0x00, 0x09, 0x07,
  0xf4, 0x0a, 0xfa, 0x06, 0x06, 0x05, 0x08, 0x01, 0xfb, 0xfc, 0x09, 0x0a,
  0x09, 0xf6, 0xfc, 0xf3, 0xf5, 0x06, 0x05, 0xf8, 0x0a, 0x0c, 0xfc, 0xfd,
  0x03, 0x04, 0x04, 0xf4, 0x02, 0x09, 0xfe, 0x03, 0xfb, 0x07, 0x06, 0xfb,
  0xfb, 0x04, 0xff, 0xf7, 0x04, 0xfe, 0xf7, 0xf8, 0xf7, 0xf3, 0x03, 0xfb,
  0x02, 0x07, 0x0a, 0x01, 0x09, 0xff, 0x0b, 0xff, 0x06, 0xfa, 0xf6, 0xf3,
  0x05, 0xf4, 0x00, 0x0c, 0x0b, 0x0a, 0x06, 0xff, 0x02, 0xf7, 0x0b, 0x04,
  0xf7, 0xfb, 0xff, 0x08, 0x07, 0x0b, 0xfd, 0x0d, 0xf8, 0x01, 0x05, 0x00,
  0xfc, 0x04, 0x0b, 0x02, 0x07, 0xfc, 0xfe, 0x0b, 0xf7, 0x07, 0x03, 0x08,
  0xf8, 0x02, 0xf7, 0x0a, 0xf7, 0xf9, 0x09, 0xff, 0xf7, 0x0b, 0xfa, 0x05,
  0xf7, 0xf4, 0xfb, 0xf9, 0x08, 0x0a, 0xfb, 0xfc, 0xf9, 0xf7, 0x06, 0xf8,
  0x03, 0x07, 0xfe, 0xfc, 0xf5, 0x08, 0xff, 0x0b, 0xfb, 0xfa, 0x02, 0x0c,
  0x0c, 0x07, 0x02, 0xf8, 0x00, 0x03, 0x06, 0xf7, 0x0b, 0xfd, 0xf5, 0x0c,
  0x07, 0x0d, 0x04, 0xf8, 0xf9, 0x08, 0xf7, 0xfa, 0xf6, 0x0a, 0x09, 0xfc,
  0x06, 0x08, 0x09, 0xff, 0x00, 0x06, 0x00, 0xfd, 0x02, 0xf5, 0x00, 0xf4,
  0xfa, 0xfe, 0x0d, 0x0a, 0xf4, 0xfb, 0x0c, 0xf6, 0xf7, 0xf3, 0x03, 0xf5,
  0xfc, 0xfb, 0x03, 0xf4, 0x0b, 0x0c, 0x00, 0x05, 0xf2, 0xf6, 0x01, 0x01,
  0x01, 0x0b, 0x0a, 0xfb, 0x0a, 0xfb, 0x07, 0xfd, 0x09, 0x0b, 0x0b, 0xfd,
  0x05, 0xff, 0xf9, 0x02, 0x08, 0x0d, 0x04, 0x0b, 0x0c, 0xf4, 0x08, 0xf4,
  0xf5, 0x03, 0x02, 0x02, 0xfa, 0xf6, 0x01, 0x00, 0xfa, 0xf7, 0xf9, 0xf7,
  0xfd, 0x03, 0xf7, 0x02, 0xff, 0xfe, 0xf3, 0xf3, 0x06, 0xfd, 0x01, 0x02,
  0xf4, 0x0b, 0xfc, 0x0d, 0x0a, 0xf3, 0xf6, 0x08, 0x0c, 0xfd, 0xf7, 0x05,
  0x0b, 0x03, 0x03, 0xf4, 0x0c, 0xf9, 0xff, 0x05, 0xff, 0xfe, 0x0b, 0x05,
  0x0b, 0xfd, 0x08, 0x06, 0x09, 0x03, 0x05, 0x10, 0x06, 0x09, 0xf5, 0x0b,
  0xf7, 0xf6, 0xfb, 0x07, 0x00, 0xf7, 0xff, 0xf2, 0x00, 0x00, 0x0b, 0x0b,
  0x01, 0x02, 0xf6, 0xf9, 0x00, 0xff, 0xfe, 0x0c, 0x05, 0x08, 0xfa, 0x07,
  0xf6, 0xf4, 0xf9, 0xf7, 0x06, 0xf2, 0xf8, 0xfb, 0xfc, 0xfe, 0x0a, 0x09,
  0xf3, 0x05, 0x01, 0x01, 0x0c, 0x09, 0xfd, 0x0e, 0xf3, 0x0b, 0xfd, 0x05,
  0x02, 0xf8, 0x07, 0x02, 0x03, 0xfc, 0x01, 0xff, 0x07, 0x0b, 0xff, 0xfd,
  0x04, 0x00, 0xf6, 0xfb, 0x06, 0x00, 0x0b, 0x07, 0xfc, 0x0d, 0xfa, 0x01,
  0x02, 0xf9, 0x03, 0x02, 0xf9, 0xf5, 0xf6, 0x04, 0x0e, 0x05, 0xf9, 0xf9,
  0xff, 0x0a, 0xf9, 0xf9, 0x0d, 0x0b, 0xf6, 0x08, 0x0a, 0x01, 0xf5, 0xff,
  0x03, 0x02, 0xf9, 0x05, 0xfb, 0xf6, 0x0b, 0x01, 0x07, 0xfc, 0x09, 0x09,
  0x07, 0x08, 0xfb, 0x06, 0xfe, 0xfe, 0x05, 0xfe, 0x06, 0xf9, 0xf4, 0x0d,
  0xf6, 0x09, 0x05, 0x02, 0x0c, 0xfe, 0x04, 0x0c, 0x0c, 0xf9, 0xfe, 0xfb,
  0x03, 0xfe, 0x02, 0x08, 0xfc, 0xf7, 0x0a, 0x06, 0x0a, 0xf2, 0x0b, 0x03,
  0x0c, 0xf4, 0x07, 0xfe, 0x04, 0x0b, 0x06, 0xf2, 0x00, 0x0c, 0xf5, 0xfb,
  0xff, 0xf8, 0xfa, 0x03, 0xf6, 0xf7, 0xfa, 0x0a, 0xff, 0x0a, 0x00, 0xf3,
  0x04, 0x0c, 0xf3, 0x0c, 0xfe, 0x02, 0x09, 0x09, 0xf8, 0xfe, 0xf3, 0x04,
  0xfd, 0x06, 0x05, 0xf4, 0xf7, 0xfc, 0x05, 0x02, 0x08, 0xf8, 0x03, 0xf5,
  0xff, 0xf6, 0xfb, 0xfb, 0xfb, 0x07, 0x03, 0x0d, 0x04, 0x0c, 0xf4, 0xf3,
  0xf3, 0xf7, 0xf7, 0x07, 0xf5, 0x0b, 0x04, 0x04, 0xfb, 0xf0, 0x05, 0xf6,
  0xf2, 0xfe, 0x0b, 0x00, 0xf3, 0xf1, 0xf3, 0x03, 0x08, 0xfb, 0x07, 0x06,
  0xfc, 0x05, 0x01, 0x00, 0xf5, 0x08, 0x01, 0xf5, 0x03, 0x08, 0x01, 0x01,
  0xf9, 0x09, 0x05, 0x07, 0xfa, 0x04, 0xfc, 0x01, 0xf7, 0x00, 0xf8, 0xfc,
  0xfc, 0x08, 0xf8, 0x0b, 0xf3, 0x02, 0xf2, 0xf4, 0xfe, 0xf2, 0x02, 0x0a,
  0xf9, 0x04, 0x0a, 0xf6, 0x08, 0xf8, 0x02, 0x03, 0xf2, 0x0b, 0x06, 0xfc,
  0x06, 0xf3, 0xf5, 0xf8, 0xfb, 0xf1, 0x07, 0x04, 0x04, 0x01, 0xf6, 0xf5,
  0x0c, 0xf8, 0xf2, 0xf0, 0xfb, 0x09, 0x03, 0x06, 0x0c, 0xf5, 0xf6, 0x07,
  0x02, 0xf6, 0x07, 0x00, 0x0b, 0x09, 0x0c, 0xfc, 0xfa, 0xf3, 0xf3, 0x06,
  0x05, 0xfe, 0x02, 0x0d, 0x04, 0xfe, 0x0a, 0x0a, 0xf8, 0xf3, 0xf5, 0x01,
  0xfc, 0x0c, 0x0a, 0xf4, 0xf4, 0x03, 0xfe, 0xf4, 0xf6, 0x09, 0xfd, 0x02,
  0x08, 0xfe, 0x07, 0x08, 0x06, 0xfd, 0xf8, 0x06, 0xf3, 0x04, 0xf4, 0xf4,
  0x08, 0xfe, 0x0d, 0x05, 0x0a, 0x05, 0x09, 0x0a, 0xfe, 0x05, 0x06, 0xf7,
  0x01, 0x13, 0x00, 0xf8, 0x02, 0xff, 0x0c, 0x08, 0xf3, 0x0d, 0xfc, 0x05,
  0x07, 0xf9, 0xf9, 0xf2, 0xf4, 0x05, 0xfc, 0xfa, 0xfe, 0xfb, 0xf2, 0xf6,
  0x06, 0xf4, 0xf3, 0x0a, 0xf5, 0xfe, 0x06, 0x05, 0x0b, 0xfb, 0x02, 0x04,
  0x09, 0xf7, 0xff, 0xf4, 0x09, 0x08, 0xf3, 0x08, 0x06, 0xf5, 0xf3, 0x08,
  0xf7, 0xff, 0xf9, 0x09, 0x06, 0x04, 0xfc, 0xfc, 0xf9, 0xfe, 0xf4, 0xf6,
  0xff, 0xfb, 0xfe, 0xf5, 0x02, 0xf8, 0xf6, 0xfd, 0x07, 0xfa, 0xfa, 0x06,
  0x01, 0x0a, 0xff, 0xf3, 0xfe, 0xf6, 0x06, 0xfa, 0xf6, 0x0b, 0xf5, 0xf9,
  0x0b, 0x0b, 0xf3, 0xfa, 0xf5, 0xfa, 0x0e, 0x08, 0xf5, 0xf7, 0xfd, 0x02,
  0x06, 0x0d, 0xfc, 0xfc, 0x02, 0x0e, 0xfd, 0x01, 0xfb, 0x02, 0x03, 0x09,
  0x04, 0xfd, 0x07, 0x0e, 0xf6, 0xf9, 0x00, 0x00, 0x0d, 0xfa, 0x00, 0x05,
  0xf4, 0xf4, 0xf9, 0xf9, 0x09, 0xfa, 0xfb, 0xfe, 0xf4, 0xff, 0xf7, 0x09,
  0x0b, 0xff, 0x00, 0xf9, 0x03, 0x01, 0xfb, 0x03, 0x09, 0x01, 0x06, 0xfe,
  0xf4, 0x09, 0x02, 0xf5, 0x03, 0xfd, 0x08, 0x01, 0x0e, 0x09, 0x08, 0xf5,
  0x0d, 0xf8, 0xf3, 0xf9, 0xf4, 0xf3, 0x08, 0x07, 0xf3, 0x01, 0xf1, 0xfa,
  0xf5, 0x02, 0xfe, 0xfc, 0xf8, 0xf6, 0xf6, 0xff, 0xfe, 0x00, 0x03, 0xf5,
  0x09, 0x00, 0xf5, 0x0b, 0x0b, 0xf6, 0x03, 0x08, 0x09, 0x03, 0xf7, 0x07,
  0xf7, 0x07, 0xff, 0xf7, 0xf6, 0xf7, 0xfe, 0xf3, 0x04, 0xf8, 0x10, 0xfc,
  0xfa, 0x00, 0x07, 0xf7, 0xf4, 0xfb, 0xf5, 0xfd, 0xf7, 0xfb, 0xfe, 0xfe,
  0xf8, 0x09, 0xf9, 0xfc, 0x04, 0x10, 0x05, 0xf4, 0x03, 0xf8, 0x09, 0xfe,
  0xfc, 0x08, 0xfb, 0xff, 0xf3, 0x01, 0x0c, 0xf4, 0xfc, 0x02, 0xf6, 0x07,
  0x05, 0x0c, 0x0b, 0x08, 0x01, 0x05, 0x07, 0x08, 0xfa, 0xfd, 0x0d, 0xf8,
  0xf5, 0x05, 0xfc, 0xf3, 0xfc, 0xfc, 0xf7, 0x07, 0x03, 0x01, 0x0d, 0x0c,
  0xfb, 0x0c, 0xfb, 0x0a, 0x07, 0xfb, 0x05, 0xfc, 0xf8, 0xff, 0x0a, 0x07,
  0xfb, 0xf5, 0x05, 0x03, 0xf4, 0xf4, 0x03, 0xfe, 0xf7, 0x0d, 0xfa, 0x08,
  0xf5, 0xf7, 0x06, 0x08, 0x04, 0xfd, 0xfd, 0x0a, 0xff, 0xff, 0xff, 0xfd,
  0xf3, 0xf8, 0x08, 0x0c, 0xfc, 0xfa, 0x07, 0x05, 0xfb, 0x05, 0xf9, 0x07,
  0xf5, 0xf8, 0x04, 0x04, 0x00, 0x00, 0xff, 0xf4, 0xfb, 0xfc, 0x0c, 0xf6,
  0x0a, 0x06, 0xf6, 0x0d, 0x03, 0x0a, 0x06, 0x01, 0x0d, 0xff, 0x01, 0xfd,
  0xf6, 0xf4, 0xf3, 0x0a, 0xfd, 0x0c, 0xf9, 0x0a, 0xff, 0xf9, 0xff, 0xf4,
  0xf3, 0xf8, 0xfc, 0xfa, 0xff, 0x0b, 0xfe, 0xf6, 0x06, 0xfa, 0xf8, 0xf3,
  0xfe, 0x08, 0xff, 0xfd, 0x0d, 0xfc, 0x02, 0xf9, 0x07, 0xf0, 0x09, 0xf4,
  0x02, 0x01, 0xf9, 0x0b, 0x04, 0xfd, 0x08, 0xf9, 0xf7, 0xfe, 0x04, 0x08,
  0x04, 0x01, 0xfd, 0x0d, 0x04, 0x00, 0x00, 0xfc, 0xfa, 0xff, 0x05, 0xfa,
  0x07, 0x06, 0x04, 0x03, 0x03, 0x08, 0x00, 0x05, 0x01, 0xfe, 0xf7, 0xff,
  0xfd, 0xf7, 0x05, 0x01, 0xff, 0xfe, 0x07, 0x01, 0xfb, 0x0d, 0x06, 0x08,
  0xf4, 0xf5, 0x01, 0xfd, 0x0b, 0x05, 0x09, 0x08, 0xfe, 0xf8, 0x09, 0x03,
  0xf5, 0x0d, 0xf3, 0x01, 0x06, 0x0a, 0xf7, 0xf8, 0xfa, 0x0c, 0xf7, 0xf4,
  0x03, 0xfa, 0x0a, 0x02, 0xfd, 0xf4, 0xf7, 0xf9, 0xff, 0xf6, 0xf4, 0xf9,
  0x0a, 0x02, 0xf7, 0x0a, 0xfd, 0x02, 0x0d, 0xf3, 0xf9, 0x05, 0xf5, 0xfd,
  0x03, 0xfb, 0xff, 0x03, 0x07, 0xfd, 0xf5, 0x06, 0x06, 0xfc, 0xfa, 0x09,
  0xf5, 0xfd, 0x05, 0xf8, 0x0b, 0x09, 0xf5, 0xfe, 0xfd, 0xfa, 0xf9, 0x0d,
  0x01, 0xf5, 0x08, 0x09, 0x07, 0x0b, 0xf3, 0x01, 0x0a, 0xf7, 0x04, 0xf6,
  0xf9, 0xf7, 0xf5, 0x0c, 0x00, 0xfd, 0x04, 0x0c, 0x04, 0xf7, 0xf9, 0x0d,
  0xfd, 0xf4, 0xff, 0xf9, 0xf7, 0x05, 0x0c, 0x0b, 0x08, 0xfe, 0x09, 0x0c,
  0x01, 0xf7, 0xfa, 0x05, 0xf5, 0xf6, 0x04, 0x05, 0xf6, 0xf7, 0xf7, 0xfc,
  0xfb, 0xfb, 0xfa, 0xff, 0x01, 0xf7, 0xf8, 0xf3, 0xfe, 0xf6, 0x0a, 0xfb,
  0xfb, 0x0a, 0xff, 0xf8, 0x09, 0xfd, 0x06, 0x04, 0xf9, 0x06, 0xf8, 0x04,
  0xfb, 0x0d, 0x0a, 0xfd, 0x01, 0xf9, 0xf9, 0x04, 0xfe, 0xf5, 0xf4, 0x0b,
  0xfe, 0xf5, 0xfb, 0x03, 0x00, 0xf5, 0xfa, 0xfe, 0xfd, 0x0a, 0x06, 0x0c,
  0xf9, 0x03, 0xfc, 0x0b, 0x0d, 0x0b, 0xfe, 0x02, 0x01, 0x0b, 0xfc, 0xfd,
  0x0d, 0x03, 0xff, 0xff, 0xfd, 0xf8, 0x0c, 0x0d, 0xfb, 0xfc, 0xf6, 0x0d,
  0x04, 0xf4, 0xfe, 0x0e, 0xf6, 0xf4, 0x09, 0x06, 0xf4, 0x00, 0xf4, 0xf8,
  0xf9, 0xf4, 0x02, 0xf7, 0x04, 0xf5, 0xf8, 0x0c, 0x06, 0xf9, 0xf9, 0x02,
  0x0a, 0x00, 0xf8, 0xfa, 0x04, 0xfa, 0x0c, 0xf3, 0x03, 0xfd, 0xfb, 0x09,
  0x0a, 0x06, 0x08, 0xf8, 0xf2, 0x03, 0x08, 0x00, 0xf8, 0x09, 0x08, 0xf5,
  0xf6, 0xf9, 0x07, 0x0d, 0xfd, 0x0a, 0xfc, 0xff, 0xf8, 0x02, 0x0e, 0xf7,
  0x00, 0x02, 0xf9, 0xfe, 0xff, 0x09, 0xff, 0x09, 0x0d, 0x00, 0xf9, 0x0a,
  0xfa, 0x02, 0x01, 0xf8, 0xfe, 0x00, 0x03, 0x09, 0xf7, 0xf8, 0xfd, 0x08,
  0xfd, 0xff, 0xf9, 0x03, 0xff, 0xf6, 0xff, 0x09, 0xf7, 0xf6, 0x0d, 0xf3,
  0xfb, 0x0c, 0xf8, 0x00, 0xfc, 0x03, 0x07, 0x01, 0xfd, 0x0d, 0x0c, 0xfa,
  0xf9, 0x02, 0xfd, 0xf5, 0x0a, 0xff, 0xf5, 0xfd, 0xf2, 0xfa, 0xff, 0xf1,
  0x02, 0xfd, 0xf4, 0x09, 0xfc, 0xfe, 0x06, 0xfd, 0xfa, 0x02, 0xff, 0xf5,
  0xff, 0x08, 0x01, 0xfc, 0xfc, 0xf5, 0xf7, 0x0a, 0x04, 0xfb, 0x09, 0xff,
  0xf6, 0xfd, 0xf9, 0x05, 0x04, 0xf8, 0xff, 0x0b, 0xfe, 0xf3, 0xf6, 0x0a,
  0x02, 0xfb, 0xfd, 0x01, 0x08, 0x07, 0x0c, 0x01, 0x08, 0xfe, 0x08, 0x06,
  0xfd, 0x00, 0xf9, 0xfb, 0x09, 0xff, 0x05, 0x02, 0x09, 0x01, 0x08, 0xf9,
  0x01, 0xfa, 0x0a, 0xfa, 0x06, 0xfe, 0x05, 0xfe, 0x05, 0x0a, 0xfd, 0xf3,
  0xfa, 0xf9, 0x00, 0xfb, 0x06, 0x0b, 0x05, 0x03, 0x09, 0xf9, 0xf7, 0xf8,
  0xfa, 0x0d, 0x09, 0x06, 0xf7, 0xfd, 0x07, 0xf9, 0x0a, 0x04, 0xff, 0x07,
  0xfe, 0xf5, 0x0a, 0x03, 0x0a, 0x00, 0x02, 0xf5, 0xff, 0x04, 0xf8, 0x06,
  0xf8, 0x05, 0x07, 0x09, 0x0b, 0x02, 0x0b, 0xf3, 0xfe, 0x09, 0x01, 0xf7,
  0xf7, 0xf4, 0xf4, 0xfa, 0xf3, 0xfc, 0x08, 0x03, 0x03, 0x08, 0xfc, 0x09,
  0x09, 0xfb, 0x00, 0x01, 0x00, 0x00, 0x09, 0x0c, 0x09, 0x01, 0x0b, 0x06,
  0xf5, 0x0a, 0xf8, 0xfb, 0xf5, 0xf8, 0xfd, 0x0c, 0xf6, 0xf8, 0x00, 0x04,
  0xfe, 0x07, 0xf6, 0x02, 0x02, 0xf4, 0x0b, 0x08, 0xfe, 0x01, 0xf3, 0xff,
  0xfc, 0x0b, 0x04, 0xf6, 0xff, 0xf7, 0x01, 0x0d, 0x08, 0x03, 0x0b, 0xf8,
  0xf3, 0xf9, 0x01, 0x07, 0xf7, 0xfc, 0xf7, 0x0b, 0xf4, 0xf4, 0xfb, 0x00,
  0x07, 0xf7, 0x02, 0x0c, 0xf3, 0x0c, 0xf4, 0xfa, 0xff, 0xf4, 0xfa, 0x0a,
  0x05, 0xfe, 0x03, 0xf5, 0xf4, 0xfc, 0xf9, 0x01, 0x01, 0x08, 0xff, 0x05,
  0xf9, 0x04, 0xf3, 0x01, 0xf9, 0xf8, 0xfc, 0x06, 0x08, 0x05, 0x0d, 0xfa,
  0x02, 0xfc, 0x05, 0xfe, 0xfd, 0xf7, 0xfb, 0xf4, 0x02, 0x06, 0xfa, 0x0b,
  0xfc, 0x04, 0xfe, 0x0a, 0x0d, 0xff, 0xf3, 0x06, 0x05, 0xf3, 0x0c, 0x02,
  0xf5, 0x05, 0xfd, 0xfd, 0xfa, 0xfa, 0x0b, 0xfb, 0xff, 0x0b, 0x0a, 0xf6,
  0x04, 0x0c, 0x04, 0xfe, 0xf5, 0x0d, 0x06, 0xfd, 0x01, 0x08, 0xf9, 0xfd,
  0x07, 0x08, 0xfa, 0xfd, 0x04, 0x0c, 0xf7, 0xf9, 0xf7, 0x08, 0xf5, 0xfe,
  0xff, 0xfc, 0xf8, 0x06, 0xfb, 0xff, 0x03, 0x0b, 0x00, 0xf9, 0xf5, 0xfa,
  0x07, 0xf3, 0xf5, 0x0b, 0xf4, 0x01, 0xf6, 0x09, 0xf4, 0xfb, 0xfb, 0x01,
  0x08, 0xfd, 0x02, 0xf9, 0xf3, 0x08, 0x05, 0xf3, 0x06, 0x04, 0x04, 0x02,
  0xf6, 0x05, 0x06, 0x0b, 0xfd, 0x01, 0x06, 0x09, 0xf8, 0x0c, 0xf3, 0xf3,
  0x06, 0x0b, 0x06, 0xfd, 0x03, 0xf5, 0x0d, 0x08, 0xf3, 0xf8, 0xfe, 0xf5,
  0x05, 0xf9, 0xf7, 0x0c, 0xf6, 0x01, 0x08, 0x08, 0xff, 0xfd, 0xfe, 0xf3,
  0x06, 0xf3, 0x06, 0x03, 0xf3, 0xf9, 0xf4, 0x00, 0xfc, 0xf3, 0x00, 0xfd,
  0x08, 0x08, 0xf6, 0xfd, 0x0b, 0x0c, 0x05, 0x09, 0xf8, 0x00, 0x09, 0x02,
  0x04, 0xfe, 0x00, 0x02, 0xfe, 0xf1, 0xf3, 0x04, 0xff, 0x06, 0x03, 0x09,
  0x0d, 0x02, 0xfc, 0x09, 0xfa, 0x0a, 0xfd, 0x0b, 0xf6, 0xfb, 0xf8, 0xf3,
  0xf3, 0xfb, 0x02, 0x04, 0xf6, 0x07, 0xfb, 0x08, 0xfc, 0x01, 0xfc, 0x09,
  0xf9, 0x09, 0xfe, 0xfc, 0x05, 0xf5, 0xf7, 0x07, 0xf3, 0xf6, 0x02, 0x01,
  0x00, 0xfd, 0xf5, 0x06, 0x05, 0xf7, 0xf4, 0xf6, 0x0c, 0x03, 0xfb, 0x04,
  0xf3, 0x01, 0x04, 0x0c, 0xfa, 0x00, 0x06, 0xff, 0x0c, 0x0b, 0xfa, 0x0d,
  0xf5, 0x04, 0xfa, 0x04, 0xf5, 0x09, 0x03, 0x0b, 0xfb, 0x01, 0x0d, 0x0a,
  0xf4, 0x04, 0xf6, 0x09, 0xfe, 0x03, 0xf8, 0xfc, 0xfc, 0x01, 0x07, 0x0a,
  0xfe, 0xfa, 0xf8, 0x0c, 0x01, 0x05, 0xf6, 0x00, 0xf2, 0xfb, 0xfb, 0x0d,
  0x09, 0xff, 0xf3, 0xfd, 0x03, 0xff, 0xf4, 0xf9, 0xf8, 0xfb, 0xf3, 0x06,
  0x09, 0xf2, 0x08, 0x0b, 0xf6, 0x05, 0x0b, 0xfb, 0xf3, 0xfd, 0xf7, 0xfd,
  0xfd, 0xf7, 0xff, 0xfe, 0xf9, 0xf7, 0xfa, 0x0a, 0x06, 0x07, 0xf5, 0x02,
  0xfa, 0x06, 0xf8, 0xf3, 0xf6, 0xfc, 0xf4, 0xf8, 0x01, 0x01, 0xf8, 0xf1,
  0x05, 0x02, 0x08, 0xf3, 0xf6, 0xfe, 0xf8, 0x08, 0xf5, 0x05, 0xf8, 0xf8,
  0x00, 0x0d, 0xfd, 0xfb, 0xfa, 0x00, 0xfd, 0xf5, 0xf5, 0x03, 0xf7, 0x03,
  0x0c, 0xfd, 0xf7, 0xfb, 0x00, 0xff, 0x03, 0xff, 0x09, 0xf8, 0x07, 0xf9,
  0xff, 0x04, 0xfb, 0xf4, 0xf4, 0xfe, 0xf8, 0x09, 0x05, 0xf7, 0xfe, 0xfb,
  0xfb, 0xef, 0xf3, 0x00, 0xf9, 0x00, 0xfa, 0x09, 0xf5, 0x0b, 0x09, 0xf4,
  0x0d, 0xf7, 0x04, 0x01, 0x03, 0x08, 0xf6, 0xf4, 0x05, 0x03, 0xff, 0xff,
  0x07, 0x04, 0x02, 0x09, 0x07, 0x04, 0xf7, 0x01, 0xf6, 0xfc, 0x02, 0x00,
  0x07, 0xfa, 0x05, 0xf8, 0xf3, 0x00, 0xfa, 0xfc, 0xf4, 0x0c, 0x0d, 0xf5,
  0xfa, 0xf3, 0x0d, 0xf4, 0xff, 0x04, 0xfc, 0x05, 0xfd, 0xfb, 0x0d, 0xfb,
  0x04, 0xfe, 0xfb, 0x07, 0xf8, 0xfa, 0x05, 0x0b, 0xfa, 0x0a, 0xf7, 0x03,
  0x04, 0x0c, 0x0c, 0x0b, 0x03, 0x03, 0xfd, 0x09, 0x08, 0x02, 0xfc, 0x09,
  0xfd, 0x05, 0xfd, 0xfa, 0xfa, 0x07, 0x09, 0x06, 0xf9, 0x0a, 0xf5, 0x07,
  0xf2, 0xf7, 0xf7, 0xfe, 0x0a, 0x0b, 0x03, 0xf8, 0xff, 0x04, 0x0a, 0x07,
  0xf3, 0x0c, 0xf8, 0xfb, 0x06, 0xf5, 0xf9, 0xf5, 0xfe, 0x06, 0x03, 0xf4,
  0x05, 0xfe, 0xfc, 0x04, 0xf3, 0xf9, 0xfc, 0x0c, 0x03, 0x0b, 0x06, 0xf9,
  0x03, 0xfe, 0x03, 0xff, 0xf5, 0x09, 0x06, 0x04, 0x0d, 0xf6, 0xf7, 0x02,
  0x01, 0x06, 0xf7, 0x0c, 0x01, 0xf4, 0xfe, 0xf7, 0x07, 0x07, 0x06, 0xf6,
  0xfe, 0x09, 0xfe, 0xfb, 0xfc, 0xf1, 0x00, 0x09, 0xfb, 0x05, 0xfe, 0xfb,
  0x01, 0xf9, 0x00, 0x0d, 0x02, 0xf7, 0xf4, 0x02, 0x03, 0xf7, 0xf4, 0xf8,
  0x09, 0x06, 0xf5, 0xf6, 0x09, 0x0a, 0xfc, 0x06, 0x06, 0xfb, 0x05, 0xf4,
  0xff, 0xfc, 0x08, 0x07, 0xfe, 0xf6, 0x08, 0xf7, 0xf7, 0xf3, 0x0d, 0x0d,
  0xf3, 0x0b, 0x04, 0xf6, 0xf5, 0xfd, 0x0a, 0xf7, 0x02, 0xf4, 0x09, 0x04,
  0x05, 0x07, 0x0d, 0x01, 0x08, 0xf3, 0xfb, 0x06, 0x09, 0x00, 0xfa, 0x04,
  0x07, 0x0c, 0x05, 0x09, 0xf2, 0xfb, 0x05, 0xff, 0xf3, 0x08, 0x06, 0xf7,
  0xfc, 0x08, 0xfb, 0xf9, 0x0a, 0x09, 0x0c, 0xf5, 0x0d, 0xf9, 0xfb, 0x0c,
  0x08, 0xfd, 0xfc, 0xf4, 0xf3, 0xf5, 0x01, 0x0b, 0xf4, 0x0b, 0xf8, 0x03,
  0x0a, 0x04, 0xfe, 0xfc, 0x03, 0xfa, 0xf5, 0x0a, 0xff, 0x0c, 0x0a, 0xf9,
  0x00, 0xfd, 0x08, 0xfa, 0x04, 0xfe, 0x05, 0x06, 0x0a, 0xf6, 0xf6, 0xfc,
  0xfe, 0x08, 0xf8, 0xfa, 0xfd, 0x00, 0xf6, 0x04, 0x0b, 0xf9, 0xf9, 0x02,
  0x06, 0x09, 0x09, 0xff, 0x07, 0x08, 0x08, 0x07, 0xfa, 0x04, 0xf5, 0xf4,
  0xff, 0x04, 0xf3, 0x07, 0x00, 0x01, 0x05, 0x05, 0xf3, 0xfc, 0x05, 0xf8,
  0xf7, 0xf4, 0x06, 0x04, 0xf7, 0x05, 0xfd, 0xf5, 0x08, 0x01, 0x01, 0xfe,
  0x08, 0x07, 0xf3, 0xf5, 0x05, 0xfd, 0xfa, 0xfa, 0xf2, 0x07, 0x00, 0x06,
  0x00, 0xf2, 0x06, 0xf0, 0x02, 0xf4, 0x0a, 0xf5, 0xfa, 0xf4, 0xff, 0x07,
  0x0d, 0xf9, 0xf6, 0xf2, 0xf7, 0xf4, 0xf5, 0xfe, 0x07, 0xf8, 0xf4, 0xf5,
  0xfd, 0x01, 0x07, 0x07, 0x09, 0xfe, 0x03, 0x06, 0x01, 0x05, 0x00, 0xf5,
  0x03, 0xfa, 0x02, 0xf6, 0x0a, 0x07, 0x03, 0x07, 0x0a, 0xf6, 0x07, 0xf5,
  0x06, 0x08, 0x08, 0xfe, 0x02, 0xf9, 0x09, 0xf9, 0xf5, 0xfc, 0xfe, 0xf6,
  0x07, 0xfd, 0x03, 0xef, 0x0d, 0x0d, 0x0c, 0xfd, 0x00, 0x01, 0xf9, 0x07,
  0xf3, 0xf0, 0xf6, 0x06, 0x0b, 0x0c, 0x0e, 0x0d, 0x0a, 0xf8, 0x02, 0x0c,
  0xf1, 0xfb, 0x07, 0x05, 0xfc, 0xfc, 0xf5, 0x0c, 0x0c, 0x04, 0x0d, 0xfa,
  0xfa, 0x01, 0x01, 0xfb, 0x02, 0x06, 0x04, 0xfa, 0xfd, 0xfe, 0x0c, 0xf9,
  0x0d, 0xfb, 0xf4, 0xf3, 0x01, 0x05, 0x06, 0x09, 0xf4, 0xf8, 0x03, 0xf7,
  0x0a, 0xf4, 0x0a, 0x03, 0xfc, 0x02, 0xf9, 0x00, 0xfa, 0xf6, 0x01, 0xfd,
  0xfd, 0x09, 0xfe, 0x07, 0xf5, 0xf6, 0xf3, 0xff, 0x07, 0x06, 0xfc, 0xf5,
  0x0b, 0x00, 0x05, 0xf4, 0x0a, 0xf2, 0x0b, 0xf7, 0x07, 0x05, 0x08, 0xf7,
  0xf8, 0x09, 0x06, 0x03, 0xf8, 0xfb, 0xf4, 0x04, 0x02, 0xf7, 0x0e, 0xf6,
  0xfd, 0x03, 0x0d, 0xf9, 0xf5, 0x02, 0xf4, 0xf9, 0xf2, 0xfd, 0xff, 0xff,
  0x04, 0x00, 0x00, 0x00, 0x90, 0x01, 0x00, 0x00, 0x60, 0x23, 0x7b, 0xf5,
  0x00, 0x00, 0x00, 0x00, 0x00, 0x00, 0x00, 0x00, 0x80, 0x47, 0x4b, 0xec,
  0xc0, 0x99, 0x62, 0xf9, 0x40, 0x57, 0x7f, 0xd5, 0xf0, 0x86, 0x2c, 0xf2,
  0x20, 0xfe, 0x78, 0xfc, 0x00, 0x6d, 0x60, 0xd6, 0x20, 0xf1, 0xec, 0xf7,
  0x03, 0xf8, 0xff, 0xff, 0xc0, 0xd6, 0x00, 0xf7, 0xd0, 0x30, 0x52, 0xfb,
  0x00, 0x00, 0x00, 0x00, 0x10, 0x02, 0x42, 0xfa, 0x00, 0x74, 0x64, 0xe5,
  0x30, 0x03, 0xac, 0xf6, 0x20, 0x57, 0xc6, 0xe8, 0x80, 0x81, 0xa2, 0xef,
  0x00, 0x8c, 0xc2, 0xdf, 0x60, 0x95, 0xfb, 0xf2, 0x08, 0x2e, 0xb5, 0xfb,
  0x40, 0x8a, 0x69, 0xeb, 0x00, 0x00, 0x00, 0x00, 0xf0, 0x39, 0x53, 0xf5,
  0x00, 0x00, 0x00, 0x00, 0xa0, 0x18, 0xac, 0xf5, 0x30, 0x18, 0x6a, 0xf3,
  0xe0, 0xde, 0x6b, 0xf1, 0x00, 0x00, 0x00, 0x00, 0xee, 0xfe, 0xff, 0xff,
  0x00, 0x4c, 0x76, 0xe7, 0x60, 0x33, 0xd0, 0xf0, 0x00, 0x9b, 0x11, 0xda,
  0x00, 0x00, 0x00, 0x00, 0x00, 0x00, 0x00, 0xc0, 0x00, 0x00, 0x00, 0x00,
  0x00, 0x00, 0x00, 0x00, 0x50, 0x7c, 0xa0, 0xf4, 0x40, 0x2a, 0xa9, 0xdf,
  0xf0, 0x11, 0xa0, 0xfa, 0x80, 0x06, 0x69, 0xf6, 0x00, 0x00, 0x00, 0x00,
  0x00, 0x00, 0x00, 0x00, 0x10, 0x52, 0x5d, 0xfa, 0x00, 0x00, 0x00, 0x00,
  0xa0, 0xc5, 0x81, 0xe1, 0x00, 0x00, 0x00, 0x00, 0x40, 0x4a, 0xbe, 0xd6,
  0xc8, 0xd2, 0x6c, 0xf8, 0x84, 0xc1, 0x99, 0xfc, 0xec, 0x7d, 0x68, 0xff,
  0x80, 0xb7, 0x6e, 0xfc, 0xd0, 0xc0, 0x03, 0xff, 0x30, 0x8a, 0x09, 0xf4,
  0x50, 0x78, 0xf9, 0xf6, 0xe0, 0x36, 0x5d, 0xef, 0x40, 0xa7, 0xe2, 0xdd,
  0x00, 0x00, 0x00, 0x00, 0xc0, 0xde, 0x2f, 0xe6, 0x00, 0x00, 0x00, 0x00,
  0x00, 0x00, 0x00, 0x00, 0xc0, 0x7a, 0xb9, 0xec, 0x20, 0x0c, 0xca, 0xea,
  0x96, 0xbf, 0xf9, 0xff, 0xf0, 0xf9, 0xaa, 0xf1, 0x70, 0xe3, 0xfe, 0xf0,
  0x70, 0xc6, 0x0d, 0xf4, 0xc0, 0x1d, 0xba, 0xf7, 0x00, 0x00, 0x00, 0x00,
  0x00, 0x00, 0x00, 0x00, 0x00, 0x55, 0x2c, 0xd0, 0x80, 0xa8, 0xdf, 0xd9,
  0xc0, 0x3c, 0x0a, 0xe6, 0xa0, 0x03, 0x6a, 0xe8, 0x00, 0x1f, 0xd8, 0xea,
  0x20, 0xab, 0xd8, 0xf3, 0x58, 0x50, 0xfc, 0xff, 0x08, 0x91, 0x2c, 0xfb,
  0xf0, 0x6f, 0x84, 0xf4, 0x60, 0x41, 0xc6, 0xe5, 0x07, 0x20, 0x57, 0xff,
  0x58, 0x0e, 0xc1, 0xfb, 0x00, 0x00, 0x00, 0x00, 0x00, 0x00, 0x00, 0x00,
  0x00, 0xc0, 0x3f, 0xe3, 0x00, 0x00, 0x00, 0x00, 0x50, 0xf5, 0xbc, 0xf2,
  0xf0, 0xac, 0x45, 0xf4, 0x40, 0x0b, 0x4b, 0xf1, 0x00, 0x00, 0x00, 0x00,
  0x00, 0x00, 0x00, 0x00, 0xc0, 0xc8, 0xbe, 0xe8, 0xe0, 0x7d, 0x54, 0xf4,
  0x00, 0x14, 0xee, 0xc4, 0x00, 0x00, 0x00, 0x00, 0x20, 0x39, 0xab, 0xe1,
  0x1b, 0xd2, 0xe0, 0xff, 0x00, 0xcf, 0x76, 0xe5, 0x20, 0x3e, 0x37, 0xe5,
  0x8e, 0xff, 0xff, 0xff, 0x04, 0x00, 0x00, 0x00, 0x64, 0x00, 0x00, 0x00,
  0x35, 0x0d, 0xe0, 0xfe, 0xf3, 0xe5, 0xfa, 0x1d, 0xff, 0x05, 0x00, 0x04,
  0x25, 0x15, 0x13, 0x04, 0xd9, 0xf6, 0xf9, 0xe3, 0xff, 0x24, 0x1d, 0xff,
  0xde, 0xf7, 0xde, 0x35, 0xe3, 0xcd, 0x00, 0xee, 0xfc, 0xda, 0x08, 0x04,
  0xf2, 0x3a, 0x1f, 0x00, 0xf5, 0x20, 0x10, 0xfe, 0xe2, 0xfe, 0xda, 0xdb,
  0xe8, 0x0e, 0xee, 0x28, 0xca, 0xd8, 0x32, 0x2b, 0xff, 0x06, 0x16, 0xff,
  0x0c, 0x18, 0x10, 0x04, 0x00, 0x13, 0xe7, 0x22, 0x02, 0xf7, 0xf7, 0x02,
  0xeb, 0xcc, 0xec, 0x06, 0xe7, 0x00, 0x13, 0xd2, 0x04, 0xfb, 0xf3, 0x00,
  0x1d, 0x11, 0xe2, 0xd4, 0x24, 0x14, 0x25, 0xe7, 0xfa, 0x21, 0xfa, 0xfb,
  0x2c, 0x22, 0x23, 0xfe, 0x00, 0x00, 0x06, 0x00, 0x08, 0x00, 0x04, 0x00,
  0x06, 0x00, 0x00, 0x00, 0x04, 0x00, 0x00, 0x00, 0x04, 0x00, 0x00, 0x00,
  0x00, 0x00, 0x00, 0x40, 0x5c, 0xf8, 0xff, 0xff, 0x60, 0xf8, 0xff, 0xff,
  0x0f, 0x00, 0x00, 0x00, 0x4d, 0x4c, 0x49, 0x52, 0x20, 0x43, 0x6f, 0x6e,
  0x76, 0x65, 0x72, 0x74, 0x65, 0x64, 0x2e, 0x00, 0x01, 0x00, 0x00, 0x00,
  0x14, 0x00, 0x00, 0x00, 0x00, 0x00, 0x0e, 0x00, 0x18, 0x00, 0x14, 0x00,
  0x10, 0x00, 0x0c, 0x00, 0x08, 0x00, 0x04, 0x00, 0x0e, 0x00, 0x00, 0x00,
  0x14, 0x00, 0x00, 0x00, 0x1c, 0x00, 0x00, 0x00, 0x40, 0x01, 0x00, 0x00,
  0x44, 0x01, 0x00, 0x00, 0x48, 0x01, 0x00, 0x00, 0x04, 0x00, 0x00, 0x00,
  0x6d, 0x61, 0x69, 0x6e, 0x00, 0x00, 0x00, 0x00, 0x05, 0x00, 0x00, 0x00,
  0x08, 0x01, 0x00, 0x00, 0xb8, 0x00, 0x00, 0x00, 0x6c, 0x00, 0x00, 0x00,
  0x34, 0x00, 0x00, 0x00, 0x10, 0x00, 0x00, 0x00, 0x00, 0x00, 0x0a, 0x00,
  0x10, 0x00, 0x0c, 0x00, 0x08, 0x00, 0x04, 0x00, 0x0a, 0x00, 0x00, 0x00,
  0x0c, 0x00, 0x00, 0x00, 0x10, 0x00, 0x00, 0x00, 0x02, 0x00, 0x00, 0x00,
  0x01, 0x00, 0x00, 0x00, 0x0b, 0x00, 0x00, 0x00, 0x01, 0x00, 0x00, 0x00,
  0x0a, 0x00, 0x00, 0x00, 0x92, 0xff, 0xff, 0xff, 0x14, 0x00, 0x00, 0x00,
  0x00, 0x00, 0x00, 0x08, 0x10, 0x00, 0x00, 0x00, 0x14, 0x00, 0x00, 0x00,
  0x01, 0x00, 0x00, 0x00, 0x10, 0xf9, 0xff, 0xff, 0x01, 0x00, 0x00, 0x00,
  0x0a, 0x00, 0x00, 0x00, 0x03, 0x00, 0x00, 0x00, 0x09, 0x00, 0x00, 0x00,
  0x02, 0x00, 0x00, 0x00, 0x01, 0x00, 0x00, 0x00, 0xc6, 0xff, 0xff, 0xff,
  0x14, 0x00, 0x00, 0x00, 0x00, 0x00, 0x00, 0x08, 0x14, 0x00, 0x00, 0x00,
  0x18, 0x00, 0x00, 0x00, 0x01, 0x00, 0x00, 0x00, 0xb6, 0xff, 0xff, 0xff,
  0x00, 0x00, 0x00, 0x01, 0x01, 0x00, 0x00, 0x00, 0x09, 0x00, 0x00, 0x00,
  0x03, 0x00, 0x00, 0x00, 0x08, 0x00, 0x00, 0x00, 0x04, 0x00, 0x00, 0x00,
  0x03, 0x00, 0x00, 0x00, 0x00, 0x00, 0x0e, 0x00, 0x1a, 0x00, 0x14, 0x00,
  0x10, 0x00, 0x0c, 0x00, 0x0b, 0x00, 0x04, 0x00, 0x0e, 0x00, 0x00, 0x00,
  0x1c, 0x00, 0x00, 0x00, 0x00, 0x00, 0x00, 0x08, 0x1c, 0x00, 0x00, 0x00,
  0x20, 0x00, 0x00, 0x00, 0x01, 0x00, 0x00, 0x00, 0x00, 0x00, 0x06, 0x00,
  0x08, 0x00, 0x07, 0x00, 0x06, 0x00, 0x00, 0x00, 0x00, 0x00, 0x00, 0x01,
  0x01, 0x00, 0x00, 0x00, 0x08, 0x00, 0x00, 0x00, 0x03, 0x00, 0x00, 0x00,
  0x07, 0x00, 0x00, 0x00, 0x06, 0x00, 0x00, 0x00, 0x05, 0x00, 0x00, 0x00,
  0x00, 0x00, 0x0a, 0x00, 0x0c, 0x00, 0x00, 0x00, 0x08, 0x00, 0x04, 0x00,
  0x0a, 0x00, 0x00, 0x00, 0x08, 0x00, 0x00, 0x00, 0x0c, 0x00, 0x00, 0x00,
  0x01, 0x00, 0x00, 0x00, 0x07, 0x00, 0x00, 0x00, 0x01, 0x00, 0x00, 0x00,
  0x00, 0x00, 0x00, 0x00, 0x01, 0x00, 0x00, 0x00, 0x0b, 0x00, 0x00, 0x00,
  0x01, 0x00, 0x00, 0x00, 0x00, 0x00, 0x00, 0x00, 0x0c, 0x00, 0x00, 0x00,
  0xe8, 0x05, 0x00, 0x00, 0x48, 0x05, 0x00, 0x00, 0xc0, 0x04, 0x00, 0x00,
  0x44, 0x04, 0x00, 0x00, 0xd8, 0x03, 0x00, 0x00, 0x5c, 0x03, 0x00, 0x00,
  0xf0, 0x02, 0x00, 0x00, 0x7c, 0x02, 0x00, 0x00, 0xa0, 0x01, 0x00, 0x00,
  0xdc, 0x00, 0x00, 0x00, 0x60, 0x00, 0x00, 0x00, 0x04, 0x00, 0x00, 0x00,
  0x5e, 0xfa, 0xff, 0xff, 0x00, 0x00, 0x00, 0x01, 0x14, 0x00, 0x00, 0x00,
  0x1c, 0x00, 0x00, 0x00, 0x1c, 0x00, 0x00, 0x00, 0x0c, 0x00, 0x00, 0x00,
  0x34, 0x00, 0x00, 0x00, 0x02, 0x00, 0x00, 0x00, 0xff, 0xff, 0xff, 0xff,
  0x01, 0x00, 0x00, 0x00, 0x48, 0xfa, 0xff, 0xff, 0x19, 0x00, 0x00, 0x00,
  0x53, 0x74, 0x61, 0x74, 0x65, 0x66, 0x75, 0x6c, 0x50, 0x61, 0x72, 0x74,
  0x69, 0x74, 0x69, 0x6f, 0x6e, 0x65, 0x64, 0x43, 0x61, 0x6c, 0x6c, 0x3a,
  0x30, 0x00, 0x00, 0x00, 0x02, 0x00, 0x00, 0x00, 0x01, 0x00, 0x00, 0x00,
  0x01, 0x00, 0x00, 0x00, 0x06, 0xfe, 0xff, 0xff, 0x00, 0x00, 0x00, 0x01,
  0x18, 0x00, 0x00, 0x00, 0x20, 0x00, 0x00, 0x00, 0x3c, 0x00, 0x00, 0x00,
  0x0b, 0x00, 0x00, 0x00, 0x00, 0x00, 0x00, 0x09, 0x50, 0x00, 0x00, 0x00,
  0x02, 0x00, 0x00, 0x00, 0xff, 0xff, 0xff, 0xff, 0x01, 0x00, 0x00, 0x00,
  0x4c, 0xfb, 0xff, 0xff, 0x08, 0x00, 0x00, 0x00, 0x10, 0x00, 0x00, 0x00,
  0x01, 0x00, 0x00, 0x00, 0x80, 0xff, 0xff, 0xff, 0xff, 0xff, 0xff, 0xff,
  0x01, 0x00, 0x00, 0x00, 0xb4, 0x7b, 0x0e, 0x39, 0x1a, 0x00, 0x00, 0x00,
  0x53, 0x74, 0x61, 0x74, 0x65, 0x66, 0x75, 0x6c, 0x50, 0x61, 0x72, 0x74,
  0x69, 0x74, 0x69, 0x6f, 0x6e, 0x65, 0x64, 0x43, 0x61, 0x6c, 0x6c, 0x3a,
  0x30, 0x31, 0x00, 0x00, 0x02, 0x00, 0x00, 0x00, 0x01, 0x00, 0x00, 0x00,
  0x01, 0x00, 0x00, 0x00, 0x7e, 0xfe, 0xff, 0xff, 0x00, 0x00, 0x00, 0x01,
  0x18, 0x00, 0x00, 0x00, 0x20, 0x00, 0x00, 0x00, 0x40, 0x00, 0x00, 0x00,
  0x0a, 0x00, 0x00, 0x00, 0x00, 0x00, 0x00, 0x09, 0x98, 0x00, 0x00, 0x00,
  0x02, 0x00, 0x00, 0x00, 0xff, 0xff, 0xff, 0xff, 0x64, 0x00, 0x00, 0x00,
  0xc4, 0xfb, 0xff, 0xff, 0x08, 0x00, 0x00, 0x00, 0x14, 0x00, 0x00, 0x00,
  0x01, 0x00, 0x00, 0x00, 0x00, 0x00, 0x00, 0x00, 0x00, 0x00, 0x00, 0x00,
  0x00, 0x00, 0x00, 0x00, 0x01, 0x00, 0x00, 0x00, 0x7b, 0xbe, 0x06, 0x32,
  0x5f, 0x00, 0x00, 0x00, 0x73, 0x65, 0x71, 0x75, 0x65, 0x6e, 0x74, 0x69,
  0x61, 0x6c, 0x5f, 0x32, 0x2f, 0x64, 0x65, 0x6e, 0x73, 0x65, 0x5f, 0x37,
  0x2f, 0x4d, 0x61, 0x74, 0x4d, 0x75, 0x6c, 0x3b, 0x73, 0x65, 0x71, 0x75,
  0x65, 0x6e, 0x74, 0x69, 0x61, 0x6c, 0x5f, 0x32, 0x2f, 0x64, 0x65, 0x6e,
  0x73, 0x65, 0x5f, 0x37, 0x2f, 0x61, 0x63, 0x74, 0x69, 0x76, 0x61, 0x74,
  0x69, 0x6f, 0x6e, 0x5f, 0x35, 0x2f, 0x52, 0x65, 0x6c, 0x75, 0x3b, 0x73,
  0x65, 0x71, 0x75, 0x65, 0x6e, 0x74, 0x69, 0x61, 0x6c, 0x5f, 0x32, 0x2f,
  0x64, 0x65, 0x6e, 0x73, 0x65, 0x5f, 0x37, 0x2f, 0x42, 0x69, 0x61, 0x73,
  0x41, 0x64, 0x64, 0x00, 0x02, 0x00, 0x00, 0x00, 0x01, 0x00, 0x00, 0x00,
  0x64, 0x00, 0x00, 0x00, 0x3e, 0xff, 0xff, 0xff, 0x00, 0x00, 0x00, 0x01,
  0x18, 0x00, 0x00, 0x00, 0x20, 0x00, 0x00, 0x00, 0x40, 0x00, 0x00, 0x00,
  0x09, 0x00, 0x00, 0x00, 0x00, 0x00, 0x00, 0x09, 0x98, 0x00, 0x00, 0x00,
  0x02, 0x00, 0x00, 0x00, 0xff, 0xff, 0xff, 0xff, 0x64, 0x00, 0x00, 0x00,
  0x84, 0xfc, 0xff, 0xff, 0x08, 0x00, 0x00, 0x00, 0x14, 0x00, 0x00, 0x00,
  0x01, 0x00, 0x00, 0x00, 0x00, 0x00, 0x00, 0x00, 0x00, 0x00, 0x00, 0x00,
  0x00, 0x00, 0x00, 0x00, 0x01, 0x00, 0x00, 0x00, 0x7b, 0xbe, 0x06, 0x32,
  0x5f, 0x00, 0x00, 0x00, 0x73, 0x65, 0x71, 0x75, 0x65, 0x6e, 0x74, 0x69,
  0x61, 0x6c, 0x5f, 0x32, 0x2f, 0x64, 0x65, 0x6e, 0x73, 0x65, 0x5f, 0x36,
  0x2f, 0x4d, 0x61, 0x74, 0x4d, 0x75, 0x6c, 0x3b, 0x73, 0x65, 0x71, 0x75,
  0x65, 0x6e, 0x74, 0x69, 0x61, 0x6c, 0x5f, 0x32, 0x2f, 0x64, 0x65, 0x6e,
  0x73, 0x65, 0x5f, 0x36, 0x2f, 0x61, 0x63, 0x74, 0x69, 0x76, 0x61, 0x74,
  0x69, 0x6f, 0x6e, 0x5f, 0x34, 0x2f, 0x52, 0x65, 0x6c, 0x75, 0x3b, 0x73,
  0x65, 0x71, 0x75, 0x65, 0x6e, 0x74, 0x69, 0x61, 0x6c, 0x5f, 0x32, 0x2f,
  0x64, 0x65, 0x6e, 0x73, 0x65, 0x5f, 0x36, 0x2f, 0x42, 0x69, 0x61, 0x73,
  0x41, 0x64, 0x64, 0x00, 0x02, 0x00, 0x00, 0x00, 0x01, 0x00, 0x00, 0x00,
  0x64, 0x00, 0x00, 0x00, 0x00, 0x00, 0x16, 0x00, 0x20, 0x00, 0x1c, 0x00,
  0x1b, 0x00, 0x14, 0x00, 0x10, 0x00, 0x0c, 0x00, 0x00, 0x00, 0x00, 0x00,
  0x08, 0x00, 0x07, 0x00, 0x16, 0x00, 0x00, 0x00, 0x00, 0x00, 0x00, 0x01,
  0x18, 0x00, 0x00, 0x00, 0x20, 0x00, 0x00, 0x00, 0x40, 0x00, 0x00, 0x00,
  0x08, 0x00, 0x00, 0x00, 0x00, 0x00, 0x00, 0x09, 0x48, 0x00, 0x00, 0x00,
  0x02, 0x00, 0x00, 0x00, 0xff, 0xff, 0xff, 0xff, 0x01, 0x00, 0x00, 0x00,
  0x5c, 0xfd, 0xff, 0xff, 0x08, 0x00, 0x00, 0x00, 0x14, 0x00, 0x00, 0x00,
  0x01, 0x00, 0x00, 0x00, 0x80, 0xff, 0xff, 0xff, 0xff, 0xff, 0xff, 0xff,
  0x00, 0x00, 0x00, 0x00, 0x01, 0x00, 0x00, 0x00, 0x2c, 0x2e, 0x1f, 0x3d,
  0x0c, 0x00, 0x00, 0x00, 0x74, 0x66, 0x6c, 0x2e, 0x71, 0x75, 0x61, 0x6e,
  0x74, 0x69, 0x7a, 0x65, 0x00, 0x00, 0x00, 0x00, 0x02, 0x00, 0x00, 0x00,
  0x01, 0x00, 0x00, 0x00, 0x01, 0x00, 0x00, 0x00, 0xd2, 0xfd, 0xff, 0xff,
  0x00, 0x00, 0x00, 0x01, 0x14, 0x00, 0x00, 0x00, 0x30, 0x00, 0x00, 0x00,
  0x07, 0x00, 0x00, 0x00, 0x00, 0x00, 0x00, 0x09, 0x44, 0x00, 0x00, 0x00,
  0xbc, 0xfd, 0xff, 0xff, 0x08, 0x00, 0x00, 0x00, 0x10, 0x00, 0x00, 0x00,
  0x01, 0x00, 0x00, 0x00, 0x00, 0x00, 0x00, 0x00, 0x00, 0x00, 0x00, 0x00,
  0x01, 0x00, 0x00, 0x00, 0x82, 0x9e, 0xf9, 0x3a, 0x1b, 0x00, 0x00, 0x00,
  0x73, 0x65, 0x71, 0x75, 0x65, 0x6e, 0x74, 0x69, 0x61, 0x6c, 0x5f, 0x32,
  0x2f, 0x64, 0x65, 0x6e, 0x73, 0x65, 0x5f, 0x36, 0x2f, 0x4d, 0x61, 0x74,
  0x4d, 0x75, 0x6c, 0x00, 0x02, 0x00, 0x00, 0x00, 0x64, 0x00, 0x00, 0x00,
  0x01, 0x00, 0x00, 0x00, 0x3a, 0xfe, 0xff, 0xff, 0x00, 0x00, 0x00, 0x01,
  0x14, 0x00, 0x00, 0x00, 0x34, 0x00, 0x00, 0x00, 0x06, 0x00, 0x00, 0x00,
  0x00, 0x00, 0x00, 0x02, 0x58, 0x00, 0x00, 0x00, 0x24, 0xfe, 0xff, 0xff,
  0x08, 0x00, 0x00, 0x00, 0x14, 0x00, 0x00, 0x00, 0x01, 0x00, 0x00, 0x00,
  0x00, 0x00, 0x00, 0x00, 0x00, 0x00, 0x00, 0x00, 0x00, 0x00, 0x00, 0x00,
  0x01, 0x00, 0x00, 0x00, 0x78, 0x36, 0x9b, 0x38, 0x2b, 0x00, 0x00, 0x00,
  0x73, 0x65, 0x71, 0x75, 0x65, 0x6e, 0x74, 0x69, 0x61, 0x6c, 0x5f, 0x32,
  0x2f, 0x64, 0x65, 0x6e, 0x73, 0x65, 0x5f, 0x36, 0x2f, 0x42, 0x69, 0x61,
  0x73, 0x41, 0x64, 0x64, 0x2f, 0x52, 0x65, 0x61, 0x64, 0x56, 0x61, 0x72,
  0x69, 0x61, 0x62, 0x6c, 0x65, 0x4f, 0x70, 0x00, 0x01, 0x00, 0x00, 0x00,
  0x64, 0x00, 0x00, 0x00, 0xb2, 0xfe, 0xff, 0xff, 0x00, 0x00, 0x00, 0x01,
  0x14, 0x00, 0x00, 0x00, 0x30, 0x00, 0x00, 0x00, 0x05, 0x00, 0x00, 0x00,
  0x00, 0x00, 0x00, 0x09, 0x44, 0x00, 0x00, 0x00, 0x9c, 0xfe, 0xff, 0xff,
  0x08, 0x00, 0x00, 0x00, 0x10, 0x00, 0x00, 0x00, 0x01, 0x00, 0x00, 0x00,
  0x00, 0x00, 0x00, 0x00, 0x00, 0x00, 0x00, 0x00, 0x01, 0x00, 0x00, 0x00,
  0x03, 0x92, 0x51, 0x3c, 0x1b, 0x00, 0x00, 0x00, 0x73, 0x65, 0x71, 0x75,
  0x65, 0x6e, 0x74, 0x69, 0x61, 0x6c, 0x5f, 0x32, 0x2f, 0x64, 0x65, 0x6e,
  0x73, 0x65, 0x5f, 0x37, 0x2f, 0x4d, 0x61, 0x74, 0x4d, 0x75, 0x6c, 0x00,
  0x02, 0x00, 0x00, 0x00, 0x64, 0x00, 0x00, 0x00, 0x64, 0x00, 0x00, 0x00,
  0x1a, 0xff, 0xff, 0xff, 0x00, 0x00, 0x00, 0x01, 0x14, 0x00, 0x00, 0x00,
  0x34, 0x00, 0x00, 0x00, 0x04, 0x00, 0x00, 0x00, 0x00, 0x00, 0x00, 0x02,
  0x58, 0x00, 0x00, 0x00, 0x04, 0xff, 0xff, 0xff, 0x08, 0x00, 0x00, 0x00,
  0x14, 0x00, 0x00, 0x00, 0x01, 0x00, 0x00, 0x00, 0x00, 0x00, 0x00, 0x00,
  0x00, 0x00, 0x00, 0x00, 0x00, 0x00, 0x00, 0x00, 0x01, 0x00, 0x00, 0x00,
  0xb9, 0x9c, 0xdc, 0x2e, 0x2b, 0x00, 0x00, 0x00, 0x73, 0x65, 0x71, 0x75,
  0x65, 0x6e, 0x74, 0x69, 0x61, 0x6c, 0x5f, 0x32, 0x2f, 0x64, 0x65, 0x6e,
  0x73, 0x65, 0x5f, 0x37, 0x2f, 0x42, 0x69, 0x61, 0x73, 0x41, 0x64, 0x64,
  0x2f, 0x52, 0x65, 0x61, 0x64, 0x56, 0x61, 0x72, 0x69, 0x61, 0x62, 0x6c,
  0x65, 0x4f, 0x70, 0x00, 0x01, 0x00, 0x00, 0x00, 0x64, 0x00, 0x00, 0x00,
  0x92, 0xff, 0xff, 0xff, 0x00, 0x00, 0x00, 0x01, 0x14, 0x00, 0x00, 0x00,
  0x34, 0x00, 0x00, 0x00, 0x03, 0x00, 0x00, 0x00, 0x00, 0x00, 0x00, 0x09,
  0x48, 0x00, 0x00, 0x00, 0x7c, 0xff, 0xff, 0xff, 0x08, 0x00, 0x00, 0x00,
  0x14, 0x00, 0x00, 0x00, 0x01, 0x00, 0x00, 0x00, 0x00, 0x00, 0x00, 0x00,
  0x00, 0x00, 0x00, 0x00, 0x00, 0x00, 0x00, 0x00, 0x01, 0x00, 0x00, 0x00,
  0xb5, 0xd2, 0x86, 0x3b, 0x1b, 0x00, 0x00, 0x00, 0x73, 0x65, 0x71, 0x75,
  0x65, 0x6e, 0x74, 0x69, 0x61, 0x6c, 0x5f, 0x32, 0x2f, 0x64, 0x65, 0x6e,
  0x73, 0x65, 0x5f, 0x38, 0x2f, 0x4d, 0x61, 0x74, 0x4d, 0x75, 0x6c, 0x00,
  0x02, 0x00, 0x00, 0x00, 0x01, 0x00, 0x00, 0x00, 0x64, 0x00, 0x00, 0x00,
  0x00, 0x00, 0x16, 0x00, 0x1c, 0x00, 0x18, 0x00, 0x17, 0x00, 0x10, 0x00,
  0x0c, 0x00, 0x08, 0x00, 0x00, 0x00, 0x00, 0x00, 0x00, 0x00, 0x07, 0x00,
  0x16, 0x00, 0x00, 0x00, 0x00, 0x00, 0x00, 0x01, 0x20, 0x00, 0x00, 0x00,
  0x40, 0x00, 0x00, 0x00, 0x02, 0x00, 0x00, 0x00, 0x00, 0x00, 0x00, 0x02,
  0x64, 0x00, 0x00, 0x00, 0x0c, 0x00, 0x0c, 0x00, 0x00, 0x00, 0x00, 0x00,
  0x08, 0x00, 0x04, 0x00, 0x0c, 0x00, 0x00, 0x00, 0x08, 0x00, 0x00, 0x00,
  0x14, 0x00, 0x00, 0x00, 0x01, 0x00, 0x00, 0x00, 0x00, 0x00, 0x00, 0x00,
  0x00, 0x00, 0x00, 0x00, 0x00, 0x00, 0x00, 0x00, 0x01, 0x00, 0x00, 0x00,
  0x38, 0xed, 0x0d, 0x2e, 0x2b, 0x00, 0x00, 0x00, 0x73, 0x65, 0x71, 0x75,
  0x65, 0x6e, 0x74, 0x69, 0x61, 0x6c, 0x5f, 0x32, 0x2f, 0x64, 0x65, 0x6e,
  0x73, 0x65, 0x5f, 0x38, 0x2f, 0x42, 0x69, 0x61, 0x73, 0x41, 0x64, 0x64,
  0x2f, 0x52, 0x65, 0x61, 0x64, 0x56, 0x61, 0x72, 0x69, 0x61, 0x62, 0x6c,
  0x65, 0x4f, 0x70, 0x00, 0x01, 0x00, 0x00, 0x00, 0x01, 0x00, 0x00, 0x00,
  0x00, 0x00, 0x16, 0x00, 0x1c, 0x00, 0x18, 0x00, 0x00, 0x00, 0x14, 0x00,
  0x10, 0x00, 0x0c, 0x00, 0x00, 0x00, 0x00, 0x00, 0x08, 0x00, 0x07, 0x00,
  0x16, 0x00, 0x00, 0x00, 0x00, 0x00, 0x00, 0x01, 0x14, 0x00, 0x00, 0x00,
  0x20, 0x00, 0x00, 0x00, 0x20, 0x00, 0x00, 0x00, 0x01, 0x00, 0x00, 0x00,
  0x3c, 0x00, 0x00, 0x00, 0x02, 0x00, 0x00, 0x00, 0xff, 0xff, 0xff, 0xff,
  0x01, 0x00, 0x00, 0x00, 0x04, 0x00, 0x04, 0x00, 0x04, 0x00, 0x00, 0x00,
  0x1f, 0x00, 0x00, 0x00, 0x73, 0x65, 0x72, 0x76, 0x69, 0x6e, 0x67, 0x5f,
  0x64, 0x65, 0x66, 0x61, 0x75, 0x6c, 0x74, 0x5f, 0x64, 0x65, 0x6e, 0x73,
  0x65, 0x5f, 0x36, 0x5f, 0x69, 0x6e, 0x70, 0x75, 0x74, 0x3a, 0x30, 0x00,
  0x02, 0x00, 0x00, 0x00, 0x01, 0x00, 0x00, 0x00, 0x01, 0x00, 0x00, 0x00,
  0x03, 0x00, 0x00, 0x00, 0x44, 0x00, 0x00, 0x00, 0x24, 0x00, 0x00, 0x00,
  0x04, 0x00, 0x00, 0x00, 0xf0, 0xff, 0xff, 0xff, 0x06, 0x00, 0x00, 0x00,
  0x02, 0x00, 0x00, 0x00, 0x00, 0x00, 0x00, 0x06, 0x0c, 0x00, 0x10, 0x00,
  0x0f, 0x00, 0x00, 0x00, 0x08, 0x00, 0x04, 0x00, 0x0c, 0x00, 0x00, 0x00,
  0x09, 0x00, 0x00, 0x00, 0x04, 0x00, 0x00, 0x00, 0x00, 0x00, 0x00, 0x09,
  0x0c, 0x00, 0x0c, 0x00, 0x0b, 0x00, 0x00, 0x00, 0x00, 0x00, 0x04, 0x00,
  0x0c, 0x00, 0x00, 0x00, 0x72, 0x00, 0x00, 0x00, 0x00, 0x00, 0x00, 0x72
};
