unsigned char _content_gsc_tflite_bcresnet1_quant_tflite[] = {
  0x20, 0x00, 0x00, 0x00, 0x54, 0x46, 0x4c, 0x33, 0x00, 0x00, 0x00, 0x00,
  0x14, 0x00, 0x20, 0x00, 0x1c, 0x00, 0x18, 0x00, 0x14, 0x00, 0x10, 0x00,
  0x0c, 0x00, 0x00, 0x00, 0x08, 0x00, 0x04, 0x00, 0x14, 0x00, 0x00, 0x00,
  0x1c, 0x00, 0x00, 0x00, 0x80, 0x00, 0x00, 0x00, 0xd8, 0x00, 0x00, 0x00,
  0xc8, 0x2d, 0x00, 0x00, 0xd8, 0x2d, 0x00, 0x00, 0x24, 0x65, 0x01, 0x00,
  0x03, 0x00, 0x00, 0x00, 0x01, 0x00, 0x00, 0x00, 0x04, 0x00, 0x00, 0x00,
  0xe2, 0xb3, 0xff, 0xff, 0x0c, 0x00, 0x00, 0x00, 0x1c, 0x00, 0x00, 0x00,
  0x38, 0x00, 0x00, 0x00, 0x0f, 0x00, 0x00, 0x00, 0x73, 0x65, 0x72, 0x76,
  0x69, 0x6e, 0x67, 0x5f, 0x64, 0x65, 0x66, 0x61, 0x75, 0x6c, 0x74, 0x00,
  0x01, 0x00, 0x00, 0x00, 0x04, 0x00, 0x00, 0x00, 0x9c, 0xff, 0xff, 0xff,
  0x0a, 0x01, 0x00, 0x00, 0x04, 0x00, 0x00, 0x00, 0x07, 0x00, 0x00, 0x00,
  0x73, 0x6f, 0x66, 0x74, 0x6d, 0x61, 0x78, 0x00, 0x01, 0x00, 0x00, 0x00,
  0x04, 0x00, 0x00, 0x00, 0xd2, 0xcf, 0xff, 0xff, 0x04, 0x00, 0x00, 0x00,
  0x07, 0x00, 0x00, 0x00, 0x69, 0x6e, 0x70, 0x75, 0x74, 0x5f, 0x31, 0x00,
  0x02, 0x00, 0x00, 0x00, 0x34, 0x00, 0x00, 0x00, 0x04, 0x00, 0x00, 0x00,
  0xdc, 0xff, 0xff, 0xff, 0x0d, 0x01, 0x00, 0x00, 0x04, 0x00, 0x00, 0x00,
  0x13, 0x00, 0x00, 0x00, 0x43, 0x4f, 0x4e, 0x56, 0x45, 0x52, 0x53, 0x49,
  0x4f, 0x4e, 0x5f, 0x4d, 0x45, 0x54, 0x41, 0x44, 0x41, 0x54, 0x41, 0x00,
  0x08, 0x00, 0x0c, 0x00, 0x08, 0x00, 0x04, 0x00, 0x08, 0x00, 0x00, 0x00,
  0x0c, 0x01, 0x00, 0x00, 0x04, 0x00, 0x00, 0x00, 0x13, 0x00, 0x00, 0x00,
  0x6d, 0x69, 0x6e, 0x5f, 0x72, 0x75, 0x6e, 0x74, 0x69, 0x6d, 0x65, 0x5f,
  0x76, 0x65, 0x72, 0x73, 0x69, 0x6f, 0x6e, 0x00, 0x0e, 0x01, 0x00, 0x00,
  0xec, 0x2c, 0x00, 0x00, 0xe4, 0x2c, 0x00, 0x00, 0xd0, 0x2c, 0x00, 0x00,
  0xb8, 0x2c, 0x00, 0x00, 0xa0, 0x2c, 0x00, 0x00, 0x70, 0x2c, 0x00, 0x00,
  0x60, 0x2b, 0x00, 0x00, 0xd0, 0x2a, 0x00, 0x00, 0x40, 0x28, 0x00, 0x00,
  0x3c, 0x26, 0x00, 0x00, 0x9c, 0x24, 0x00, 0x00, 0x78, 0x24, 0x00, 0x00,
  0x54, 0x24, 0x00, 0x00, 0x08, 0x24, 0x00, 0x00, 0xa8, 0x23, 0x00, 0x00,
  0x5c, 0x23, 0x00, 0x00, 0xbc, 0x21, 0x00, 0x00, 0x98, 0x21, 0x00, 0x00,
  0x74, 0x21, 0x00, 0x00, 0x28, 0x21, 0x00, 0x00, 0xc8, 0x20, 0x00, 0x00,
  0x7c, 0x20, 0x00, 0x00, 0xdc, 0x1e, 0x00, 0x00, 0xb8, 0x1e, 0x00, 0x00,
  0x94, 0x1e, 0x00, 0x00, 0x48, 0x1e, 0x00, 0x00, 0xe8, 0x1d, 0x00, 0x00,
  0x9c, 0x1d, 0x00, 0x00, 0xfc, 0x1b, 0x00, 0x00, 0xd8, 0x1b, 0x00, 0x00,
  0xb4, 0x1b, 0x00, 0x00, 0x54, 0x1b, 0x00, 0x00, 0x4c, 0x1b, 0x00, 0x00,
  0x44, 0x1b, 0x00, 0x00, 0x3c, 0x1b, 0x00, 0x00, 0x34, 0x1b, 0x00, 0x00,
  0x2c, 0x1b, 0x00, 0x00, 0x24, 0x1b, 0x00, 0x00, 0x1c, 0x1b, 0x00, 0x00,
  0x14, 0x1b, 0x00, 0x00, 0xc8, 0x1a, 0x00, 0x00, 0x68, 0x1a, 0x00, 0x00,
  0x1c, 0x1a, 0x00, 0x00, 0xbc, 0x19, 0x00, 0x00, 0x6c, 0x18, 0x00, 0x00,
  0x5c, 0x17, 0x00, 0x00, 0x3c, 0x17, 0x00, 0x00, 0x1c, 0x17, 0x00, 0x00,
  0xdc, 0x16, 0x00, 0x00, 0x8c, 0x16, 0x00, 0x00, 0x4c, 0x16, 0x00, 0x00,
  0x3c, 0x15, 0x00, 0x00, 0x1c, 0x15, 0x00, 0x00, 0xfc, 0x14, 0x00, 0x00,
  0xbc, 0x14, 0x00, 0x00, 0x6c, 0x14, 0x00, 0x00, 0x2c, 0x14, 0x00, 0x00,
  0x1c, 0x13, 0x00, 0x00, 0xfc, 0x12, 0x00, 0x00, 0xdc, 0x12, 0x00, 0x00,
  0x9c, 0x12, 0x00, 0x00, 0x4c, 0x12, 0x00, 0x00, 0x0c, 0x12, 0x00, 0x00,
  0xfc, 0x10, 0x00, 0x00, 0xdc, 0x10, 0x00, 0x00, 0xbc, 0x10, 0x00, 0x00,
  0x6c, 0x10, 0x00, 0x00, 0x64, 0x10, 0x00, 0x00, 0x5c, 0x10, 0x00, 0x00,
  0x54, 0x10, 0x00, 0x00, 0x4c, 0x10, 0x00, 0x00, 0x44, 0x10, 0x00, 0x00,
  0x3c, 0x10, 0x00, 0x00, 0x34, 0x10, 0x00, 0x00, 0xf4, 0x0f, 0x00, 0x00,
  0xa4, 0x0f, 0x00, 0x00, 0x64, 0x0f, 0x00, 0x00, 0x14, 0x0f, 0x00, 0x00,
  0x44, 0x0e, 0x00, 0x00, 0xa4, 0x0d, 0x00, 0x00, 0x88, 0x0d, 0x00, 0x00,
  0x6c, 0x0d, 0x00, 0x00, 0x38, 0x0d, 0x00, 0x00, 0xf8, 0x0c, 0x00, 0x00,
  0xc4, 0x0c, 0x00, 0x00, 0x24, 0x0c, 0x00, 0x00, 0x08, 0x0c, 0x00, 0x00,
  0xec, 0x0b, 0x00, 0x00, 0xac, 0x0b, 0x00, 0x00, 0xa4, 0x0b, 0x00, 0x00,
  0x9c, 0x0b, 0x00, 0x00, 0x94, 0x0b, 0x00, 0x00, 0x60, 0x0b, 0x00, 0x00,
  0x20, 0x0b, 0x00, 0x00, 0xec, 0x0a, 0x00, 0x00, 0xac, 0x0a, 0x00, 0x00,
  0x3c, 0x0a, 0x00, 0x00, 0xec, 0x09, 0x00, 0x00, 0xd4, 0x09, 0x00, 0x00,
  0xbc, 0x09, 0x00, 0x00, 0x94, 0x09, 0x00, 0x00, 0x64, 0x09, 0x00, 0x00,
  0x3c, 0x09, 0x00, 0x00, 0xec, 0x08, 0x00, 0x00, 0xd4, 0x08, 0x00, 0x00,
  0xbc, 0x08, 0x00, 0x00, 0x8c, 0x08, 0x00, 0x00, 0x84, 0x08, 0x00, 0x00,
  0x7c, 0x08, 0x00, 0x00, 0x74, 0x08, 0x00, 0x00, 0x4c, 0x08, 0x00, 0x00,
  0x1c, 0x08, 0x00, 0x00, 0xf4, 0x07, 0x00, 0x00, 0xc4, 0x07, 0x00, 0x00,
  0x34, 0x07, 0x00, 0x00, 0xe4, 0x06, 0x00, 0x00, 0x44, 0x05, 0x00, 0x00,
  0x3c, 0x05, 0x00, 0x00, 0x34, 0x05, 0x00, 0x00, 0x2c, 0x05, 0x00, 0x00,
  0x24, 0x05, 0x00, 0x00, 0x1c, 0x05, 0x00, 0x00, 0x14, 0x05, 0x00, 0x00,
  0x0c, 0x05, 0x00, 0x00, 0x04, 0x05, 0x00, 0x00, 0xfc, 0x04, 0x00, 0x00,
  0xf4, 0x04, 0x00, 0x00, 0xec, 0x04, 0x00, 0x00, 0xe4, 0x04, 0x00, 0x00,
  0xdc, 0x04, 0x00, 0x00, 0xd4, 0x04, 0x00, 0x00, 0xcc, 0x04, 0x00, 0x00,
  0xc4, 0x04, 0x00, 0x00, 0xbc, 0x04, 0x00, 0x00, 0xb4, 0x04, 0x00, 0x00,
  0xac, 0x04, 0x00, 0x00, 0xa4, 0x04, 0x00, 0x00, 0x9c, 0x04, 0x00, 0x00,
  0x94, 0x04, 0x00, 0x00, 0x8c, 0x04, 0x00, 0x00, 0x84, 0x04, 0x00, 0x00,
  0x7c, 0x04, 0x00, 0x00, 0x74, 0x04, 0x00, 0x00, 0x6c, 0x04, 0x00, 0x00,
  0x64, 0x04, 0x00, 0x00, 0x5c, 0x04, 0x00, 0x00, 0x54, 0x04, 0x00, 0x00,
  0x4c, 0x04, 0x00, 0x00, 0x44, 0x04, 0x00, 0x00, 0x3c, 0x04, 0x00, 0x00,
  0x34, 0x04, 0x00, 0x00, 0x2c, 0x04, 0x00, 0x00, 0x24, 0x04, 0x00, 0x00,
  0x1c, 0x04, 0x00, 0x00, 0x14, 0x04, 0x00, 0x00, 0x0c, 0x04, 0x00, 0x00,
  0x04, 0x04, 0x00, 0x00, 0xfc, 0x03, 0x00, 0x00, 0xf4, 0x03, 0x00, 0x00,
  0xec, 0x03, 0x00, 0x00, 0xe4, 0x03, 0x00, 0x00, 0xdc, 0x03, 0x00, 0x00,
  0xd4, 0x03, 0x00, 0x00, 0xcc, 0x03, 0x00, 0x00, 0xc4, 0x03, 0x00, 0x00,
  0xbc, 0x03, 0x00, 0x00, 0xb4, 0x03, 0x00, 0x00, 0xac, 0x03, 0x00, 0x00,
  0xa4, 0x03, 0x00, 0x00, 0x9c, 0x03, 0x00, 0x00, 0x94, 0x03, 0x00, 0x00,
  0x8c, 0x03, 0x00, 0x00, 0x84, 0x03, 0x00, 0x00, 0x7c, 0x03, 0x00, 0x00,
  0x74, 0x03, 0x00, 0x00, 0x6c, 0x03, 0x00, 0x00, 0x64, 0x03, 0x00, 0x00,
  0x5c, 0x03, 0x00, 0x00, 0x54, 0x03, 0x00, 0x00, 0x4c, 0x03, 0x00, 0x00,
  0x44, 0x03, 0x00, 0x00, 0x3c, 0x03, 0x00, 0x00, 0x34, 0x03, 0x00, 0x00,
  0x2c, 0x03, 0x00, 0x00, 0x24, 0x03, 0x00, 0x00, 0x1c, 0x03, 0x00, 0x00,
  0x14, 0x03, 0x00, 0x00, 0x0c, 0x03, 0x00, 0x00, 0x04, 0x03, 0x00, 0x00,
  0xfc, 0x02, 0x00, 0x00, 0xf4, 0x02, 0x00, 0x00, 0xec, 0x02, 0x00, 0x00,
  0xe4, 0x02, 0x00, 0x00, 0xdc, 0x02, 0x00, 0x00, 0xd4, 0x02, 0x00, 0x00,
  0xcc, 0x02, 0x00, 0x00, 0xc4, 0x02, 0x00, 0x00, 0xbc, 0x02, 0x00, 0x00,
  0xb4, 0x02, 0x00, 0x00, 0xac, 0x02, 0x00, 0x00, 0xa4, 0x02, 0x00, 0x00,
  0x9c, 0x02, 0x00, 0x00, 0x94, 0x02, 0x00, 0x00, 0x8c, 0x02, 0x00, 0x00,
  0x84, 0x02, 0x00, 0x00, 0x7c, 0x02, 0x00, 0x00, 0x74, 0x02, 0x00, 0x00,
  0x6c, 0x02, 0x00, 0x00, 0x64, 0x02, 0x00, 0x00, 0x5c, 0x02, 0x00, 0x00,
  0x54, 0x02, 0x00, 0x00, 0x4c, 0x02, 0x00, 0x00, 0x44, 0x02, 0x00, 0x00,
  0x3c, 0x02, 0x00, 0x00, 0x34, 0x02, 0x00, 0x00, 0x2c, 0x02, 0x00, 0x00,
  0x24, 0x02, 0x00, 0x00, 0x1c, 0x02, 0x00, 0x00, 0x14, 0x02, 0x00, 0x00,
  0x0c, 0x02, 0x00, 0x00, 0x04, 0x02, 0x00, 0x00, 0xfc, 0x01, 0x00, 0x00,
  0xf4, 0x01, 0x00, 0x00, 0xec, 0x01, 0x00, 0x00, 0xe4, 0x01, 0x00, 0x00,
  0xdc, 0x01, 0x00, 0x00, 0xd4, 0x01, 0x00, 0x00, 0xcc, 0x01, 0x00, 0x00,
  0xc4, 0x01, 0x00, 0x00, 0xbc, 0x01, 0x00, 0x00, 0xb4, 0x01, 0x00, 0x00,
  0xac, 0x01, 0x00, 0x00, 0xa4, 0x01, 0x00, 0x00, 0x9c, 0x01, 0x00, 0x00,
  0x94, 0x01, 0x00, 0x00, 0x8c, 0x01, 0x00, 0x00, 0x84, 0x01, 0x00, 0x00,
  0x7c, 0x01, 0x00, 0x00, 0x74, 0x01, 0x00, 0x00, 0x6c, 0x01, 0x00, 0x00,
  0x64, 0x01, 0x00, 0x00, 0x5c, 0x01, 0x00, 0x00, 0x54, 0x01, 0x00, 0x00,
  0x4c, 0x01, 0x00, 0x00, 0x44, 0x01, 0x00, 0x00, 0x3c, 0x01, 0x00, 0x00,
  0x34, 0x01, 0x00, 0x00, 0x2c, 0x01, 0x00, 0x00, 0x24, 0x01, 0x00, 0x00,
  0x1c, 0x01, 0x00, 0x00, 0x14, 0x01, 0x00, 0x00, 0x0c, 0x01, 0x00, 0x00,
  0x04, 0x01, 0x00, 0x00, 0xfc, 0x00, 0x00, 0x00, 0xf4, 0x00, 0x00, 0x00,
  0xec, 0x00, 0x00, 0x00, 0xe4, 0x00, 0x00, 0x00, 0xdc, 0x00, 0x00, 0x00,
  0xd4, 0x00, 0x00, 0x00, 0xcc, 0x00, 0x00, 0x00, 0xc4, 0x00, 0x00, 0x00,
  0xbc, 0x00, 0x00, 0x00, 0xb4, 0x00, 0x00, 0x00, 0xac, 0x00, 0x00, 0x00,
  0xa4, 0x00, 0x00, 0x00, 0x9c, 0x00, 0x00, 0x00, 0x94, 0x00, 0x00, 0x00,
  0x8c, 0x00, 0x00, 0x00, 0x6c, 0x00, 0x00, 0x00, 0x04, 0x00, 0x00, 0x00,
  0x7e, 0xd4, 0xff, 0xff, 0x04, 0x00, 0x00, 0x00, 0x58, 0x00, 0x00, 0x00,
  0x0c, 0x00, 0x00, 0x00, 0x08, 0x00, 0x0e, 0x00, 0x08, 0x00, 0x04, 0x00,
  0x08, 0x00, 0x00, 0x00, 0x10, 0x00, 0x00, 0x00, 0x28, 0x00, 0x00, 0x00,
  0x00, 0x00, 0x06, 0x00, 0x08, 0x00, 0x04, 0x00, 0x06, 0x00, 0x00, 0x00,
  0x04, 0x00, 0x00, 0x00, 0x01, 0x00, 0x00, 0x00, 0xeb, 0x03, 0x00, 0x00,
  0x00, 0x00, 0x0a, 0x00, 0x10, 0x00, 0x0c, 0x00, 0x08, 0x00, 0x04, 0x00,
  0x0a, 0x00, 0x00, 0x00, 0x02, 0x00, 0x00, 0x00, 0x02, 0x00, 0x00, 0x00,
  0x04, 0x00, 0x00, 0x00, 0x06, 0x00, 0x00, 0x00, 0x32, 0x2e, 0x31, 0x35,
  0x2e, 0x30, 0x00, 0x00, 0xe2, 0xd4, 0xff, 0xff, 0x04, 0x00, 0x00, 0x00,
  0x10, 0x00, 0x00, 0x00, 0x32, 0x2e, 0x39, 0x2e, 0x30, 0x00, 0x00, 0x00,
  0x00, 0x00, 0x00, 0x00, 0x00, 0x00, 0x00, 0x00, 0xa4, 0xa1, 0xfe, 0xff,
  0xa8, 0xa1, 0xfe, 0xff, 0xac, 0xa1, 0xfe, 0xff, 0xb0, 0xa1, 0xfe, 0xff,
  0xb4, 0xa1, 0xfe, 0xff, 0xb8, 0xa1, 0xfe, 0xff, 0xbc, 0xa1, 0xfe, 0xff,
  0xc0, 0xa1, 0xfe, 0xff, 0xc4, 0xa1, 0xfe, 0xff, 0xc8, 0xa1, 0xfe, 0xff,
  0xcc, 0xa1, 0xfe, 0xff, 0xd0, 0xa1, 0xfe, 0xff, 0xd4, 0xa1, 0xfe, 0xff,
  0xd8, 0xa1, 0xfe, 0xff, 0xdc, 0xa1, 0xfe, 0xff, 0xe0, 0xa1, 0xfe, 0xff,
  0xe4, 0xa1, 0xfe, 0xff, 0xe8, 0xa1, 0xfe, 0xff, 0xec, 0xa1, 0xfe, 0xff,
  0xf0, 0xa1, 0xfe, 0xff, 0xf4, 0xa1, 0xfe, 0xff, 0xf8, 0xa1, 0xfe, 0xff,
  0xfc, 0xa1, 0xfe, 0xff, 0x00, 0xa2, 0xfe, 0xff, 0x04, 0xa2, 0xfe, 0xff,
  0x08, 0xa2, 0xfe, 0xff, 0x0c, 0xa2, 0xfe, 0xff, 0x10, 0xa2, 0xfe, 0xff,
  0x14, 0xa2, 0xfe, 0xff, 0x18, 0xa2, 0xfe, 0xff, 0x1c, 0xa2, 0xfe, 0xff,
  0x20, 0xa2, 0xfe, 0xff, 0x24, 0xa2, 0xfe, 0xff, 0x28, 0xa2, 0xfe, 0xff,
  0x2c, 0xa2, 0xfe, 0xff, 0x30, 0xa2, 0xfe, 0xff, 0x34, 0xa2, 0xfe, 0xff,
  0x38, 0xa2, 0xfe, 0xff, 0x3c, 0xa2, 0xfe, 0xff, 0x40, 0xa2, 0xfe, 0xff,
  0x44, 0xa2, 0xfe, 0xff, 0x48, 0xa2, 0xfe, 0xff, 0x4c, 0xa2, 0xfe, 0xff,
  0x50, 0xa2, 0xfe, 0xff, 0x54, 0xa2, 0xfe, 0xff, 0x58, 0xa2, 0xfe, 0xff,
  0x5c, 0xa2, 0xfe, 0xff, 0x60, 0xa2, 0xfe, 0xff, 0x64, 0xa2, 0xfe, 0xff,
  0x68, 0xa2, 0xfe, 0xff, 0x6c, 0xa2, 0xfe, 0xff, 0x70, 0xa2, 0xfe, 0xff,
  0x74, 0xa2, 0xfe, 0xff, 0x78, 0xa2, 0xfe, 0xff, 0x7c, 0xa2, 0xfe, 0xff,
  0x80, 0xa2, 0xfe, 0xff, 0x84, 0xa2, 0xfe, 0xff, 0x88, 0xa2, 0xfe, 0xff,
  0x8c, 0xa2, 0xfe, 0xff, 0x90, 0xa2, 0xfe, 0xff, 0x94, 0xa2, 0xfe, 0xff,
  0x98, 0xa2, 0xfe, 0xff, 0x9c, 0xa2, 0xfe, 0xff, 0xa0, 0xa2, 0xfe, 0xff,
  0xa4, 0xa2, 0xfe, 0xff, 0xa8, 0xa2, 0xfe, 0xff, 0xac, 0xa2, 0xfe, 0xff,
  0xb0, 0xa2, 0xfe, 0xff, 0xb4, 0xa2, 0xfe, 0xff, 0xb8, 0xa2, 0xfe, 0xff,
  0xbc, 0xa2, 0xfe, 0xff, 0xc0, 0xa2, 0xfe, 0xff, 0xc4, 0xa2, 0xfe, 0xff,
  0xc8, 0xa2, 0xfe, 0xff, 0xcc, 0xa2, 0xfe, 0xff, 0xd0, 0xa2, 0xfe, 0xff,
  0xd4, 0xa2, 0xfe, 0xff, 0xd8, 0xa2, 0xfe, 0xff, 0xdc, 0xa2, 0xfe, 0xff,
  0xe0, 0xa2, 0xfe, 0xff, 0xe4, 0xa2, 0xfe, 0xff, 0xe8, 0xa2, 0xfe, 0xff,
  0xec, 0xa2, 0xfe, 0xff, 0xf0, 0xa2, 0xfe, 0xff, 0xf4, 0xa2, 0xfe, 0xff,
  0xf8, 0xa2, 0xfe, 0xff, 0xfc, 0xa2, 0xfe, 0xff, 0x00, 0xa3, 0xfe, 0xff,
  0x04, 0xa3, 0xfe, 0xff, 0x08, 0xa3, 0xfe, 0xff, 0x0c, 0xa3, 0xfe, 0xff,
  0x10, 0xa3, 0xfe, 0xff, 0x14, 0xa3, 0xfe, 0xff, 0x18, 0xa3, 0xfe, 0xff,
  0x1c, 0xa3, 0xfe, 0xff, 0x20, 0xa3, 0xfe, 0xff, 0x24, 0xa3, 0xfe, 0xff,
  0x28, 0xa3, 0xfe, 0xff, 0x2c, 0xa3, 0xfe, 0xff, 0x30, 0xa3, 0xfe, 0xff,
  0x34, 0xa3, 0xfe, 0xff, 0x38, 0xa3, 0xfe, 0xff, 0x3c, 0xa3, 0xfe, 0xff,
  0x40, 0xa3, 0xfe, 0xff, 0x44, 0xa3, 0xfe, 0xff, 0x48, 0xa3, 0xfe, 0xff,
  0x4c, 0xa3, 0xfe, 0xff, 0x50, 0xa3, 0xfe, 0xff, 0x54, 0xa3, 0xfe, 0xff,
  0x58, 0xa3, 0xfe, 0xff, 0x5c, 0xa3, 0xfe, 0xff, 0x60, 0xa3, 0xfe, 0xff,
  0x64, 0xa3, 0xfe, 0xff, 0x68, 0xa3, 0xfe, 0xff, 0x6c, 0xa3, 0xfe, 0xff,
  0x70, 0xa3, 0xfe, 0xff, 0x74, 0xa3, 0xfe, 0xff, 0x78, 0xa3, 0xfe, 0xff,
  0x7c, 0xa3, 0xfe, 0xff, 0x80, 0xa3, 0xfe, 0xff, 0x84, 0xa3, 0xfe, 0xff,
  0x88, 0xa3, 0xfe, 0xff, 0x8c, 0xa3, 0xfe, 0xff, 0x90, 0xa3, 0xfe, 0xff,
  0x94, 0xa3, 0xfe, 0xff, 0x98, 0xa3, 0xfe, 0xff, 0x9c, 0xa3, 0xfe, 0xff,
  0xa0, 0xa3, 0xfe, 0xff, 0xa4, 0xa3, 0xfe, 0xff, 0xa8, 0xa3, 0xfe, 0xff,
  0xac, 0xa3, 0xfe, 0xff, 0xb0, 0xa3, 0xfe, 0xff, 0xb4, 0xa3, 0xfe, 0xff,
  0xb8, 0xa3, 0xfe, 0xff, 0xbc, 0xa3, 0xfe, 0xff, 0xc0, 0xa3, 0xfe, 0xff,
  0xc4, 0xa3, 0xfe, 0xff, 0xc8, 0xa3, 0xfe, 0xff, 0xcc, 0xa3, 0xfe, 0xff,
  0xd0, 0xa3, 0xfe, 0xff, 0xd4, 0xa3, 0xfe, 0xff, 0xd8, 0xa3, 0xfe, 0xff,
  0xdc, 0xa3, 0xfe, 0xff, 0xe0, 0xa3, 0xfe, 0xff, 0xe4, 0xa3, 0xfe, 0xff,
  0xe8, 0xa3, 0xfe, 0xff, 0xec, 0xa3, 0xfe, 0xff, 0xf0, 0xa3, 0xfe, 0xff,
  0xf4, 0xa3, 0xfe, 0xff, 0xf8, 0xa3, 0xfe, 0xff, 0xfc, 0xa3, 0xfe, 0xff,
  0x5a, 0xd7, 0xff, 0xff, 0x04, 0x00, 0x00, 0x00, 0x90, 0x01, 0x00, 0x00,
  0xf7, 0x3c, 0xf4, 0x10, 0xc0, 0xe1, 0xdc, 0xb6, 0xd3, 0x0f, 0x1f, 0xc2,
  0xf6, 0xf9, 0x0c, 0xff, 0x26, 0x1f, 0xe3, 0x10, 0x7f, 0x27, 0xb4, 0x55,
  0x03, 0xb7, 0xc8, 0xc8, 0xb9, 0xf3, 0xc4, 0x81, 0xfa, 0x97, 0x82, 0x09,
  0x40, 0x35, 0x0b, 0x92, 0x29, 0x03, 0xf0, 0x1c, 0xa5, 0x4e, 0x6b, 0xbf,
  0xdb, 0x01, 0xf0, 0xd9, 0xd8, 0x44, 0x2b, 0xb7, 0xb9, 0xbb, 0x05, 0x2f,
  0xe7, 0xf7, 0x11, 0x02, 0xdc, 0x63, 0xf6, 0x18, 0x0f, 0xf6, 0x3b, 0x7f,
  0xef, 0xca, 0x1b, 0x34, 0xf8, 0xd7, 0xfa, 0xf3, 0x3e, 0x30, 0x01, 0xe9,
  0xfb, 0x06, 0xc4, 0x4d, 0x26, 0xc0, 0x07, 0xd9, 0xe7, 0x7f, 0xf7, 0x29,
  0x51, 0x13, 0x7a, 0x5c, 0x0f, 0xfb, 0x03, 0x9e, 0x81, 0xe2, 0xbe, 0xbe,
  0xee, 0xcb, 0x16, 0x1e, 0x5a, 0x3a, 0xf3, 0x52, 0x1e, 0x2c, 0xd2, 0x2b,
  0xe7, 0xeb, 0x0f, 0x51, 0xfb, 0xcb, 0xac, 0xec, 0x40, 0xf8, 0x7f, 0xcc,
  0xd2, 0xc9, 0xd3, 0x54, 0x4b, 0x1a, 0xde, 0x13, 0x18, 0x0d, 0x07, 0xc4,
  0xc5, 0x2a, 0x01, 0x06, 0x21, 0xd1, 0xef, 0xe2, 0xbd, 0x48, 0x43, 0x0c,
  0xe2, 0x37, 0xf5, 0x35, 0xd8, 0xd0, 0xde, 0x81, 0x46, 0x60, 0x35, 0x0d,
  0xf7, 0xb1, 0x97, 0xed, 0xdb, 0x0b, 0xd3, 0xf9, 0x00, 0x1a, 0x32, 0x76,
  0xd3, 0xf3, 0x0e, 0xcd, 0x31, 0x14, 0xdd, 0xcb, 0x1a, 0xdc, 0xcd, 0x03,
  0x08, 0x07, 0x2b, 0xd4, 0x7f, 0x1f, 0xe8, 0xf2, 0x13, 0x65, 0x2b, 0x27,
  0x10, 0xce, 0x51, 0x2f, 0x24, 0x2a, 0x9a, 0xb0, 0x47, 0x71, 0x3f, 0xf4,
  0xb7, 0xbc, 0x13, 0x48, 0x0c, 0x81, 0xb7, 0xc8, 0x08, 0xda, 0xd4, 0xd8,
  0x1d, 0xce, 0x1c, 0xc5, 0xd2, 0xf1, 0x24, 0x81, 0x31, 0x16, 0xdb, 0x43,
  0xe7, 0x19, 0xb4, 0x11, 0xec, 0x3d, 0x7f, 0x7c, 0x2e, 0x0e, 0xf7, 0xed,
  0xde, 0xc0, 0xb2, 0x14, 0x81, 0xdf, 0xd6, 0x4e, 0xd3, 0xbc, 0xea, 0x16,
  0x53, 0x98, 0xe0, 0xcd, 0x34, 0x6d, 0xbb, 0xf3, 0xe8, 0x0f, 0x7f, 0xfa,
  0x47, 0xeb, 0xbe, 0xc4, 0xe0, 0x7f, 0xff, 0xbe, 0xc4, 0xd1, 0x20, 0x5d,
  0x14, 0x07, 0xdb, 0x01, 0x1a, 0x7e, 0x4d, 0xb9, 0xd7, 0xf2, 0xde, 0x23,
  0x27, 0x0c, 0x0d, 0xfe, 0xc0, 0x31, 0xf9, 0x0a, 0xf4, 0xfc, 0x3a, 0x21,
  0xce, 0xcf, 0xde, 0x37, 0x14, 0x11, 0xdd, 0xe1, 0xea, 0xf3, 0xe1, 0xc3,
  0x81, 0xfc, 0x0e, 0xdf, 0xba, 0xbe, 0x7f, 0x43, 0xf3, 0xfc, 0xce, 0x0b,
  0x25, 0xcd, 0xeb, 0x1c, 0x26, 0x31, 0x66, 0x19, 0x1b, 0x3d, 0x18, 0x1b,
  0x44, 0x20, 0xd1, 0xa5, 0x46, 0x57, 0x19, 0xfe, 0xe7, 0x51, 0x2c, 0x09,
  0x67, 0x7f, 0x31, 0xe2, 0xc1, 0x36, 0x63, 0x24, 0xe8, 0xd9, 0x32, 0xd5,
  0x0d, 0x90, 0xc9, 0x1c, 0x1e, 0xf5, 0x0f, 0xb5, 0x38, 0xdf, 0x2f, 0x10,
  0x81, 0xc6, 0x01, 0xbd, 0x1f, 0x01, 0xdc, 0x00, 0x10, 0x12, 0xe8, 0xe3,
  0xff, 0x89, 0xf0, 0x10, 0xf6, 0xd8, 0xff, 0xff, 0x04, 0x00, 0x00, 0x00,
  0x40, 0x00, 0x00, 0x00, 0xa7, 0xf8, 0xff, 0xff, 0xb6, 0xd0, 0x00, 0x00,
  0xc7, 0xed, 0xff, 0xff, 0x98, 0x50, 0xff, 0xff, 0x05, 0x18, 0x00, 0x00,
  0xe3, 0x2b, 0x00, 0x00, 0x39, 0x3a, 0x00, 0x00, 0x77, 0xbe, 0xff, 0xff,
  0xcb, 0xaf, 0xff, 0xff, 0xec, 0xe5, 0xff, 0xff, 0x2b, 0x92, 0x00, 0x00,
  0xa2, 0xc9, 0xff, 0xff, 0x5b, 0x50, 0x00, 0x00, 0x36, 0x6e, 0xff, 0xff,
  0xd5, 0x7a, 0xff, 0xff, 0x8d, 0x5a, 0x00, 0x00, 0x42, 0xd9, 0xff, 0xff,
  0x04, 0x00, 0x00, 0x00, 0x80, 0x00, 0x00, 0x00, 0x1f, 0x81, 0xc4, 0x6e,
  0x79, 0xaf, 0x12, 0xbe, 0xe2, 0x35, 0x77, 0x4b, 0xe5, 0xac, 0xdb, 0x1f,
  0xcf, 0x89, 0x81, 0xe6, 0x7f, 0x6f, 0xa8, 0x47, 0xc4, 0x60, 0xb9, 0x5c,
  0xef, 0x88, 0xcd, 0x0e, 0x19, 0x81, 0x09, 0x62, 0x45, 0xe2, 0x14, 0x4c,
  0x27, 0x5e, 0xeb, 0x04, 0x1f, 0x3d, 0x6c, 0x44, 0xd0, 0xa6, 0x16, 0xe7,
  0xfa, 0xcf, 0xb8, 0xd5, 0xb2, 0x81, 0x24, 0x30, 0x47, 0xe6, 0x24, 0x0c,
  0x2a, 0xe9, 0x05, 0xd4, 0xa8, 0xf2, 0x77, 0xab, 0xd0, 0xaa, 0x81, 0x16,
  0xd7, 0x4e, 0x93, 0x98, 0xbb, 0x1f, 0xed, 0x81, 0xfd, 0xf4, 0x14, 0xf2,
  0x78, 0x34, 0xc2, 0xcd, 0xfe, 0x2a, 0xdb, 0x14, 0xdd, 0xcc, 0xa7, 0x7f,
  0xa1, 0x47, 0xdb, 0xe0, 0x54, 0xc9, 0xdd, 0x40, 0x45, 0x33, 0xc4, 0xeb,
  0xd1, 0x8b, 0xec, 0xa9, 0xa5, 0xd3, 0xef, 0x35, 0x3a, 0xf1, 0xb1, 0xfc,
  0x7f, 0x9f, 0x7d, 0xd2, 0xce, 0xd9, 0xff, 0xff, 0x04, 0x00, 0x00, 0x00,
  0x20, 0x00, 0x00, 0x00, 0xab, 0x08, 0x00, 0x00, 0x34, 0x16, 0x00, 0x00,
  0x14, 0xe4, 0xff, 0xff, 0x88, 0x1a, 0x00, 0x00, 0xe8, 0x29, 0x00, 0x00,
  0x86, 0x04, 0x00, 0x00, 0x67, 0xf8, 0xff, 0xff, 0xc0, 0x15, 0x00, 0x00,
  0xfa, 0xd9, 0xff, 0xff, 0x04, 0x00, 0x00, 0x00, 0x18, 0x00, 0x00, 0x00,
  0x02, 0x82, 0x7f, 0x7f, 0x41, 0xf8, 0x7f, 0x03, 0xa2, 0xbb, 0x81, 0x9c,
  0x0f, 0x81, 0xc1, 0x81, 0xc6, 0xe0, 0x7f, 0x40, 0x11, 0xb2, 0x20, 0x81,
  0x1e, 0xda, 0xff, 0xff, 0x04, 0x00, 0x00, 0x00, 0x20, 0x00, 0x00, 0x00,
  0x5f, 0x00, 0x00, 0x00, 0x05, 0xf5, 0xff, 0xff, 0x81, 0xfd, 0xff, 0xff,
  0xbf, 0x13, 0x00, 0x00, 0xc9, 0x0d, 0x00, 0x00, 0xa6, 0x07, 0x00, 0x00,
  0xbd, 0xf7, 0xff, 0xff, 0xe9, 0x0a, 0x00, 0x00, 0x4a, 0xda, 0xff, 0xff,
  0x04, 0x00, 0x00, 0x00, 0x18, 0x00, 0x00, 0x00, 0x7f, 0x19, 0x7f, 0x83,
  0x07, 0x7f, 0x81, 0x31, 0xf8, 0xb5, 0x2c, 0x7f, 0x81, 0xe5, 0x9e, 0x7f,
  0x5d, 0xdf, 0x7b, 0xfb, 0x81, 0x45, 0x7f, 0x0c, 0x14, 0xa7, 0xfe, 0xff,
  0x18, 0xa7, 0xfe, 0xff, 0x1c, 0xa7, 0xfe, 0xff, 0x7a, 0xda, 0xff, 0xff,
  0x04, 0x00, 0x00, 0x00, 0x20, 0x00, 0x00, 0x00, 0x00, 0x00, 0x00, 0x00,
  0x00, 0x00, 0x00, 0x00, 0x00, 0x00, 0x00, 0x00, 0x00, 0x00, 0x00, 0x00,
  0x00, 0x00, 0x00, 0x00, 0x00, 0x00, 0x00, 0x00, 0x00, 0x00, 0x00, 0x00,
  0x00, 0x00, 0x00, 0x00, 0xa6, 0xda, 0xff, 0xff, 0x04, 0x00, 0x00, 0x00,
  0x08, 0x00, 0x00, 0x00, 0x7f, 0x63, 0x40, 0x39, 0x4d, 0x4c, 0x61, 0x2a,
  0xba, 0xda, 0xff, 0xff, 0x04, 0x00, 0x00, 0x00, 0x08, 0x00, 0x00, 0x00,
  0x7b, 0x44, 0x66, 0x79, 0x7f, 0x60, 0x39, 0x80, 0xce, 0xda, 0xff, 0xff,
  0x04, 0x00, 0x00, 0x00, 0x40, 0x00, 0x00, 0x00, 0xcb, 0xea, 0xa6, 0x22,
  0x0d, 0xb5, 0x81, 0x17, 0xbd, 0x2e, 0x81, 0x8e, 0x79, 0xc5, 0x48, 0x36,
  0x81, 0xbc, 0x66, 0xc3, 0x14, 0xec, 0x61, 0xea, 0xb6, 0xab, 0x7f, 0x07,
  0x3e, 0x54, 0xff, 0x8b, 0x7f, 0x59, 0x42, 0x9b, 0xa1, 0xeb, 0x6b, 0x23,
  0xf9, 0x81, 0x1b, 0x5e, 0xd8, 0x90, 0xc5, 0x00, 0xfc, 0x25, 0xdb, 0x06,
  0x6f, 0x3a, 0xda, 0x7f, 0x3e, 0x81, 0xd8, 0x16, 0x5f, 0x97, 0x1b, 0x36,
  0x1a, 0xdb, 0xff, 0xff, 0x04, 0x00, 0x00, 0x00, 0x18, 0x00, 0x00, 0x00,
  0xc7, 0x81, 0x98, 0x7f, 0x51, 0x10, 0xdf, 0xba, 0x7f, 0x81, 0x0c, 0x04,
  0xd9, 0x7f, 0x5f, 0xa4, 0x81, 0xa6, 0x7f, 0xf5, 0xc3, 0x7f, 0x41, 0x60,
  0x3e, 0xdb, 0xff, 0xff, 0x04, 0x00, 0x00, 0x00, 0x20, 0x00, 0x00, 0x00,
  0x96, 0x08, 0x00, 0x00, 0x00, 0xfb, 0xff, 0xff, 0x73, 0x00, 0x00, 0x00,
  0x77, 0x05, 0x00, 0x00, 0x48, 0xf7, 0xff, 0xff, 0xcd, 0x08, 0x00, 0x00,
  0xc7, 0xfd, 0xff, 0xff, 0x5f, 0xf4, 0xff, 0xff, 0x6a, 0xdb, 0xff, 0xff,
  0x04, 0x00, 0x00, 0x00, 0x18, 0x00, 0x00, 0x00, 0x42, 0x07, 0x81, 0x86,
  0xfb, 0x81, 0x7f, 0x04, 0x99, 0x7f, 0xdf, 0x0d, 0xea, 0x00, 0x81, 0x81,
  0x07, 0x4d, 0x8f, 0xdf, 0x81, 0x7f, 0x04, 0x59, 0x8e, 0xdb, 0xff, 0xff,
  0x04, 0x00, 0x00, 0x00, 0x08, 0x00, 0x00, 0x00, 0x55, 0x57, 0x72, 0x7f,
  0x5a, 0x70, 0x4d, 0x64, 0xa2, 0xdb, 0xff, 0xff, 0x04, 0x00, 0x00, 0x00,
  0x08, 0x00, 0x00, 0x00, 0x59, 0x75, 0x36, 0x7f, 0x50, 0xf2, 0x80, 0x1c,
  0xb6, 0xdb, 0xff, 0xff, 0x04, 0x00, 0x00, 0x00, 0x40, 0x00, 0x00, 0x00,
  0xdc, 0xe3, 0xd9, 0x19, 0x4e, 0x2c, 0x67, 0x7f, 0xb8, 0x0c, 0x81, 0xa9,
  0xa9, 0x79, 0xae, 0xba, 0xf6, 0xb7, 0xc0, 0xe1, 0x8e, 0xca, 0x2f, 0x7f,
  0x7f, 0x6d, 0x51, 0xb1, 0x65, 0x5f, 0xdd, 0x88, 0x21, 0x81, 0x5c, 0x00,
  0x5e, 0xf9, 0xd6, 0xab, 0x5d, 0x62, 0x7f, 0x0e, 0x9b, 0x8b, 0xf0, 0x12,
  0x0b, 0x2a, 0xe8, 0x7f, 0x79, 0x77, 0x51, 0x09, 0xa2, 0x51, 0x7f, 0xb0,
  0xb0, 0xae, 0xa8, 0x63, 0x02, 0xdc, 0xff, 0xff, 0x04, 0x00, 0x00, 0x00,
  0x60, 0x00, 0x00, 0x00, 0x2c, 0x41, 0xa5, 0x81, 0x87, 0x08, 0xce, 0xce,
  0xb3, 0x81, 0xde, 0xc1, 0x0c, 0xb9, 0x40, 0xba, 0xf8, 0xaf, 0x7f, 0xc6,
  0xc3, 0x73, 0x05, 0xe4, 0xb8, 0x17, 0xf7, 0x14, 0x18, 0xf9, 0x7f, 0x2a,
  0x13, 0x2e, 0xaa, 0x8c, 0xb7, 0x9e, 0x81, 0x61, 0x7f, 0x1d, 0xe5, 0xcc,
  0xf4, 0x49, 0x3f, 0xab, 0x0d, 0xeb, 0x25, 0x73, 0x7f, 0xec, 0x4b, 0xa7,
  0x81, 0x08, 0x40, 0x20, 0xda, 0xb6, 0x43, 0x52, 0xc3, 0x70, 0x81, 0x9a,
  0xfd, 0xc2, 0xe8, 0x6c, 0x1e, 0x37, 0xa3, 0xff, 0x93, 0x7f, 0x45, 0x09,
  0x10, 0xb7, 0x5c, 0xc2, 0x31, 0x40, 0x7f, 0x51, 0x7f, 0xd5, 0x63, 0x4d,
  0x56, 0xeb, 0x54, 0x40, 0x6e, 0xdc, 0xff, 0xff, 0x04, 0x00, 0x00, 0x00,
  0x30, 0x00, 0x00, 0x00, 0x36, 0x1a, 0x00, 0x00, 0x09, 0x12, 0x00, 0x00,
  0xbb, 0x01, 0x00, 0x00, 0xaf, 0xe6, 0xff, 0xff, 0xa9, 0x0c, 0x00, 0x00,
  0xd0, 0xfe, 0xff, 0xff, 0x46, 0xf2, 0xff, 0xff, 0xd8, 0xfb, 0xff, 0xff,
  0x7f, 0x01, 0x00, 0x00, 0x34, 0xfe, 0xff, 0xff, 0x9e, 0xee, 0xff, 0xff,
  0xb1, 0xe9, 0xff, 0xff, 0xaa, 0xdc, 0xff, 0xff, 0x04, 0x00, 0x00, 0x00,
  0x24, 0x00, 0x00, 0x00, 0x7f, 0x5c, 0x4a, 0x81, 0x1b, 0x30, 0x04, 0x81,
  0xc6, 0x1f, 0x7f, 0x44, 0x16, 0x7f, 0x6c, 0xe5, 0xba, 0x81, 0x81, 0xb6,
  0x63, 0x4e, 0x51, 0x7f, 0x81, 0xd5, 0xd8, 0xbb, 0x81, 0x04, 0xea, 0xc9,
  0x7f, 0x6c, 0xdf, 0x81, 0xda, 0xdc, 0xff, 0xff, 0x04, 0x00, 0x00, 0x00,
  0x30, 0x00, 0x00, 0x00, 0x0e, 0xf7, 0xff, 0xff, 0x66, 0x02, 0x00, 0x00,
  0x62, 0x07, 0x00, 0x00, 0xbb, 0xfe, 0xff, 0xff, 0x50, 0xf7, 0xff, 0xff,
  0x13, 0x0f, 0x00, 0x00, 0x24, 0x01, 0x00, 0x00, 0x76, 0xf2, 0xff, 0xff,
  0x5a, 0x0d, 0x00, 0x00, 0x1e, 0x0d, 0x00, 0x00, 0x97, 0xfd, 0xff, 0xff,
  0x2d, 0x04, 0x00, 0x00, 0x16, 0xdd, 0xff, 0xff, 0x04, 0x00, 0x00, 0x00,
  0x24, 0x00, 0x00, 0x00, 0x7f, 0x4f, 0x2e, 0x42, 0x16, 0x7f, 0xb1, 0x77,
  0x81, 0x3b, 0x0e, 0x7f, 0xd0, 0x4c, 0x7f, 0x96, 0xe2, 0x81, 0x26, 0x4f,
  0x7f, 0x4a, 0x2d, 0x7f, 0x81, 0xaa, 0x42, 0x7f, 0xe6, 0x30, 0x32, 0xc9,
  0x7f, 0x71, 0x86, 0x7f, 0xec, 0xa9, 0xfe, 0xff, 0xf0, 0xa9, 0xfe, 0xff,
  0xf4, 0xa9, 0xfe, 0xff, 0x52, 0xdd, 0xff, 0xff, 0x04, 0x00, 0x00, 0x00,
  0x30, 0x00, 0x00, 0x00, 0x00, 0x00, 0x00, 0x00, 0x00, 0x00, 0x00, 0x00,
  0x00, 0x00, 0x00, 0x00, 0x00, 0x00, 0x00, 0x00, 0x00, 0x00, 0x00, 0x00,
  0x00, 0x00, 0x00, 0x00, 0x00, 0x00, 0x00, 0x00, 0x00, 0x00, 0x00, 0x00,
  0x00, 0x00, 0x00, 0x00, 0x00, 0x00, 0x00, 0x00, 0x00, 0x00, 0x00, 0x00,
  0x00, 0x00, 0x00, 0x00, 0x8e, 0xdd, 0xff, 0xff, 0x04, 0x00, 0x00, 0x00,
  0x0c, 0x00, 0x00, 0x00, 0x5b, 0x49, 0x0b, 0x70, 0x41, 0x7f, 0xf7, 0x14,
  0x1b, 0x44, 0x15, 0xe2, 0xa6, 0xdd, 0xff, 0xff, 0x04, 0x00, 0x00, 0x00,
  0x0c, 0x00, 0x00, 0x00, 0xd6, 0x29, 0xd9, 0x09, 0x80, 0x7f, 0x61, 0xfb,
  0x31, 0x0c, 0x02, 0x5d, 0xbe, 0xdd, 0xff, 0xff, 0x04, 0x00, 0x00, 0x00,
  0x90, 0x00, 0x00, 0x00, 0x81, 0x9f, 0xdc, 0xf7, 0x3a, 0x12, 0x65, 0x21,
  0x3a, 0x2d, 0xea, 0xc1, 0x63, 0xd7, 0x04, 0x24, 0xc5, 0x02, 0xf6, 0xd3,
  0xd3, 0x3c, 0x81, 0xdc, 0x81, 0xff, 0xef, 0xef, 0xb1, 0xbd, 0x42, 0xc3,
  0x3c, 0x63, 0x54, 0xfb, 0xd3, 0xdb, 0xed, 0xf2, 0x5d, 0x6b, 0x56, 0x81,
  0xcf, 0x08, 0xfc, 0x22, 0x59, 0x06, 0x0e, 0xc3, 0xe2, 0x81, 0x1a, 0xf7,
  0xf3, 0x0c, 0xbe, 0xf0, 0xf5, 0x4f, 0x1a, 0x7b, 0x62, 0x81, 0x09, 0x27,
  0xa5, 0x54, 0x4a, 0x6b, 0xb4, 0xd6, 0xd0, 0xa3, 0x41, 0xf2, 0xce, 0x81,
  0x26, 0x00, 0x1b, 0x50, 0xbe, 0x39, 0xc8, 0xfa, 0xcc, 0xae, 0x7f, 0xe0,
  0xf2, 0xe9, 0x5e, 0xd6, 0x12, 0x19, 0x87, 0x8e, 0x7f, 0xd1, 0xbd, 0xfc,
  0xb8, 0xe6, 0x26, 0x21, 0x3b, 0xe5, 0xd8, 0xf0, 0x0e, 0x81, 0x0f, 0x1c,
  0x40, 0xea, 0x07, 0x5e, 0x6e, 0x3f, 0xfd, 0x7f, 0x01, 0x83, 0x08, 0xca,
  0x4b, 0xab, 0x56, 0xfa, 0xde, 0x5c, 0x92, 0x63, 0x0f, 0x6f, 0x47, 0x7f,
  0xbd, 0xa7, 0xe2, 0xbd, 0x5a, 0xde, 0xff, 0xff, 0x04, 0x00, 0x00, 0x00,
  0x24, 0x00, 0x00, 0x00, 0x81, 0xb0, 0x1d, 0x3a, 0x81, 0x7d, 0x45, 0x81,
  0x5e, 0x37, 0x7f, 0x14, 0x7f, 0x87, 0x23, 0x81, 0xbf, 0xf9, 0x88, 0xff,
  0x7f, 0x7f, 0x08, 0x2e, 0x4d, 0x7f, 0xed, 0x0e, 0x13, 0x7f, 0x81, 0xc9,
  0x63, 0x14, 0xbb, 0x81, 0x8a, 0xde, 0xff, 0xff, 0x04, 0x00, 0x00, 0x00,
  0x30, 0x00, 0x00, 0x00, 0xff, 0x04, 0x00, 0x00, 0xf3, 0xfd, 0xff, 0xff,
  0x03, 0xff, 0xff, 0xff, 0xa5, 0xfc, 0xff, 0xff, 0x53, 0xff, 0xff, 0xff,
  0x35, 0x07, 0x00, 0x00, 0x46, 0x01, 0x00, 0x00, 0x12, 0xfd, 0xff, 0xff,
  0x85, 0xfe, 0xff, 0xff, 0xdb, 0xfc, 0xff, 0xff, 0xee, 0x00, 0x00, 0x00,
  0x8f, 0x02, 0x00, 0x00, 0xc6, 0xde, 0xff, 0xff, 0x04, 0x00, 0x00, 0x00,
  0x24, 0x00, 0x00, 0x00, 0x41, 0xca, 0x81, 0xc6, 0x0d, 0x7f, 0x09, 0x29,
  0x81, 0x5e, 0x23, 0x81, 0x7f, 0x00, 0xc2, 0x87, 0x03, 0x81, 0x92, 0xec,
  0x81, 0xb1, 0x38, 0x7f, 0x7d, 0xd8, 0x7f, 0x62, 0xe8, 0x81, 0xdf, 0xcf,
  0x7f, 0x3a, 0x7f, 0x99, 0xf6, 0xde, 0xff, 0xff, 0x04, 0x00, 0x00, 0x00,
  0x0c, 0x00, 0x00, 0x00, 0xda, 0x7f, 0x32, 0x6d, 0x33, 0x4e, 0x7f, 0x28,
  0x75, 0x5d, 0x42, 0xe1, 0x0e, 0xdf, 0xff, 0xff, 0x04, 0x00, 0x00, 0x00,
  0x0c, 0x00, 0x00, 0x00, 0xe6, 0x29, 0x1a, 0x43, 0xf2, 0xee, 0x36, 0x80,
  0x7f, 0x34, 0x01, 0xfd, 0x26, 0xdf, 0xff, 0xff, 0x04, 0x00, 0x00, 0x00,
  0x90, 0x00, 0x00, 0x00, 0xb6, 0xf3, 0x7f, 0x4d, 0x68, 0x5f, 0x0c, 0x10,
  0xe3, 0x38, 0x0d, 0xe6, 0xf1, 0xfa, 0x81, 0xe5, 0x00, 0xe2, 0xd0, 0xca,
  0xc0, 0x40, 0x2c, 0x16, 0x68, 0xb3, 0xfc, 0x91, 0x81, 0x3b, 0xd6, 0x59,
  0x3e, 0x2a, 0xea, 0x4d, 0x06, 0xd5, 0x3e, 0xef, 0x81, 0x9a, 0x20, 0x9a,
  0xa7, 0xba, 0x9e, 0x5e, 0xf2, 0x45, 0xf5, 0x3c, 0x49, 0x33, 0x46, 0x1b,
  0x7f, 0xec, 0x0e, 0xe3, 0x24, 0xca, 0xff, 0xae, 0x8e, 0x90, 0xe5, 0x44,
  0xc8, 0x82, 0x81, 0xfd, 0x07, 0xab, 0x32, 0x41, 0xce, 0x5c, 0xc3, 0x81,
  0xca, 0x9b, 0x51, 0x2f, 0xd7, 0xd2, 0x30, 0xac, 0x12, 0x7f, 0x62, 0xf6,
  0x66, 0x67, 0x1a, 0xb2, 0xe8, 0xca, 0x3a, 0x17, 0xcb, 0x50, 0x0a, 0x06,
  0x7f, 0xfc, 0x10, 0xd4, 0x10, 0xec, 0xd4, 0x3c, 0xd1, 0xf5, 0xdb, 0xbf,
  0x39, 0x3f, 0x7f, 0x17, 0x2a, 0x05, 0xca, 0xa9, 0x4a, 0xb5, 0xba, 0x73,
  0x7f, 0xc4, 0x27, 0x2d, 0xb0, 0xc1, 0x42, 0x0e, 0x0b, 0xf3, 0x81, 0x1f,
  0xfa, 0x59, 0xb1, 0x28, 0xc2, 0xdf, 0xff, 0xff, 0x04, 0x00, 0x00, 0x00,
  0xc0, 0x00, 0x00, 0x00, 0x25, 0x35, 0xcb, 0x38, 0xfd, 0xce, 0x19, 0x7f,
  0x31, 0xdf, 0x02, 0x0b, 0xe2, 0xd3, 0xf6, 0x4d, 0x85, 0x71, 0xfb, 0xf7,
  0xff, 0xeb, 0x81, 0x1c, 0xec, 0x2f, 0xf6, 0x7f, 0xc3, 0xbc, 0x64, 0x38,
  0x49, 0x13, 0x83, 0xfe, 0x26, 0x7f, 0xfb, 0xf8, 0x45, 0x2b, 0x3f, 0x12,
  0x75, 0x1d, 0xad, 0x1f, 0xd5, 0xfe, 0x06, 0x93, 0x60, 0x5b, 0x24, 0x6b,
  0x81, 0x13, 0xdf, 0xc3, 0x4f, 0x57, 0x55, 0xf3, 0x67, 0xce, 0xcb, 0x63,
  0xc1, 0xf4, 0x7f, 0x55, 0x12, 0x3b, 0x02, 0x14, 0xa6, 0x7f, 0xf1, 0x8b,
  0xfa, 0xdc, 0xf8, 0xea, 0x81, 0x02, 0x35, 0x45, 0x1c, 0x5c, 0x5a, 0xd9,
  0x98, 0xf7, 0x0e, 0xcb, 0x27, 0x39, 0x3a, 0x11, 0xe6, 0x09, 0xc3, 0xe2,
  0xce, 0x81, 0x10, 0x20, 0xd7, 0xa7, 0xba, 0x81, 0x67, 0x46, 0xf7, 0x4c,
  0xfc, 0x19, 0x58, 0x0a, 0x3d, 0x04, 0xf6, 0xd4, 0x8b, 0x7f, 0x3a, 0xab,
  0x5d, 0x1c, 0x2e, 0x09, 0xb7, 0x23, 0x0a, 0x44, 0xc9, 0x11, 0x0a, 0x37,
  0x81, 0x0b, 0xf4, 0x3d, 0x07, 0xbe, 0x19, 0xf8, 0xcc, 0x3b, 0x39, 0x7f,
  0xda, 0xbe, 0x93, 0x2a, 0x62, 0xfb, 0xf6, 0xcf, 0xcc, 0xc3, 0x3e, 0xa5,
  0x0a, 0x10, 0xab, 0x7f, 0xe5, 0x21, 0x3d, 0x81, 0xa4, 0x6f, 0xbd, 0xa1,
  0x45, 0x99, 0x52, 0xfc, 0x3f, 0x7b, 0x25, 0x49, 0x00, 0x17, 0x26, 0x53,
  0x81, 0xdd, 0x2f, 0x56, 0x8e, 0xe0, 0xff, 0xff, 0x04, 0x00, 0x00, 0x00,
  0x40, 0x00, 0x00, 0x00, 0xa8, 0xff, 0xff, 0xff, 0x98, 0x02, 0x00, 0x00,
  0x18, 0xfc, 0xff, 0xff, 0xb3, 0xf7, 0xff, 0xff, 0x73, 0xfe, 0xff, 0xff,
  0x51, 0xf8, 0xff, 0xff, 0x00, 0x05, 0x00, 0x00, 0xb4, 0x01, 0x00, 0x00,
  0xf3, 0x04, 0x00, 0x00, 0x27, 0xfc, 0xff, 0xff, 0xd6, 0xfd, 0xff, 0xff,
  0x3d, 0x00, 0x00, 0x00, 0x28, 0xff, 0xff, 0xff, 0xe1, 0x01, 0x00, 0x00,
  0xd6, 0x10, 0x00, 0x00, 0x6e, 0xfb, 0xff, 0xff, 0xda, 0xe0, 0xff, 0xff,
  0x04, 0x00, 0x00, 0x00, 0x30, 0x00, 0x00, 0x00, 0xc5, 0x7f, 0xe4, 0xd4,
  0x81, 0x21, 0x66, 0x7f, 0xfc, 0x1a, 0x64, 0x81, 0x66, 0x81, 0xe4, 0x7f,
  0x9b, 0x03, 0x53, 0x81, 0x60, 0x7f, 0x62, 0xe6, 0x81, 0x97, 0x3d, 0x7f,
  0x33, 0xcd, 0x7f, 0xa2, 0xa8, 0x7f, 0xec, 0x01, 0x81, 0x5d, 0x38, 0x48,
  0x73, 0x7f, 0x81, 0xed, 0x3c, 0x50, 0x7f, 0x3f, 0x16, 0xe1, 0xff, 0xff,
  0x04, 0x00, 0x00, 0x00, 0x40, 0x00, 0x00, 0x00, 0xe7, 0xfe, 0xff, 0xff,
  0x16, 0x04, 0x00, 0x00, 0xb5, 0xff, 0xff, 0xff, 0x6c, 0x01, 0x00, 0x00,
  0x9e, 0x03, 0x00, 0x00, 0x2a, 0x00, 0x00, 0x00, 0x65, 0xff, 0xff, 0xff,
  0x45, 0xfb, 0xff, 0xff, 0xaf, 0x07, 0x00, 0x00, 0x8a, 0xfe, 0xff, 0xff,
  0x9b, 0xff, 0xff, 0xff, 0xe3, 0xfe, 0xff, 0xff, 0x4d, 0x00, 0x00, 0x00,
  0xbe, 0xf9, 0xff, 0xff, 0x4c, 0x04, 0x00, 0x00, 0xa6, 0xf7, 0xff, 0xff,
  0x62, 0xe1, 0xff, 0xff, 0x04, 0x00, 0x00, 0x00, 0x30, 0x00, 0x00, 0x00,
  0x54, 0x81, 0x35, 0x53, 0xa6, 0x7f, 0xac, 0x82, 0x81, 0xb6, 0xf1, 0x7f,
  0x81, 0x2f, 0x7e, 0xc1, 0xd3, 0x81, 0x7f, 0xf0, 0x2d, 0x2e, 0x11, 0x7f,
  0x5a, 0x0a, 0x7f, 0x70, 0xd5, 0x81, 0x0a, 0xe5, 0x81, 0x0f, 0x81, 0x6d,
  0x81, 0x1e, 0xab, 0x81, 0x0e, 0x76, 0x39, 0x27, 0x81, 0xa0, 0x7f, 0x5b,
  0x44, 0xae, 0xfe, 0xff, 0x48, 0xae, 0xfe, 0xff, 0x4c, 0xae, 0xfe, 0xff,
  0x50, 0xae, 0xfe, 0xff, 0x54, 0xae, 0xfe, 0xff, 0x58, 0xae, 0xfe, 0xff,
  0x5c, 0xae, 0xfe, 0xff, 0xba, 0xe1, 0xff, 0xff, 0x04, 0x00, 0x00, 0x00,
  0x40, 0x00, 0x00, 0x00, 0x00, 0x00, 0x00, 0x00, 0x00, 0x00, 0x00, 0x00,
  0x00, 0x00, 0x00, 0x00, 0x00, 0x00, 0x00, 0x00, 0x00, 0x00, 0x00, 0x00,
  0x00, 0x00, 0x00, 0x00, 0x00, 0x00, 0x00, 0x00, 0x00, 0x00, 0x00, 0x00,
  0x00, 0x00, 0x00, 0x00, 0x00, 0x00, 0x00, 0x00, 0x00, 0x00, 0x00, 0x00,
  0x00, 0x00, 0x00, 0x00, 0x00, 0x00, 0x00, 0x00, 0x00, 0x00, 0x00, 0x00,
  0x00, 0x00, 0x00, 0x00, 0x00, 0x00, 0x00, 0x00, 0x06, 0xe2, 0xff, 0xff,
  0x04, 0x00, 0x00, 0x00, 0x10, 0x00, 0x00, 0x00, 0x3d, 0x5c, 0x68, 0x56,
  0x5e, 0x7f, 0x7e, 0x75, 0x79, 0x5c, 0x5b, 0x3f, 0x7d, 0x5c, 0x5a, 0x75,
  0x22, 0xe2, 0xff, 0xff, 0x04, 0x00, 0x00, 0x00, 0x10, 0x00, 0x00, 0x00,
  0xaf, 0xd4, 0x7f, 0xd6, 0x80, 0xe1, 0xef, 0xb1, 0xc0, 0xe4, 0xb9, 0xea,
  0xa1, 0xb8, 0xdb, 0xf5, 0x3e, 0xe2, 0xff, 0xff, 0x04, 0x00, 0x00, 0x00,
  0x00, 0x01, 0x00, 0x00, 0x2a, 0xf8, 0x0c, 0xe3, 0xbf, 0xe7, 0x30, 0xde,
  0x37, 0xf3, 0xdc, 0x7f, 0x01, 0xe3, 0xd2, 0xe9, 0x45, 0x45, 0x81, 0x13,
  0x0f, 0xfa, 0x4e, 0xdd, 0xe9, 0x3a, 0x28, 0xe4, 0x0b, 0x3b, 0x6a, 0x28,
  0xdb, 0x63, 0xca, 0xe4, 0x20, 0x63, 0x81, 0x26, 0x99, 0xcd, 0x46, 0x30,
  0xda, 0x36, 0x31, 0xc6, 0xb6, 0xeb, 0xfd, 0x2f, 0x22, 0x2e, 0xc1, 0x62,
  0x0e, 0xf3, 0xfb, 0xeb, 0xfc, 0xcc, 0x22, 0x81, 0xff, 0xdb, 0xf2, 0x59,
  0xfa, 0x81, 0xbd, 0x94, 0xee, 0x52, 0x2f, 0x0c, 0x2f, 0x26, 0x56, 0xff,
  0xa2, 0x1d, 0x98, 0xec, 0x44, 0xfb, 0xb6, 0x3f, 0x81, 0xdc, 0x20, 0xdc,
  0xb1, 0xd2, 0x0e, 0x13, 0x81, 0xe1, 0xca, 0x6e, 0x49, 0xfd, 0x2a, 0xf7,
  0xd5, 0x0c, 0x3b, 0x73, 0x1c, 0xbf, 0x16, 0xa2, 0xfb, 0xdd, 0x7f, 0xe7,
  0xab, 0xc1, 0x4d, 0xd8, 0x19, 0xed, 0x05, 0x3f, 0x39, 0x40, 0x18, 0xaf,
  0xc6, 0x81, 0xe9, 0x2a, 0x9f, 0x14, 0xb7, 0xe7, 0xdd, 0xc8, 0xd0, 0xc8,
  0x0b, 0x38, 0xfd, 0xd3, 0x2d, 0x04, 0x1f, 0xdc, 0x1a, 0xd8, 0xd0, 0xf8,
  0xf3, 0xef, 0x67, 0xd9, 0xce, 0x02, 0x60, 0x7f, 0x12, 0xf1, 0xe7, 0xf2,
  0x09, 0x04, 0xbb, 0x60, 0x4c, 0x7f, 0x2c, 0x19, 0xc9, 0x95, 0xfe, 0xd3,
  0x2f, 0x0d, 0x0c, 0x14, 0xb2, 0xdb, 0xf8, 0xf6, 0x9b, 0x22, 0x2d, 0xf0,
  0xa9, 0x22, 0x26, 0x81, 0x00, 0xeb, 0x2a, 0x7f, 0x30, 0xb0, 0xfd, 0xf1,
  0x16, 0x7a, 0x64, 0x3f, 0x05, 0xd3, 0xdf, 0x43, 0x74, 0x14, 0xe9, 0xe9,
  0x3b, 0x3c, 0x60, 0x49, 0x24, 0x81, 0x4e, 0x61, 0xcd, 0xb8, 0xcd, 0xcc,
  0xd4, 0x42, 0x83, 0x0a, 0x5b, 0x43, 0x81, 0x69, 0xcc, 0x0f, 0xe1, 0x4b,
  0x5c, 0x46, 0x37, 0x5d, 0xdc, 0xc4, 0x08, 0x57, 0x03, 0xab, 0x0f, 0x02,
  0xf0, 0x33, 0x81, 0x3d, 0x90, 0xe7, 0x45, 0xc0, 0x4a, 0xe3, 0xff, 0xff,
  0x04, 0x00, 0x00, 0x00, 0x30, 0x00, 0x00, 0x00, 0x9e, 0x1d, 0x81, 0x81,
  0x89, 0xfa, 0x81, 0xbf, 0xd9, 0x7f, 0xb1, 0xd7, 0x7f, 0xb0, 0xfa, 0xac,
  0x81, 0x2b, 0x81, 0xf3, 0x8b, 0xd1, 0x81, 0x8d, 0x7f, 0xaf, 0x07, 0x92,
  0xd8, 0x81, 0x7f, 0x10, 0x5c, 0xec, 0x5d, 0x81, 0x59, 0x7f, 0xcc, 0xa2,
  0xe8, 0x7f, 0x7f, 0x03, 0x8f, 0x01, 0x7f, 0x02, 0x86, 0xe3, 0xff, 0xff,
  0x04, 0x00, 0x00, 0x00, 0x40, 0x00, 0x00, 0x00, 0x18, 0x00, 0x00, 0x00,
  0x4d, 0x05, 0x00, 0x00, 0xfa, 0x04, 0x00, 0x00, 0x18, 0x01, 0x00, 0x00,
  0x82, 0x00, 0x00, 0x00, 0x1f, 0x03, 0x00, 0x00, 0x08, 0x08, 0x00, 0x00,
  0x69, 0x07, 0x00, 0x00, 0xac, 0xff, 0xff, 0xff, 0x0e, 0x07, 0x00, 0x00,
  0x6c, 0xfd, 0xff, 0xff, 0xae, 0x02, 0x00, 0x00, 0x42, 0xfe, 0xff, 0xff,
  0x43, 0x00, 0x00, 0x00, 0xb2, 0x01, 0x00, 0x00, 0x9b, 0xfd, 0xff, 0xff,
  0xd2, 0xe3, 0xff, 0xff, 0x04, 0x00, 0x00, 0x00, 0x30, 0x00, 0x00, 0x00,
  0xde, 0x7f, 0x2e, 0xae, 0xe8, 0x81, 0x79, 0xbb, 0x7f, 0x7f, 0xe5, 0x5e,
  0x7f, 0xf3, 0xfc, 0xdc, 0x22, 0x7f, 0x7b, 0x74, 0x81, 0xa0, 0xd1, 0x81,
  0x81, 0xf5, 0xeb, 0x7f, 0x50, 0x37, 0xe8, 0x81, 0xf5, 0x6a, 0x7f, 0x72,
  0x81, 0xa1, 0xef, 0x60, 0xdc, 0x7f, 0x81, 0x76, 0xaf, 0xc6, 0x81, 0x29,
  0x0e, 0xe4, 0xff, 0xff, 0x04, 0x00, 0x00, 0x00, 0x10, 0x00, 0x00, 0x00,
  0x7f, 0x68, 0x67, 0x65, 0x56, 0x72, 0xe2, 0x31, 0x7a, 0x2b, 0xc2, 0x2a,
  0x4e, 0x60, 0xfd, 0x6b, 0x2a, 0xe4, 0xff, 0xff, 0x04, 0x00, 0x00, 0x00,
  0x10, 0x00, 0x00, 0x00, 0x68, 0x1a, 0x50, 0x05, 0x21, 0x17, 0x82, 0xee,
  0x1c, 0xe4, 0xb8, 0x80, 0x7f, 0x13, 0x98, 0xc5, 0x46, 0xe4, 0xff, 0xff,
  0x04, 0x00, 0x00, 0x00, 0x00, 0x01, 0x00, 0x00, 0x13, 0xb1, 0x8f, 0xd4,
  0xb2, 0xf1, 0xe4, 0x0a, 0xea, 0x2f, 0x0a, 0x81, 0xe1, 0x39, 0x31, 0x58,
  0xb0, 0x47, 0xf3, 0x22, 0x05, 0x0f, 0xef, 0x0c, 0x81, 0x16, 0x01, 0xf7,
  0xf3, 0x25, 0x96, 0xee, 0xd5, 0x9a, 0xbd, 0x1c, 0xbb, 0x3d, 0x65, 0xb5,
  0xdd, 0x9f, 0xae, 0xf7, 0xab, 0x28, 0x1a, 0x7f, 0xf5, 0x81, 0xcb, 0x20,
  0x98, 0xc2, 0x7e, 0xab, 0xa5, 0xf0, 0xb1, 0x29, 0xc7, 0x29, 0xd8, 0x7c,
  0xe9, 0xe5, 0xfc, 0xd7, 0xc2, 0x00, 0x20, 0xcb, 0xc8, 0xc0, 0x7f, 0x12,
  0x4a, 0x3f, 0xdb, 0xf4, 0x84, 0x0f, 0x10, 0x92, 0x19, 0x8f, 0x81, 0xe6,
  0x5f, 0x1f, 0x4f, 0xaa, 0xb1, 0x81, 0x1f, 0x30, 0x28, 0x63, 0xb7, 0xb8,
  0xe2, 0xff, 0x5c, 0x12, 0x81, 0xc3, 0xc2, 0xc0, 0xeb, 0xdd, 0xa1, 0xb6,
  0x74, 0xf0, 0xb6, 0xe4, 0xda, 0x7f, 0xf2, 0xf7, 0xe6, 0x2b, 0xfd, 0x51,
  0xb0, 0x44, 0xeb, 0x8d, 0x47, 0x55, 0xab, 0xc5, 0x7f, 0x4e, 0xd6, 0x32,
  0x1e, 0x13, 0x24, 0xff, 0x08, 0xe5, 0x1b, 0x93, 0x52, 0xb9, 0xfd, 0x01,
  0x19, 0xba, 0xea, 0xde, 0x83, 0x04, 0x15, 0xea, 0x41, 0xcd, 0xd7, 0x81,
  0x2f, 0xb1, 0xcb, 0x7f, 0x06, 0x21, 0x06, 0x36, 0xbf, 0xdd, 0x23, 0xfc,
  0xf7, 0xe2, 0x0a, 0xf5, 0x81, 0x1e, 0xe3, 0xf8, 0x25, 0x1e, 0xf1, 0x21,
  0xed, 0x65, 0xd2, 0xaa, 0x1f, 0xd1, 0x05, 0xf5, 0x51, 0x3f, 0x81, 0xc1,
  0x8d, 0x5b, 0xc1, 0xde, 0xd9, 0x5c, 0x37, 0x8e, 0x9e, 0xf9, 0xf0, 0xef,
  0xfe, 0xf1, 0x57, 0x72, 0xe7, 0xa3, 0xa1, 0xf6, 0x6a, 0x22, 0x36, 0xf3,
  0xf3, 0x3a, 0x05, 0x7f, 0x0e, 0x4d, 0xdb, 0x15, 0xfc, 0xe9, 0xa3, 0xcf,
  0xe4, 0x7a, 0x10, 0xf8, 0xbd, 0xc7, 0x49, 0x81, 0x24, 0x3d, 0xd7, 0x2f,
  0x03, 0x04, 0xbe, 0xf4, 0x81, 0x56, 0xb9, 0x09, 0x78, 0x4e, 0xea, 0x97,
  0x52, 0xe5, 0xff, 0xff, 0x04, 0x00, 0x00, 0x00, 0x30, 0x00, 0x00, 0x00,
  0x7f, 0xf2, 0x0f, 0x48, 0xd1, 0x81, 0x81, 0x8b, 0xec, 0xeb, 0x6b, 0x81,
  0x81, 0x0e, 0x06, 0xa1, 0x7f, 0xae, 0x81, 0x35, 0x2c, 0x81, 0x86, 0x00,
  0xa7, 0x7f, 0x5c, 0xfd, 0x81, 0xb3, 0x3d, 0x81, 0x1c, 0x6b, 0x7f, 0x9f,
  0x81, 0x01, 0x21, 0x84, 0xb1, 0x7f, 0x81, 0x6e, 0x35, 0xf1, 0x81, 0x91,
  0x8e, 0xe5, 0xff, 0xff, 0x04, 0x00, 0x00, 0x00, 0x40, 0x00, 0x00, 0x00,
  0xb2, 0xfe, 0xff, 0xff, 0xbb, 0x01, 0x00, 0x00, 0x57, 0x04, 0x00, 0x00,
  0xb7, 0x01, 0x00, 0x00, 0x54, 0x03, 0x00, 0x00, 0x27, 0x00, 0x00, 0x00,
  0x4a, 0x01, 0x00, 0x00, 0x4f, 0x06, 0x00, 0x00, 0xc7, 0xfc, 0xff, 0xff,
  0x9e, 0x04, 0x00, 0x00, 0x27, 0x01, 0x00, 0x00, 0x19, 0xfe, 0xff, 0xff,
  0x94, 0x02, 0x00, 0x00, 0x89, 0x03, 0x00, 0x00, 0x8e, 0xfe, 0xff, 0xff,
  0x35, 0x00, 0x00, 0x00, 0xda, 0xe5, 0xff, 0xff, 0x04, 0x00, 0x00, 0x00,
  0x30, 0x00, 0x00, 0x00, 0x43, 0x29, 0x7f, 0xa1, 0x24, 0x81, 0x81, 0xdc,
  0xb8, 0x48, 0x2a, 0x7f, 0x9f, 0x0d, 0x81, 0x81, 0xf4, 0xa1, 0x11, 0x0d,
  0x7f, 0x81, 0x41, 0x41, 0x81, 0x12, 0x05, 0x7f, 0x21, 0x89, 0x81, 0x13,
  0xea, 0xc8, 0xb4, 0x7f, 0x75, 0x7f, 0x8e, 0x37, 0x1c, 0x7f, 0x81, 0x1a,
  0x1c, 0x7f, 0x89, 0x75, 0x16, 0xe6, 0xff, 0xff, 0x04, 0x00, 0x00, 0x00,
  0x10, 0x00, 0x00, 0x00, 0x77, 0x2f, 0x6d, 0x35, 0x68, 0x78, 0x7e, 0xe6,
  0x7f, 0x30, 0x77, 0x4b, 0x3e, 0x4d, 0x4d, 0x55, 0x32, 0xe6, 0xff, 0xff,
  0x04, 0x00, 0x00, 0x00, 0x10, 0x00, 0x00, 0x00, 0x55, 0x4e, 0x7f, 0xfe,
  0x10, 0x59, 0x46, 0xfc, 0x61, 0x54, 0x50, 0x54, 0x2e, 0x1d, 0x2a, 0x80,
  0x4e, 0xe6, 0xff, 0xff, 0x04, 0x00, 0x00, 0x00, 0x00, 0x01, 0x00, 0x00,
  0xec, 0xbf, 0xce, 0x2d, 0x45, 0x81, 0x7f, 0x16, 0x38, 0xa8, 0x14, 0xdf,
  0xb2, 0x89, 0xb6, 0xbd, 0x81, 0xae, 0x26, 0x23, 0x26, 0x06, 0xa2, 0xe0,
  0xf2, 0x1f, 0x30, 0xcc, 0xa0, 0x27, 0xfc, 0x42, 0xff, 0xe6, 0xde, 0xd4,
  0x7f, 0x48, 0x1a, 0xcb, 0x01, 0x2c, 0x1c, 0xa4, 0x16, 0xea, 0xd1, 0xed,
  0x0f, 0xd5, 0x79, 0x84, 0x70, 0xef, 0x8f, 0x18, 0xa6, 0x02, 0x26, 0x7f,
  0x28, 0x69, 0x38, 0x86, 0x00, 0xe5, 0xf4, 0xd1, 0x46, 0x3c, 0x96, 0x4c,
  0x17, 0x06, 0x7f, 0xdf, 0x1e, 0xe9, 0xb2, 0x0e, 0x57, 0xb3, 0x9c, 0x8a,
  0xbe, 0x3a, 0x28, 0xc9, 0x81, 0xa9, 0xd4, 0x5f, 0x9d, 0xbc, 0x6a, 0x54,
  0xa9, 0xab, 0xf6, 0x02, 0x05, 0xd3, 0xcc, 0xed, 0x97, 0x17, 0xfb, 0x43,
  0x81, 0x2d, 0xfc, 0x69, 0x60, 0x14, 0x20, 0xd2, 0xef, 0x43, 0xe5, 0xdf,
  0x7c, 0x23, 0x64, 0x24, 0x65, 0x79, 0x7d, 0x81, 0x54, 0x7f, 0xd4, 0xb6,
  0x75, 0x20, 0x10, 0xde, 0xee, 0x16, 0xcd, 0x3a, 0x52, 0x65, 0xd0, 0xd4,
  0x1e, 0xd9, 0xde, 0xe4, 0xb2, 0xc3, 0x3a, 0xd6, 0xac, 0x35, 0x04, 0xc1,
  0xf9, 0x81, 0xf7, 0xbb, 0x05, 0xb8, 0xb3, 0x1f, 0x3c, 0xe1, 0x0d, 0x00,
  0xf2, 0x0a, 0x16, 0x98, 0xd5, 0x0a, 0xdd, 0x7f, 0x4d, 0x38, 0x1d, 0xd8,
  0xf5, 0xea, 0x7f, 0x6a, 0xa3, 0xd0, 0xc4, 0x59, 0xea, 0xf6, 0xd5, 0x00,
  0x81, 0x87, 0x3a, 0xe6, 0x02, 0x3c, 0x22, 0x2e, 0x48, 0xd5, 0x1d, 0x31,
  0x93, 0xf4, 0x35, 0xc9, 0xda, 0xff, 0x7e, 0x10, 0x2d, 0x4c, 0xf4, 0x0e,
  0x37, 0xd2, 0x3f, 0x04, 0x2e, 0x12, 0xe7, 0x81, 0xba, 0x9d, 0x66, 0x38,
  0xae, 0x04, 0x7a, 0xbf, 0x9c, 0x81, 0xe1, 0xc7, 0xb9, 0x8f, 0x0c, 0xe8,
  0x29, 0xb4, 0x5b, 0x30, 0xf8, 0xf8, 0xd4, 0x21, 0x81, 0x03, 0xb9, 0x29,
  0x0b, 0x3c, 0xfc, 0xbd, 0x5a, 0xe7, 0xff, 0xff, 0x04, 0x00, 0x00, 0x00,
  0x30, 0x00, 0x00, 0x00, 0x81, 0x2a, 0x92, 0x2c, 0x34, 0x81, 0x91, 0x81,
  0x1d, 0x5d, 0xe2, 0x7f, 0x81, 0x07, 0xcb, 0x37, 0x81, 0xf4, 0x81, 0x20,
  0xfc, 0x40, 0x7f, 0xda, 0xe0, 0x8e, 0x7f, 0x7f, 0xdc, 0x3a, 0xb3, 0x6c,
  0x7f, 0xe1, 0x7f, 0x02, 0x81, 0xab, 0xa6, 0x7f, 0xbd, 0xf5, 0xf3, 0xab,
  0x81, 0x34, 0x81, 0x33, 0x96, 0xe7, 0xff, 0xff, 0x04, 0x00, 0x00, 0x00,
  0x40, 0x00, 0x00, 0x00, 0x46, 0x00, 0x00, 0x00, 0x4c, 0x00, 0x00, 0x00,
  0xcc, 0x03, 0x00, 0x00, 0x1f, 0xfd, 0xff, 0xff, 0xf4, 0x05, 0x00, 0x00,
  0xfc, 0x00, 0x00, 0x00, 0xcd, 0x02, 0x00, 0x00, 0x58, 0xfc, 0xff, 0xff,
  0x26, 0x01, 0x00, 0x00, 0x3a, 0xfe, 0xff, 0xff, 0x5b, 0xfd, 0xff, 0xff,
  0x89, 0xfd, 0xff, 0xff, 0x31, 0x05, 0x00, 0x00, 0x0c, 0xff, 0xff, 0xff,
  0xcc, 0x07, 0x00, 0x00, 0x9d, 0x00, 0x00, 0x00, 0xe2, 0xe7, 0xff, 0xff,
  0x04, 0x00, 0x00, 0x00, 0x30, 0x00, 0x00, 0x00, 0x5a, 0x8e, 0x7f, 0xa1,
  0x37, 0x7f, 0x81, 0xaf, 0x62, 0xec, 0x66, 0x7f, 0x20, 0xed, 0x7f, 0x55,
  0x7f, 0x50, 0xce, 0xf6, 0x81, 0x70, 0x7f, 0xf8, 0x81, 0xee, 0x3c, 0xe6,
  0x52, 0x7f, 0xbe, 0x98, 0x7f, 0xcf, 0x81, 0xb6, 0x7f, 0xc3, 0xd1, 0x1f,
  0x06, 0x7f, 0x58, 0x62, 0x81, 0xe0, 0x41, 0x7f, 0x1e, 0xe8, 0xff, 0xff,
  0x04, 0x00, 0x00, 0x00, 0x10, 0x00, 0x00, 0x00, 0x69, 0x07, 0x6e, 0x24,
  0x64, 0x32, 0x65, 0xe6, 0x69, 0x67, 0xd9, 0x1b, 0x66, 0x5e, 0xf9, 0x7f,
  0x3a, 0xe8, 0xff, 0xff, 0x04, 0x00, 0x00, 0x00, 0x10, 0x00, 0x00, 0x00,
  0xdb, 0x74, 0x3a, 0xe6, 0x4a, 0x58, 0x38, 0xd5, 0x70, 0x1b, 0xea, 0x90,
  0x7f, 0x30, 0x80, 0x0d, 0x56, 0xe8, 0xff, 0xff, 0x04, 0x00, 0x00, 0x00,
  0x00, 0x01, 0x00, 0x00, 0x7f, 0x29, 0x1f, 0xf2, 0x21, 0xb8, 0x09, 0x5d,
  0xa3, 0x23, 0x03, 0x0b, 0x0f, 0x5d, 0xde, 0x36, 0x78, 0xf7, 0x4d, 0xed,
  0x20, 0x7f, 0x55, 0x44, 0xea, 0x3f, 0x4a, 0x2d, 0xf3, 0xc0, 0xdc, 0xbc,
  0x27, 0x23, 0x81, 0xa9, 0x81, 0x05, 0x41, 0xc3, 0x88, 0x0f, 0xfa, 0x01,
  0xf2, 0x65, 0x24, 0xa3, 0x25, 0x87, 0x04, 0x96, 0x0f, 0x07, 0x72, 0xc5,
  0x29, 0x01, 0x47, 0x0c, 0xdc, 0x70, 0x7f, 0x02, 0xd5, 0xb9, 0x0a, 0xf6,
  0xac, 0x04, 0x10, 0xbe, 0x01, 0xd5, 0x11, 0x9a, 0xee, 0xa6, 0xa9, 0x7f,
  0xe3, 0xe9, 0x29, 0x03, 0xcb, 0x71, 0xa9, 0x88, 0x81, 0x91, 0x55, 0xf3,
  0xb0, 0xeb, 0xab, 0x35, 0x7f, 0xc8, 0x39, 0x10, 0xc4, 0x59, 0x45, 0xc4,
  0x1d, 0x4a, 0xc3, 0x51, 0xdf, 0xf1, 0x4d, 0x94, 0xc2, 0x0a, 0xeb, 0xb5,
  0x9f, 0x62, 0x7f, 0xb2, 0xf7, 0x34, 0x42, 0x77, 0xc5, 0x20, 0x72, 0xf6,
  0x25, 0x1c, 0xff, 0x95, 0x04, 0x20, 0x79, 0x91, 0xbf, 0x85, 0x07, 0x6b,
  0x94, 0x81, 0xd7, 0x38, 0x3e, 0xf4, 0x7f, 0xe7, 0x15, 0x3d, 0x27, 0xde,
  0xdf, 0xb8, 0x39, 0x2e, 0x22, 0x5b, 0x11, 0x23, 0xd7, 0xc5, 0x38, 0x8f,
  0x40, 0xc0, 0x35, 0x1d, 0x28, 0x59, 0x1e, 0xd8, 0x76, 0x0b, 0x7f, 0x42,
  0x18, 0x06, 0xfc, 0xfd, 0xa8, 0xb4, 0xb1, 0x81, 0xce, 0x75, 0x59, 0xc4,
  0xd1, 0xb8, 0x53, 0x5a, 0xdb, 0xec, 0xfe, 0x03, 0xd6, 0xdf, 0x22, 0xc5,
  0x3c, 0xf9, 0xbb, 0x0f, 0x81, 0x09, 0x07, 0xe8, 0x32, 0x81, 0x66, 0xcb,
  0x99, 0x44, 0x9f, 0x39, 0x77, 0x69, 0x3a, 0x67, 0x19, 0xe7, 0xe9, 0x02,
  0xec, 0x29, 0x22, 0x0a, 0xbd, 0xc3, 0xe2, 0xff, 0x20, 0x38, 0xd3, 0xde,
  0x4d, 0xf7, 0x3f, 0x81, 0x81, 0xd8, 0x2a, 0x30, 0xfe, 0xf5, 0x3e, 0xe0,
  0x23, 0x25, 0xe2, 0x5e, 0xfd, 0xe7, 0x3c, 0x78, 0x62, 0xe9, 0xff, 0xff,
  0x04, 0x00, 0x00, 0x00, 0x40, 0x01, 0x00, 0x00, 0x1c, 0xe5, 0x64, 0xc0,
  0x61, 0x2c, 0x2f, 0x44, 0xa4, 0xc0, 0x3c, 0x7f, 0x3f, 0x30, 0xed, 0xca,
  0x9b, 0x2a, 0xa7, 0xc4, 0x58, 0xf7, 0xfe, 0xac, 0x43, 0xf3, 0x19, 0xbc,
  0x2b, 0x81, 0xec, 0xea, 0x93, 0x0d, 0x47, 0x46, 0x9b, 0x3b, 0x7d, 0x05,
  0x40, 0xa0, 0x59, 0x2a, 0x7f, 0xe9, 0x2f, 0x4e, 0x7f, 0x56, 0x36, 0xd3,
  0x95, 0xc3, 0x9d, 0x47, 0xc7, 0x1a, 0xa0, 0x56, 0x28, 0xfc, 0x07, 0x45,
  0xc9, 0xc5, 0xdc, 0xc8, 0xe2, 0x86, 0x33, 0x2d, 0x16, 0x2f, 0x1d, 0xd6,
  0x81, 0xbd, 0x44, 0x19, 0xd4, 0x1b, 0x81, 0x0c, 0x59, 0x46, 0xdc, 0x16,
  0xdc, 0x63, 0xff, 0x9a, 0xe0, 0x0f, 0xbd, 0x16, 0xe9, 0x31, 0x3e, 0x9a,
  0x7f, 0xd6, 0x4f, 0x15, 0x04, 0xda, 0xde, 0xa1, 0xbf, 0xa1, 0x34, 0x3b,
  0x97, 0x81, 0x09, 0x36, 0x01, 0x1c, 0xa8, 0x78, 0x51, 0xce, 0x07, 0xec,
  0x0c, 0xb6, 0x0e, 0xe8, 0x8d, 0x95, 0x17, 0x00, 0x56, 0xd9, 0x29, 0x48,
  0xd4, 0x1a, 0x16, 0x49, 0x7f, 0x81, 0x77, 0x24, 0xc3, 0xb5, 0x0e, 0x1a,
  0x35, 0x81, 0xe8, 0xff, 0xa0, 0xf0, 0x41, 0xdf, 0x95, 0xfa, 0x5c, 0xbc,
  0x7f, 0x12, 0x48, 0x0b, 0x41, 0xfd, 0xd9, 0x38, 0x28, 0x39, 0xb9, 0x1d,
  0x02, 0x71, 0xdf, 0x1a, 0x26, 0x53, 0xf4, 0xe6, 0x3e, 0xe6, 0x1c, 0xfd,
  0xf6, 0xfc, 0x81, 0x97, 0x22, 0xe9, 0x1e, 0x99, 0xaa, 0x81, 0x05, 0x01,
  0x36, 0xe7, 0x26, 0x27, 0x52, 0xe9, 0xd3, 0xe3, 0x4f, 0x61, 0xcd, 0x4c,
  0x0f, 0x11, 0x13, 0x81, 0xd0, 0x69, 0xb2, 0xe6, 0x5b, 0xdb, 0xba, 0x2b,
  0x0e, 0xeb, 0x32, 0xca, 0x54, 0xcd, 0xf4, 0x7f, 0xf3, 0x1d, 0x2e, 0xf2,
  0x75, 0xd3, 0x0a, 0xe0, 0x14, 0x3b, 0xca, 0x3f, 0x2e, 0xe2, 0x04, 0x49,
  0xf9, 0x0a, 0x17, 0x45, 0xdb, 0xb2, 0x81, 0x46, 0x58, 0xe8, 0xe8, 0xf1,
  0x36, 0xe7, 0x01, 0x13, 0x1f, 0xaf, 0xe4, 0x7f, 0xbb, 0xf8, 0x29, 0x11,
  0xee, 0x3d, 0xed, 0xfc, 0x69, 0x24, 0x7f, 0x9e, 0xeb, 0x70, 0x19, 0x96,
  0xe8, 0x00, 0xda, 0x2a, 0x23, 0x4d, 0xd8, 0xe5, 0x23, 0x08, 0xd6, 0xf8,
  0x1a, 0x11, 0xea, 0x2d, 0xfb, 0x4c, 0xf6, 0x01, 0x66, 0x35, 0xf3, 0x7f,
  0xd5, 0x90, 0x7f, 0xb3, 0xee, 0x39, 0xb1, 0x2c, 0x4e, 0x9e, 0x97, 0xa7,
  0xce, 0xba, 0x04, 0x2d, 0xae, 0xea, 0xff, 0xff, 0x04, 0x00, 0x00, 0x00,
  0x50, 0x00, 0x00, 0x00, 0x3c, 0xf9, 0xff, 0xff, 0x69, 0x04, 0x00, 0x00,
  0x97, 0xf8, 0xff, 0xff, 0x78, 0x02, 0x00, 0x00, 0x9c, 0x02, 0x00, 0x00,
  0x23, 0x04, 0x00, 0x00, 0xa9, 0xfd, 0xff, 0xff, 0x4a, 0x02, 0x00, 0x00,
  0x80, 0xf9, 0xff, 0xff, 0x43, 0x03, 0x00, 0x00, 0x16, 0xf4, 0xff, 0xff,
  0xca, 0x01, 0x00, 0x00, 0x43, 0x00, 0x00, 0x00, 0x5b, 0x03, 0x00, 0x00,
  0xec, 0xfb, 0xff, 0xff, 0x77, 0xfe, 0xff, 0xff, 0xdf, 0xfe, 0xff, 0xff,
  0x0a, 0x00, 0x00, 0x00, 0xf6, 0xfa, 0xff, 0xff, 0x7a, 0x08, 0x00, 0x00,
  0x0a, 0xeb, 0xff, 0xff, 0x04, 0x00, 0x00, 0x00, 0x3c, 0x00, 0x00, 0x00,
  0xdd, 0x06, 0x81, 0x81, 0xfa, 0xfd, 0x7f, 0x1b, 0x22, 0x3f, 0x7f, 0xc5,
  0x33, 0x81, 0xda, 0x40, 0x7f, 0x84, 0x81, 0xe9, 0x20, 0x81, 0x04, 0xc3,
  0x95, 0x7f, 0x29, 0xb7, 0x7f, 0xee, 0x7f, 0x17, 0x3a, 0xa7, 0x19, 0x81,
  0x7f, 0x02, 0x7d, 0x0c, 0x81, 0x64, 0x7f, 0xc7, 0x35, 0x40, 0x81, 0xfb,
  0x7f, 0x12, 0x11, 0x2d, 0xaf, 0x7f, 0x81, 0x6a, 0xf7, 0xaa, 0x7f, 0xaa,
  0x52, 0xeb, 0xff, 0xff, 0x04, 0x00, 0x00, 0x00, 0x50, 0x00, 0x00, 0x00,
  0x86, 0x04, 0x00, 0x00, 0x18, 0x03, 0x00, 0x00, 0x5c, 0xfc, 0xff, 0xff,
  0x2e, 0xfd, 0xff, 0xff, 0x25, 0x02, 0x00, 0x00, 0x23, 0x00, 0x00, 0x00,
  0xc9, 0x03, 0x00, 0x00, 0x50, 0x04, 0x00, 0x00, 0xfc, 0xfe, 0xff, 0xff,
  0x3b, 0xff, 0xff, 0xff, 0x61, 0xff, 0xff, 0xff, 0x3d, 0x03, 0x00, 0x00,
  0xcb, 0xf9, 0xff, 0xff, 0xdf, 0xff, 0xff, 0xff, 0x23, 0xfd, 0xff, 0xff,
  0x39, 0x01, 0x00, 0x00, 0xa6, 0xfd, 0xff, 0xff, 0xda, 0xfd, 0xff, 0xff,
  0x6b, 0x01, 0x00, 0x00, 0x13, 0x00, 0x00, 0x00, 0xae, 0xeb, 0xff, 0xff,
  0x04, 0x00, 0x00, 0x00, 0x3c, 0x00, 0x00, 0x00, 0x81, 0x6b, 0x9c, 0x7f,
  0xe7, 0xcb, 0x39, 0x0c, 0x7f, 0x81, 0xcb, 0xdb, 0x81, 0xf3, 0x22, 0xea,
  0x94, 0x81, 0x7f, 0xf2, 0x8b, 0x81, 0xdb, 0xa7, 0x81, 0xd5, 0x1b, 0x24,
  0x25, 0x81, 0xf5, 0xcb, 0x81, 0x30, 0x1b, 0x81, 0x81, 0xeb, 0xab, 0x32,
  0xb7, 0x7f, 0x06, 0x81, 0xa0, 0x7f, 0x5e, 0xd1, 0x81, 0xbd, 0x4d, 0x6a,
  0x0e, 0x7f, 0x33, 0x15, 0x7f, 0x7f, 0x43, 0xe8, 0x9c, 0xb8, 0xfe, 0xff,
  0xa0, 0xb8, 0xfe, 0xff, 0xa4, 0xb8, 0xfe, 0xff, 0xa8, 0xb8, 0xfe, 0xff,
  0xac, 0xb8, 0xfe, 0xff, 0xb0, 0xb8, 0xfe, 0xff, 0xb4, 0xb8, 0xfe, 0xff,
  0xb8, 0xb8, 0xfe, 0xff, 0x16, 0xec, 0xff, 0xff, 0x04, 0x00, 0x00, 0x00,
  0x50, 0x00, 0x00, 0x00, 0x00, 0x00, 0x00, 0x00, 0x00, 0x00, 0x00, 0x00,
  0x00, 0x00, 0x00, 0x00, 0x00, 0x00, 0x00, 0x00, 0x00, 0x00, 0x00, 0x00,
  0x00, 0x00, 0x00, 0x00, 0x00, 0x00, 0x00, 0x00, 0x00, 0x00, 0x00, 0x00,
  0x00, 0x00, 0x00, 0x00, 0x00, 0x00, 0x00, 0x00, 0x00, 0x00, 0x00, 0x00,
  0x00, 0x00, 0x00, 0x00, 0x00, 0x00, 0x00, 0x00, 0x00, 0x00, 0x00, 0x00,
  0x00, 0x00, 0x00, 0x00, 0x00, 0x00, 0x00, 0x00, 0x00, 0x00, 0x00, 0x00,
  0x00, 0x00, 0x00, 0x00, 0x00, 0x00, 0x00, 0x00, 0x00, 0x00, 0x00, 0x00,
  0x72, 0xec, 0xff, 0xff, 0x04, 0x00, 0x00, 0x00, 0x14, 0x00, 0x00, 0x00,
  0x4a, 0x55, 0x71, 0x34, 0x7f, 0xea, 0x78, 0x44, 0x44, 0x6a, 0x49, 0x44,
  0x47, 0x19, 0xf1, 0x29, 0x22, 0x71, 0x74, 0x29, 0x92, 0xec, 0xff, 0xff,
  0x04, 0x00, 0x00, 0x00, 0x14, 0x00, 0x00, 0x00, 0x80, 0x75, 0x39, 0x24,
  0x5a, 0x78, 0x5a, 0x73, 0x2b, 0x28, 0x71, 0x38, 0x0f, 0x33, 0x22, 0x48,
  0x7f, 0x7f, 0x56, 0x0e, 0xb2, 0xec, 0xff, 0xff, 0x04, 0x00, 0x00, 0x00,
  0x90, 0x01, 0x00, 0x00, 0x7f, 0xb2, 0x29, 0xaf, 0xa2, 0xd3, 0x1d, 0xe4,
  0x40, 0x4e, 0x09, 0xa9, 0xf0, 0x13, 0xd3, 0xd7, 0x18, 0x36, 0xbf, 0x1c,
  0xce, 0x75, 0xdd, 0xdf, 0xd2, 0x2f, 0x03, 0xb8, 0x2c, 0x1b, 0x87, 0x6d,
  0xd1, 0x81, 0xfb, 0x6a, 0xf5, 0xf2, 0x92, 0xe5, 0xd4, 0x31, 0xd4, 0x2f,
  0xe8, 0x31, 0xcc, 0xea, 0x22, 0xac, 0x32, 0x81, 0xac, 0xbb, 0xc0, 0xef,
  0x42, 0xbb, 0xed, 0x1d, 0x08, 0xfa, 0x07, 0xdf, 0xf5, 0xe4, 0xa1, 0x81,
  0x12, 0x1e, 0xf2, 0x18, 0x36, 0x54, 0x11, 0xc4, 0x92, 0xb3, 0x04, 0xbb,
  0x85, 0xa2, 0x49, 0x75, 0x6b, 0x2c, 0x0a, 0xf4, 0xb9, 0xe0, 0x2f, 0x31,
  0xcb, 0xd7, 0xa6, 0x48, 0xb5, 0xf2, 0x81, 0x43, 0x03, 0x81, 0x2f, 0x1c,
  0x27, 0x48, 0xfe, 0xc2, 0x1d, 0xee, 0xe2, 0x2d, 0xf6, 0xf5, 0xf9, 0x39,
  0xd9, 0x53, 0x3b, 0xf1, 0xd1, 0x95, 0x8d, 0x18, 0x18, 0xd8, 0x81, 0x02,
  0x21, 0x1e, 0x24, 0x9a, 0xb4, 0x70, 0xfa, 0xdc, 0x12, 0x3f, 0x5c, 0x07,
  0xe1, 0x9e, 0xb0, 0x9e, 0x72, 0xb0, 0xe0, 0x43, 0x6c, 0x71, 0xd9, 0x99,
  0xb1, 0x46, 0x68, 0x81, 0x10, 0x1a, 0x65, 0x13, 0xbb, 0x33, 0x20, 0xee,
  0x50, 0x33, 0x81, 0xcd, 0x1c, 0xf1, 0x3b, 0xf1, 0x3c, 0xf5, 0xc2, 0x94,
  0xdc, 0xc9, 0x2f, 0x38, 0xe4, 0x26, 0xcb, 0xfc, 0x02, 0x08, 0xf0, 0xde,
  0xf3, 0xa3, 0x91, 0x7a, 0xe0, 0xd5, 0x81, 0x41, 0x7d, 0x30, 0x43, 0xd6,
  0x2b, 0x81, 0xe1, 0x26, 0x57, 0x0d, 0x22, 0x3e, 0x3b, 0x38, 0xfd, 0xf6,
  0x55, 0x3d, 0x2b, 0x47, 0x12, 0x32, 0x2b, 0x47, 0x24, 0x1a, 0x49, 0xb7,
  0xfb, 0x0c, 0x3e, 0x4a, 0x05, 0xcf, 0xd7, 0xb9, 0x37, 0x0d, 0x20, 0x0e,
  0x16, 0x81, 0x35, 0x4f, 0xf3, 0xc3, 0xe2, 0xfb, 0xb8, 0xc6, 0x06, 0xd6,
  0x7f, 0x70, 0xe1, 0xb2, 0x38, 0x43, 0x1e, 0xdb, 0xb2, 0xe6, 0x04, 0x96,
  0xcd, 0x19, 0x18, 0x23, 0xd7, 0xc4, 0x28, 0xae, 0x14, 0xd7, 0x1e, 0xc2,
  0x46, 0x45, 0x20, 0x2a, 0x7f, 0x04, 0xde, 0xda, 0x7f, 0x01, 0xfb, 0x38,
  0x1d, 0xed, 0x17, 0x10, 0x5a, 0xca, 0x34, 0xfb, 0x24, 0x35, 0x09, 0x04,
  0xa9, 0xe0, 0x1c, 0x46, 0x81, 0xff, 0x06, 0xd3, 0xd4, 0xfe, 0xe6, 0x1b,
  0xec, 0x9d, 0xf3, 0x87, 0xf5, 0xe9, 0xe3, 0xa5, 0xee, 0xba, 0x3f, 0xb3,
  0x32, 0xa8, 0x07, 0x02, 0xdb, 0xfb, 0x37, 0x11, 0xf2, 0xfb, 0xd0, 0xcc,
  0xd3, 0x81, 0x34, 0xfb, 0xc8, 0x25, 0xd9, 0x3c, 0xb0, 0x0f, 0xe3, 0x5c,
  0x60, 0x43, 0x0d, 0xba, 0x51, 0x7f, 0x16, 0xc6, 0xc6, 0xf9, 0x30, 0xe5,
  0xf9, 0xfc, 0x43, 0xff, 0x13, 0x42, 0xa8, 0xf1, 0xe6, 0xc2, 0x49, 0xce,
  0x0c, 0x08, 0xb4, 0xee, 0x7f, 0xef, 0x65, 0x41, 0x1c, 0xcf, 0x00, 0x0e,
  0x71, 0x37, 0xde, 0x91, 0x71, 0xee, 0x20, 0x98, 0x52, 0x2d, 0x7e, 0x9d,
  0xca, 0xcd, 0x05, 0xa9, 0x92, 0xce, 0x7f, 0xf2, 0x4e, 0xee, 0xff, 0xff,
  0x04, 0x00, 0x00, 0x00, 0x3c, 0x00, 0x00, 0x00, 0x88, 0x7f, 0x82, 0x43,
  0xd3, 0x7f, 0x96, 0xbd, 0x81, 0x04, 0xaf, 0x81, 0x81, 0xf0, 0x08, 0x7f,
  0x3f, 0xcc, 0x98, 0x81, 0x08, 0x81, 0xa9, 0xea, 0xc8, 0xfb, 0x7f, 0x7f,
  0x0e, 0x02, 0x01, 0x81, 0x42, 0x7f, 0x66, 0x82, 0x81, 0xee, 0xe9, 0x81,
  0x42, 0x03, 0x99, 0x81, 0xdd, 0x5a, 0x7f, 0x8c, 0x7f, 0x94, 0x67, 0xfd,
  0xe7, 0x81, 0x5e, 0x7f, 0xb4, 0x81, 0x97, 0xb7, 0x96, 0xee, 0xff, 0xff,
  0x04, 0x00, 0x00, 0x00, 0x50, 0x00, 0x00, 0x00, 0xf4, 0x01, 0x00, 0x00,
  0x0e, 0xfe, 0xff, 0xff, 0x10, 0x09, 0x00, 0x00, 0x6a, 0x02, 0x00, 0x00,
  0x79, 0x01, 0x00, 0x00, 0xf7, 0xfe, 0xff, 0xff, 0xf0, 0x06, 0x00, 0x00,
  0xc5, 0x03, 0x00, 0x00, 0xf5, 0xff, 0xff, 0xff, 0x51, 0xfd, 0xff, 0xff,
  0x15, 0x02, 0x00, 0x00, 0x67, 0xff, 0xff, 0xff, 0xf4, 0x02, 0x00, 0x00,
  0x12, 0x01, 0x00, 0x00, 0xad, 0x06, 0x00, 0x00, 0x3b, 0xff, 0xff, 0xff,
  0xdc, 0xfe, 0xff, 0xff, 0x81, 0x01, 0x00, 0x00, 0x5d, 0xfe, 0xff, 0xff,
  0xe0, 0x04, 0x00, 0x00, 0xf2, 0xee, 0xff, 0xff, 0x04, 0x00, 0x00, 0x00,
  0x3c, 0x00, 0x00, 0x00, 0x90, 0x05, 0x81, 0xb3, 0xfd, 0x81, 0xc5, 0xdb,
  0x81, 0xc3, 0xb7, 0x7f, 0x81, 0x2e, 0x98, 0x81, 0xcd, 0x08, 0x7f, 0xd1,
  0x63, 0x7f, 0xf5, 0xe1, 0x81, 0xbc, 0xc0, 0x81, 0x4d, 0x3a, 0x7c, 0x1e,
  0x81, 0x75, 0x8d, 0x7f, 0x81, 0x2e, 0x37, 0x81, 0x27, 0xc8, 0x7f, 0xda,
  0x5e, 0x45, 0x16, 0x7f, 0xc9, 0x1a, 0x7f, 0x7f, 0x4c, 0x47, 0xb7, 0x1d,
  0x7f, 0x7f, 0xcf, 0xe0, 0x3a, 0xef, 0xff, 0xff, 0x04, 0x00, 0x00, 0x00,
  0x14, 0x00, 0x00, 0x00, 0x63, 0x50, 0x46, 0x62, 0x1b, 0x2c, 0x3b, 0x61,
  0x50, 0x4d, 0x7f, 0x69, 0x36, 0x63, 0x4d, 0x65, 0x65, 0x30, 0x34, 0x2e,
  0x5a, 0xef, 0xff, 0xff, 0x04, 0x00, 0x00, 0x00, 0x14, 0x00, 0x00, 0x00,
  0xcf, 0xf0, 0x2b, 0x48, 0xbb, 0x7c, 0x24, 0x00, 0x48, 0x48, 0xb0, 0x28,
  0xa4, 0xd5, 0x7f, 0x93, 0xe5, 0xdb, 0xa8, 0x80, 0x7a, 0xef, 0xff, 0xff,
  0x04, 0x00, 0x00, 0x00, 0x90, 0x01, 0x00, 0x00, 0xc3, 0xe5, 0xc7, 0x81,
  0x13, 0xd4, 0x3a, 0xee, 0xda, 0xf6, 0x11, 0xfe, 0x17, 0xd8, 0xef, 0xeb,
  0x30, 0xf8, 0x0e, 0x5b, 0xe9, 0x14, 0xf6, 0x61, 0xe9, 0xe3, 0x13, 0x01,
  0x65, 0x2b, 0x4e, 0xb7, 0x1c, 0xc0, 0x26, 0x24, 0x0c, 0xd9, 0x81, 0xd2,
  0xfe, 0xc6, 0xe8, 0xe0, 0x0e, 0x02, 0xb1, 0xdd, 0x12, 0x9f, 0xae, 0x56,
  0x7f, 0x06, 0x5a, 0xc3, 0x4f, 0x9a, 0x38, 0xeb, 0xf1, 0xe3, 0x2f, 0x10,
  0xa4, 0x91, 0xdc, 0x2e, 0x81, 0xa7, 0x3c, 0x50, 0x4e, 0xfe, 0x16, 0x1b,
  0x5d, 0xff, 0x1e, 0x49, 0xb9, 0x0c, 0xec, 0x2f, 0x24, 0xc1, 0xe1, 0x3e,
  0xde, 0x17, 0x81, 0xb4, 0xf8, 0x77, 0xc4, 0xa8, 0xf5, 0xd8, 0x09, 0xf6,
  0x4e, 0xd7, 0x47, 0x05, 0x9a, 0x28, 0x42, 0xc0, 0x14, 0x2d, 0x98, 0x0b,
  0x02, 0x3a, 0xe9, 0x81, 0x0e, 0xde, 0xea, 0x47, 0xdc, 0xd6, 0x1d, 0x06,
  0x1d, 0xde, 0x2d, 0xd1, 0x2d, 0xf0, 0x7f, 0x3c, 0xff, 0x53, 0x07, 0x24,
  0xe4, 0xe1, 0xee, 0x06, 0x7f, 0x0f, 0xd6, 0x94, 0xf2, 0xec, 0xe6, 0xbd,
  0x19, 0x18, 0x00, 0x31, 0x5b, 0xb3, 0x38, 0x4b, 0xb0, 0x4f, 0x8a, 0x1c,
  0x1d, 0xe6, 0x38, 0xee, 0xf9, 0xed, 0x4e, 0xd4, 0x81, 0xf8, 0x07, 0x5e,
  0x55, 0xe6, 0xb3, 0xb8, 0xf8, 0xd3, 0xfd, 0xf6, 0x81, 0x3e, 0x05, 0xeb,
  0xcf, 0xfd, 0x12, 0xf9, 0xe0, 0xf0, 0xe0, 0x37, 0xf3, 0x40, 0xcc, 0xc3,
  0xfc, 0xb5, 0xcb, 0xfd, 0x49, 0x76, 0x81, 0x66, 0xd4, 0x48, 0x0d, 0x55,
  0x39, 0xeb, 0xf4, 0x16, 0xeb, 0xee, 0x03, 0x2a, 0x53, 0x9f, 0x2d, 0x6d,
  0x0c, 0xc5, 0x22, 0xb8, 0x58, 0x03, 0xb0, 0xf7, 0x2b, 0xf3, 0xba, 0x25,
  0xb5, 0xa7, 0x7f, 0xec, 0xf2, 0xc3, 0xfd, 0x16, 0xd8, 0x41, 0xef, 0x57,
  0xbd, 0x1d, 0x09, 0x12, 0x38, 0xcd, 0xc6, 0x2b, 0xcc, 0x31, 0x03, 0xf0,
  0x81, 0x74, 0xd2, 0xe9, 0x17, 0x02, 0x9b, 0x07, 0x06, 0xf2, 0xdb, 0xa1,
  0xc6, 0x2c, 0x49, 0xca, 0x08, 0x5a, 0x99, 0x81, 0xfc, 0xe2, 0xf4, 0xc4,
  0x23, 0x40, 0x35, 0x30, 0xd5, 0xfd, 0xbc, 0xd0, 0xfc, 0xbf, 0x7e, 0x13,
  0x20, 0x21, 0xb2, 0x4d, 0x81, 0x46, 0xe1, 0xd8, 0xcf, 0x2f, 0x1f, 0x11,
  0xcd, 0x47, 0x10, 0x41, 0xd1, 0xc7, 0x29, 0xe2, 0xd2, 0x02, 0xda, 0x83,
  0xb7, 0x18, 0x81, 0xf5, 0x44, 0x34, 0x0b, 0xbf, 0x49, 0xd9, 0xfa, 0x04,
  0x07, 0xd0, 0x0c, 0x10, 0x12, 0xe9, 0x27, 0x09, 0x15, 0x7f, 0x31, 0x14,
  0xb7, 0xf9, 0xcc, 0x54, 0xb8, 0x57, 0x17, 0xca, 0xe3, 0xd7, 0x3c, 0xf9,
  0x16, 0x01, 0xcb, 0xe8, 0x29, 0x81, 0x14, 0xfb, 0xd1, 0x33, 0x4d, 0xdf,
  0x2a, 0xef, 0xee, 0xc6, 0xdf, 0x53, 0xf9, 0x00, 0xec, 0xfb, 0xd5, 0x81,
  0xa4, 0xf9, 0x05, 0xa8, 0xe5, 0x38, 0x22, 0x43, 0x25, 0xde, 0x27, 0xf5,
  0x81, 0x21, 0x0c, 0x3f, 0x09, 0x09, 0x53, 0xc6, 0xf7, 0xaa, 0xcb, 0x57,
  0x16, 0xf1, 0xff, 0xff, 0x04, 0x00, 0x00, 0x00, 0x3c, 0x00, 0x00, 0x00,
  0x81, 0x1a, 0x2a, 0xb9, 0x81, 0x03, 0x9f, 0xb5, 0x7f, 0x7f, 0x76, 0x9a,
  0x81, 0xda, 0xba, 0x7f, 0xf5, 0x76, 0x7f, 0x07, 0x43, 0xbb, 0x81, 0xb2,
  0x99, 0x22, 0x81, 0x81, 0x02, 0x14, 0x65, 0x7f, 0xc6, 0x7f, 0x54, 0x86,
  0x74, 0xd8, 0x81, 0xc4, 0xf1, 0x7f, 0x0e, 0x81, 0xa0, 0x95, 0x2e, 0x7f,
  0x7f, 0xa8, 0xb0, 0x7f, 0x2c, 0x4d, 0xe3, 0x81, 0xf2, 0x9c, 0xdf, 0x7f,
  0x5e, 0xf1, 0xff, 0xff, 0x04, 0x00, 0x00, 0x00, 0x50, 0x00, 0x00, 0x00,
  0xe9, 0xff, 0xff, 0xff, 0xa6, 0x04, 0x00, 0x00, 0xdd, 0x02, 0x00, 0x00,
  0x01, 0xff, 0xff, 0xff, 0x24, 0x04, 0x00, 0x00, 0xb4, 0xf9, 0xff, 0xff,
  0xc8, 0xf9, 0xff, 0xff, 0x6f, 0x06, 0x00, 0x00, 0x30, 0x02, 0x00, 0x00,
  0xc8, 0x01, 0x00, 0x00, 0xc2, 0xfc, 0xff, 0xff, 0xd5, 0xff, 0xff, 0xff,
  0xbe, 0x01, 0x00, 0x00, 0x30, 0x00, 0x00, 0x00, 0x15, 0x06, 0x00, 0x00,
  0x58, 0xfe, 0xff, 0xff, 0x95, 0x03, 0x00, 0x00, 0xaf, 0xfc, 0xff, 0xff,
  0x7f, 0x07, 0x00, 0x00, 0xe3, 0x00, 0x00, 0x00, 0xba, 0xf1, 0xff, 0xff,
  0x04, 0x00, 0x00, 0x00, 0x3c, 0x00, 0x00, 0x00, 0x42, 0x3f, 0x81, 0x81,
  0x4a, 0x66, 0x81, 0x1d, 0xd5, 0x27, 0x0f, 0x7f, 0x7f, 0x21, 0xdd, 0xbf,
  0x48, 0x81, 0x81, 0xc1, 0x51, 0x81, 0xd7, 0x7e, 0xa1, 0x79, 0x7f, 0xb0,
  0x78, 0x81, 0xd4, 0x81, 0xae, 0xfd, 0x2e, 0x81, 0x81, 0xd2, 0xa4, 0x81,
  0xdb, 0xcd, 0x7f, 0xd2, 0xa5, 0x71, 0x41, 0x81, 0xb5, 0x36, 0x7f, 0x25,
  0x90, 0x81, 0x1c, 0xf4, 0x81, 0x7f, 0xc8, 0x0f, 0x02, 0xf2, 0xff, 0xff,
  0x04, 0x00, 0x00, 0x00, 0x14, 0x00, 0x00, 0x00, 0x02, 0x13, 0x1e, 0x65,
  0x12, 0xc8, 0x33, 0x23, 0xfd, 0xdf, 0x03, 0x2c, 0x52, 0x65, 0x3b, 0x7f,
  0x1e, 0x0f, 0x70, 0x1e, 0x22, 0xf2, 0xff, 0xff, 0x04, 0x00, 0x00, 0x00,
  0x14, 0x00, 0x00, 0x00, 0xce, 0x4c, 0x85, 0xd3, 0x33, 0x80, 0x4b, 0xf6,
  0x3c, 0xe6, 0xdf, 0x8a, 0x55, 0x1a, 0x21, 0x00, 0xa7, 0x7f, 0x17, 0xeb,
  0x42, 0xf2, 0xff, 0xff, 0x04, 0x00, 0x00, 0x00, 0x90, 0x01, 0x00, 0x00,
  0x14, 0x3c, 0x98, 0xca, 0x0b, 0x3b, 0xfa, 0xcf, 0xfd, 0x22, 0xb3, 0xdf,
  0x06, 0xb7, 0xbb, 0x81, 0xe3, 0x68, 0x11, 0xce, 0x7f, 0xf4, 0x18, 0x34,
  0x13, 0x08, 0x9a, 0x18, 0xf5, 0x3c, 0x6f, 0xd3, 0x9b, 0x54, 0x51, 0xe2,
  0xf2, 0xf4, 0xf1, 0x13, 0x2a, 0x28, 0x37, 0x81, 0xd9, 0x0b, 0xb1, 0x05,
  0x19, 0x02, 0xf3, 0xf0, 0x03, 0xf7, 0xf0, 0xf2, 0x30, 0x09, 0x48, 0xe9,
  0x03, 0xdc, 0xeb, 0x36, 0x81, 0xe4, 0xcf, 0xcc, 0x30, 0x26, 0x40, 0x17,
  0x13, 0x1a, 0x24, 0xed, 0x51, 0xdf, 0x69, 0x8a, 0x15, 0x37, 0xd4, 0x7f,
  0x16, 0xff, 0xd8, 0xcf, 0x49, 0xef, 0x08, 0xc8, 0xd1, 0x18, 0x02, 0x3c,
  0xc6, 0xf1, 0xe0, 0x29, 0x26, 0x08, 0x0f, 0x28, 0x66, 0x4a, 0x69, 0x59,
  0x84, 0x39, 0x5e, 0x39, 0x81, 0x25, 0xf6, 0x0e, 0x17, 0xd5, 0x3e, 0xd5,
  0x1a, 0x59, 0xcf, 0x38, 0x15, 0x0d, 0xe7, 0xe7, 0xbf, 0x07, 0x54, 0xea,
  0x4b, 0x7c, 0x4e, 0xd0, 0x43, 0xdb, 0x7f, 0xd4, 0x38, 0x0e, 0xce, 0xef,
  0x93, 0x8b, 0x6f, 0xdb, 0x23, 0xdf, 0xb2, 0xac, 0x28, 0x7a, 0x25, 0xc0,
  0x94, 0x93, 0x7a, 0x81, 0xfc, 0x0b, 0x12, 0x19, 0xb3, 0x14, 0x1f, 0xdd,
  0x3a, 0x81, 0x23, 0x97, 0xc1, 0xc1, 0x79, 0x76, 0xe1, 0xb2, 0xf7, 0x2b,
  0x26, 0x4f, 0xe1, 0x28, 0x81, 0x51, 0xbb, 0x95, 0x22, 0xbe, 0x1b, 0x32,
  0xc8, 0xf3, 0x18, 0x37, 0x07, 0xf1, 0xf9, 0xdb, 0xb6, 0xa6, 0xd9, 0x2b,
  0x96, 0x81, 0x16, 0x1e, 0x69, 0x81, 0xc7, 0x6e, 0xa9, 0xc2, 0xf6, 0x49,
  0x06, 0xf7, 0x38, 0x92, 0x54, 0x20, 0x3a, 0xdf, 0x65, 0xf9, 0x81, 0x59,
  0x27, 0x2b, 0x4e, 0xe9, 0xbe, 0x91, 0xef, 0x90, 0x5c, 0x23, 0x32, 0x06,
  0x6e, 0x85, 0x40, 0xe4, 0x27, 0xed, 0x2a, 0x11, 0x8d, 0x6e, 0x35, 0xf6,
  0xb3, 0x7f, 0xe3, 0xbb, 0x11, 0x3c, 0xd5, 0xdd, 0x9a, 0x37, 0xeb, 0x12,
  0x84, 0x2c, 0x81, 0x26, 0x57, 0x10, 0xea, 0xde, 0x46, 0xa1, 0x39, 0x01,
  0x04, 0xfb, 0x17, 0xf6, 0x9c, 0xbe, 0x7f, 0xe7, 0xf9, 0xec, 0x4d, 0xf8,
  0x9a, 0x02, 0x00, 0x4b, 0xde, 0x97, 0xfc, 0x38, 0x3f, 0x87, 0x0a, 0x0a,
  0xef, 0xcf, 0x07, 0xb5, 0xf1, 0x30, 0x27, 0x29, 0x55, 0xf1, 0x46, 0xfe,
  0xf5, 0x46, 0x41, 0xfa, 0xc9, 0xae, 0x81, 0xe5, 0x34, 0xd5, 0x81, 0xc6,
  0xbb, 0xf2, 0x04, 0xb0, 0x44, 0x3c, 0xc6, 0x06, 0x19, 0x25, 0x39, 0xcd,
  0xc6, 0x07, 0xcc, 0xda, 0xf1, 0xef, 0x09, 0xaa, 0x4c, 0x27, 0x14, 0x45,
  0xf6, 0xc6, 0xc7, 0x20, 0xed, 0x0e, 0x66, 0x7c, 0x81, 0xef, 0xfb, 0xce,
  0xe6, 0x40, 0xb7, 0xb7, 0xe2, 0xd6, 0x4c, 0x8f, 0xc1, 0x13, 0x22, 0x18,
  0xec, 0x7f, 0xf7, 0x94, 0xe4, 0xdf, 0xc3, 0xd3, 0x0b, 0x54, 0x6d, 0x59,
  0x81, 0xfd, 0x23, 0x17, 0x42, 0x26, 0x25, 0x32, 0x31, 0x25, 0x1d, 0xc9,
  0x24, 0xbc, 0x7f, 0x4e, 0xde, 0xf3, 0xff, 0xff, 0x04, 0x00, 0x00, 0x00,
  0x3c, 0x00, 0x00, 0x00, 0x7f, 0x9c, 0x94, 0x7f, 0xc8, 0x1c, 0xda, 0x72,
  0x81, 0x46, 0x81, 0x09, 0x7f, 0xe8, 0xc6, 0x7f, 0xc2, 0x1c, 0x81, 0x15,
  0x97, 0x5d, 0x4f, 0x81, 0x7f, 0x35, 0xef, 0xc4, 0x20, 0x7f, 0xd0, 0x54,
  0x7f, 0x8e, 0x7f, 0xed, 0x7f, 0xf9, 0x09, 0x7f, 0x32, 0xdc, 0x76, 0x9d,
  0x7f, 0x0d, 0x81, 0xba, 0x7f, 0xd9, 0x31, 0xfd, 0x81, 0x1e, 0xd2, 0x81,
  0x10, 0x08, 0x4c, 0x81, 0x26, 0xf4, 0xff, 0xff, 0x04, 0x00, 0x00, 0x00,
  0x50, 0x00, 0x00, 0x00, 0x2a, 0x04, 0x00, 0x00, 0x77, 0xfe, 0xff, 0xff,
  0xc2, 0xff, 0xff, 0xff, 0xc8, 0x01, 0x00, 0x00, 0xd8, 0xff, 0xff, 0xff,
  0xe1, 0xfd, 0xff, 0xff, 0xfd, 0x04, 0x00, 0x00, 0xec, 0xfe, 0xff, 0xff,
  0x1c, 0xfe, 0xff, 0xff, 0xae, 0xfe, 0xff, 0xff, 0xce, 0xfc, 0xff, 0xff,
  0x67, 0xff, 0xff, 0xff, 0xa8, 0xfd, 0xff, 0xff, 0x5b, 0xfc, 0xff, 0xff,
  0x6e, 0xfd, 0xff, 0xff, 0x5c, 0x03, 0x00, 0x00, 0xb5, 0xfd, 0xff, 0xff,
  0x54, 0x02, 0x00, 0x00, 0xdc, 0x05, 0x00, 0x00, 0xd1, 0xff, 0xff, 0xff,
  0x82, 0xf4, 0xff, 0xff, 0x04, 0x00, 0x00, 0x00, 0x3c, 0x00, 0x00, 0x00,
  0x81, 0x07, 0xce, 0xf1, 0x81, 0xf2, 0xa4, 0x7f, 0xf0, 0x08, 0x7f, 0x60,
  0xd7, 0x33, 0x7f, 0x84, 0xee, 0x81, 0x7f, 0xd7, 0x0e, 0xd1, 0xea, 0x7f,
  0x15, 0x81, 0x91, 0x81, 0x0b, 0x90, 0x81, 0xd2, 0xe7, 0x75, 0x7f, 0xa4,
  0x81, 0x1b, 0x96, 0x46, 0x81, 0xae, 0x4a, 0x7f, 0x7f, 0x81, 0x9e, 0xd2,
  0x8d, 0x19, 0x7f, 0xae, 0x7f, 0x8c, 0x95, 0x7d, 0x7f, 0xe6, 0x47, 0x81,
  0xca, 0xf4, 0xff, 0xff, 0x04, 0x00, 0x00, 0x00, 0x14, 0x00, 0x00, 0x00,
  0x7f, 0x6e, 0xba, 0xe9, 0x73, 0x70, 0x73, 0x4d, 0x12, 0x6a, 0x74, 0x13,
  0x4e, 0x2d, 0xbd, 0x5b, 0x38, 0x0e, 0xd6, 0xfe, 0xea, 0xf4, 0xff, 0xff,
  0x04, 0x00, 0x00, 0x00, 0x14, 0x00, 0x00, 0x00, 0x0d, 0x5e, 0x02, 0xfc,
  0x12, 0x13, 0x35, 0x54, 0x7f, 0x0f, 0x4f, 0x33, 0x2f, 0x37, 0x0a, 0x1e,
  0x21, 0xfc, 0x80, 0xf9, 0x0a, 0xf5, 0xff, 0xff, 0x04, 0x00, 0x00, 0x00,
  0x90, 0x01, 0x00, 0x00, 0x30, 0xb9, 0xd7, 0x2d, 0x9d, 0x81, 0x16, 0xb7,
  0x6f, 0x2d, 0xd8, 0x81, 0xa4, 0xb9, 0x9e, 0x87, 0xa6, 0x24, 0x59, 0x06,
  0x5d, 0xc8, 0x16, 0x0f, 0xb2, 0x30, 0x7f, 0xf6, 0xdf, 0xf6, 0xd3, 0xf7,
  0xe1, 0x22, 0xb6, 0xd0, 0xff, 0xe0, 0x28, 0xab, 0xc1, 0x8d, 0x4b, 0xb8,
  0x5f, 0xe6, 0x7f, 0x1d, 0xb2, 0xf1, 0xef, 0x08, 0xd2, 0x21, 0x62, 0x03,
  0xbf, 0xe8, 0x01, 0xe8, 0xfa, 0x2d, 0xe3, 0x4f, 0xff, 0x0b, 0xd1, 0x04,
  0x18, 0xc0, 0xd1, 0xdd, 0xd4, 0xcf, 0xb1, 0x7f, 0x0f, 0xd6, 0x22, 0x19,
  0x35, 0xbf, 0x47, 0xa9, 0x62, 0x52, 0xc9, 0x97, 0xbf, 0x5b, 0xfc, 0xab,
  0x60, 0x7f, 0xb0, 0x58, 0x46, 0x50, 0xd8, 0x56, 0xb6, 0xc7, 0xec, 0xd8,
  0xf0, 0x9d, 0x81, 0xe6, 0xd6, 0x02, 0xb1, 0x3e, 0x1e, 0x67, 0x04, 0xdc,
  0x71, 0x19, 0xc4, 0x54, 0xad, 0x0b, 0x3e, 0xe3, 0x7f, 0x49, 0xf5, 0x08,
  0x66, 0xfa, 0xaa, 0xc6, 0xaa, 0xb0, 0x37, 0xe2, 0x39, 0xc5, 0xdc, 0xda,
  0xc4, 0x08, 0x26, 0xc6, 0x0c, 0xec, 0x02, 0xd6, 0xe1, 0xe6, 0xbe, 0x2a,
  0x45, 0x5f, 0xbf, 0x30, 0xb8, 0x81, 0xb3, 0xc2, 0xef, 0xdf, 0x2e, 0x4b,
  0x10, 0x29, 0xf8, 0xc7, 0x0c, 0xe1, 0xff, 0x26, 0x81, 0xf3, 0x0f, 0xec,
  0x33, 0xb8, 0xe0, 0x50, 0x11, 0x94, 0x77, 0x95, 0xde, 0xe8, 0x3a, 0xfe,
  0x10, 0x3e, 0x10, 0xf7, 0x81, 0x1c, 0xe7, 0xe6, 0x19, 0x21, 0xb9, 0xee,
  0x50, 0x12, 0x14, 0x24, 0x09, 0x2d, 0xf9, 0x05, 0x12, 0x67, 0x59, 0x03,
  0x1c, 0xeb, 0x02, 0x33, 0xf6, 0x7f, 0x1e, 0xc9, 0x5f, 0xa3, 0xfb, 0xaf,
  0x13, 0x44, 0x76, 0x65, 0x1d, 0xbf, 0xe7, 0xb2, 0xbe, 0x7f, 0xea, 0xf5,
  0x0b, 0x28, 0x4c, 0x09, 0xce, 0x91, 0xf6, 0xf9, 0x6a, 0x75, 0xeb, 0x40,
  0x2d, 0xec, 0x7f, 0xfc, 0xc4, 0x4d, 0x43, 0xe1, 0x16, 0x04, 0xa3, 0x26,
  0x02, 0x1d, 0x03, 0x08, 0xd1, 0xfa, 0xbf, 0xac, 0x0f, 0xb1, 0x2a, 0xef,
  0xcc, 0x09, 0x17, 0xbf, 0x05, 0xfa, 0x29, 0x81, 0x18, 0x2f, 0x16, 0xe8,
  0x45, 0x38, 0x5f, 0x41, 0xdc, 0xd5, 0xd7, 0xf7, 0x03, 0x81, 0xd1, 0xf2,
  0x23, 0xb0, 0x31, 0xa3, 0x7f, 0xda, 0x0e, 0xd6, 0x0a, 0x42, 0x0c, 0xe7,
  0xde, 0x22, 0x01, 0xdd, 0x38, 0x19, 0x11, 0x36, 0xfa, 0x1a, 0x0b, 0x3a,
  0xbf, 0xe9, 0x36, 0xf8, 0xc0, 0x15, 0xbb, 0x1f, 0x67, 0x81, 0x98, 0x2a,
  0xfd, 0xa4, 0xe4, 0xdf, 0xaf, 0x18, 0x08, 0xd1, 0x35, 0x2f, 0x56, 0x44,
  0xa7, 0xf5, 0xff, 0xa8, 0xc0, 0x7f, 0xce, 0xb1, 0x47, 0x1a, 0xda, 0xfd,
  0xab, 0x78, 0xa1, 0x13, 0x59, 0xf0, 0xd6, 0x4b, 0x58, 0x2b, 0xb9, 0xb5,
  0x17, 0xe8, 0xc1, 0x0c, 0xfd, 0x75, 0x30, 0x7f, 0x38, 0x74, 0x2f, 0x6a,
  0x08, 0x28, 0x13, 0xbc, 0x7f, 0xba, 0x45, 0xf5, 0xe1, 0xc0, 0xa6, 0xbe,
  0xf6, 0xe8, 0xe0, 0xb5, 0xf0, 0x1b, 0x31, 0x42, 0xa6, 0xf6, 0xff, 0xff,
  0x04, 0x00, 0x00, 0x00, 0xf4, 0x01, 0x00, 0x00, 0xb4, 0x8f, 0xdf, 0xc0,
  0xf1, 0x98, 0x06, 0xd8, 0xb5, 0xae, 0xa1, 0x9e, 0xa1, 0x07, 0x12, 0x81,
  0x8e, 0xf6, 0xfa, 0x09, 0x89, 0x07, 0xad, 0xdb, 0xcb, 0x94, 0xac, 0xc9,
  0xbd, 0x9b, 0xb4, 0x90, 0xeb, 0xb2, 0xd5, 0xcf, 0xbe, 0xde, 0xce, 0xab,
  0x81, 0xe2, 0xac, 0x24, 0xc0, 0xca, 0xcc, 0xdc, 0xbf, 0xf6, 0xde, 0x81,
  0xa0, 0xf1, 0x40, 0xf9, 0xc6, 0xad, 0xd5, 0x18, 0xa6, 0x98, 0xd4, 0x11,
  0x4a, 0xb6, 0xc2, 0xcb, 0x05, 0x18, 0xd2, 0xa9, 0xb3, 0x04, 0x2c, 0x14,
  0x1a, 0xd4, 0x0a, 0x50, 0xe7, 0x79, 0xdc, 0x37, 0x7f, 0x2a, 0x52, 0x28,
  0xe0, 0x27, 0x20, 0x12, 0x38, 0x33, 0x7e, 0xd8, 0x59, 0xf4, 0x21, 0x65,
  0x51, 0x37, 0xfa, 0xeb, 0xf6, 0x7f, 0x46, 0xf3, 0x2b, 0xfa, 0x64, 0x51,
  0x29, 0x22, 0xcc, 0x6e, 0x64, 0x33, 0xdf, 0xd8, 0x54, 0x5b, 0x08, 0x04,
  0xff, 0xcc, 0x49, 0x3c, 0x72, 0x04, 0x22, 0x35, 0x36, 0x30, 0x47, 0x61,
  0xf9, 0xe4, 0x05, 0x7f, 0x17, 0xdd, 0x43, 0xdf, 0x71, 0x5d, 0x35, 0x13,
  0xe3, 0x59, 0x4f, 0xfb, 0x36, 0x66, 0xbf, 0x64, 0x3c, 0x7f, 0x43, 0xe9,
  0x2f, 0x67, 0x2f, 0x57, 0xd4, 0x6c, 0x65, 0x34, 0x11, 0x05, 0x56, 0x58,
  0x5c, 0x20, 0xd6, 0xb5, 0x81, 0x03, 0xca, 0xcd, 0xaf, 0xc7, 0xbf, 0xc6,
  0x19, 0xb0, 0x94, 0x9a, 0xee, 0xb7, 0xd7, 0xae, 0xeb, 0x01, 0xec, 0xac,
  0xe0, 0x07, 0x05, 0xb4, 0xc6, 0xfa, 0xb4, 0x00, 0x29, 0xf3, 0xef, 0xbf,
  0x16, 0xbc, 0xa4, 0xb8, 0xb0, 0xff, 0xf6, 0xba, 0xc5, 0xd1, 0xe2, 0xb7,
  0xa3, 0xad, 0x81, 0x1e, 0xc9, 0x7f, 0x51, 0x20, 0x74, 0xd1, 0x34, 0x0c,
  0x28, 0x26, 0x1e, 0x78, 0x1a, 0x44, 0x78, 0x0d, 0x5f, 0x06, 0x35, 0x48,
  0x01, 0x1d, 0x76, 0x25, 0x37, 0x2a, 0x4b, 0x36, 0x1f, 0x58, 0xec, 0xeb,
  0xfa, 0xff, 0xfb, 0xd4, 0xa2, 0x19, 0xb7, 0x00, 0xfb, 0x81, 0x41, 0x1b,
  0xc2, 0xad, 0xa1, 0x82, 0xfd, 0x87, 0xde, 0x4d, 0x57, 0x67, 0x22, 0x06,
  0x18, 0xf7, 0x07, 0x47, 0x62, 0x7f, 0x4f, 0x4e, 0x62, 0x04, 0x0e, 0x16,
  0x04, 0x0d, 0x52, 0x4b, 0x58, 0xe8, 0xf7, 0x1d, 0xca, 0xbd, 0xdd, 0xa9,
  0x9c, 0xe0, 0xc8, 0xc9, 0xf9, 0xb2, 0x81, 0x0f, 0xe5, 0xe5, 0xbc, 0x9a,
  0xbd, 0x13, 0x85, 0xc2, 0xfa, 0xcc, 0x2c, 0x0b, 0xdc, 0xf7, 0xc7, 0x0b,
  0x05, 0xb3, 0x22, 0xe9, 0xf5, 0x11, 0xb1, 0x1a, 0x08, 0xef, 0x12, 0xb9,
  0x48, 0xe2, 0xf1, 0x1a, 0xb3, 0x5b, 0x09, 0x36, 0x37, 0x81, 0xcb, 0x23,
  0x1a, 0x81, 0xf2, 0xf0, 0x9b, 0xc3, 0xb8, 0xf5, 0x9d, 0x14, 0x3a, 0xbe,
  0xb6, 0xdc, 0xf2, 0xa4, 0xe6, 0x1e, 0xed, 0x03, 0xe8, 0x96, 0xbe, 0x14,
  0x18, 0xcc, 0xeb, 0x30, 0x16, 0x63, 0x18, 0x43, 0x57, 0x7f, 0x14, 0x3b,
  0x22, 0x53, 0x1f, 0x59, 0x14, 0xe4, 0x0d, 0x47, 0x3e, 0xad, 0x4a, 0x31,
  0xe1, 0xf1, 0xb2, 0xea, 0x81, 0xd3, 0xd1, 0xed, 0xb4, 0x9e, 0xf9, 0xe8,
  0xa4, 0xd4, 0xa0, 0x0d, 0xba, 0xcd, 0x0a, 0xea, 0xaa, 0xf8, 0x0a, 0xe5,
  0xe8, 0xca, 0xd6, 0xba, 0xe7, 0x5a, 0xbb, 0xdb, 0xf4, 0x0f, 0x53, 0xac,
  0xfb, 0xc3, 0x15, 0x2a, 0x82, 0x08, 0xf2, 0xec, 0x22, 0x81, 0xee, 0x14,
  0x55, 0x0c, 0x01, 0x1e, 0x15, 0x3a, 0xc5, 0x31, 0x38, 0x3f, 0x4a, 0xe3,
  0x43, 0x11, 0x7f, 0x47, 0x32, 0x2f, 0xe2, 0x03, 0x27, 0xe3, 0xf7, 0x4b,
  0x7f, 0x15, 0x46, 0x7f, 0x1f, 0x58, 0x39, 0x0f, 0x49, 0x49, 0xf7, 0x71,
  0x5b, 0x64, 0x12, 0xf6, 0x13, 0x30, 0x31, 0xd0, 0xe6, 0x41, 0x3e, 0xed,
  0xf9, 0x10, 0x31, 0x41, 0xa6, 0xf8, 0xff, 0xff, 0x04, 0x00, 0x00, 0x00,
  0x80, 0x02, 0x00, 0x00, 0x81, 0x09, 0xf8, 0x2a, 0xdd, 0x13, 0x0b, 0x37,
  0x14, 0xcc, 0xef, 0xd7, 0x2a, 0x35, 0x05, 0x11, 0x39, 0x07, 0xc8, 0x20,
  0xf6, 0x45, 0xa9, 0x3f, 0x06, 0x4b, 0xf1, 0x21, 0x22, 0x7f, 0x01, 0x2f,
  0x37, 0x1a, 0x0c, 0x26, 0x26, 0x08, 0x35, 0x24, 0xbe, 0xfc, 0x1d, 0xf5,
  0xfd, 0xc8, 0x25, 0x14, 0x37, 0x2c, 0x1a, 0xca, 0x26, 0xf4, 0x81, 0xcc,
  0x11, 0x08, 0xb0, 0x4b, 0x0e, 0x24, 0x00, 0x7f, 0xcb, 0xfb, 0x1a, 0xd1,
  0x23, 0x08, 0xf8, 0x05, 0x47, 0x4f, 0xf9, 0x0b, 0x0b, 0x04, 0x37, 0xe6,
  0xe5, 0xf3, 0x28, 0x62, 0xda, 0xbd, 0x34, 0xec, 0x4e, 0x50, 0xc3, 0x5d,
  0xce, 0x81, 0xd4, 0xe5, 0x2b, 0xea, 0x03, 0x05, 0x03, 0xcf, 0x81, 0x13,
  0xcd, 0x00, 0x0b, 0x00, 0xf5, 0xed, 0x04, 0x23, 0x3a, 0x18, 0x06, 0xf9,
  0x26, 0x16, 0xae, 0x0d, 0x1d, 0x35, 0x7f, 0x47, 0x0b, 0x7c, 0x45, 0xa0,
  0x1e, 0x17, 0xe0, 0xbc, 0xcb, 0x3f, 0xf5, 0xf3, 0x50, 0x05, 0x23, 0x8d,
  0xbd, 0x77, 0x0d, 0xb0, 0x30, 0xfe, 0xdd, 0x40, 0x0f, 0x0c, 0x92, 0x46,
  0xe2, 0xcf, 0xfd, 0x20, 0x47, 0x81, 0x39, 0xf4, 0x0e, 0xd1, 0x05, 0x2d,
  0xba, 0x40, 0x7b, 0xcf, 0xde, 0xae, 0xc0, 0xb5, 0xf1, 0x7b, 0x81, 0xc9,
  0x2d, 0x6c, 0xd7, 0x37, 0x7f, 0xc5, 0xeb, 0x1d, 0x49, 0x0c, 0x8e, 0x88,
  0xaa, 0x0c, 0x25, 0xf4, 0x03, 0x25, 0x21, 0x77, 0x59, 0x3c, 0xf9, 0x58,
  0x81, 0xc2, 0x4b, 0xf6, 0xd9, 0x48, 0xe2, 0xf2, 0xfc, 0x33, 0xa1, 0x15,
  0x42, 0xb9, 0x2a, 0xa7, 0xae, 0x1e, 0x9d, 0x2b, 0x81, 0xdc, 0x11, 0x3c,
  0xf5, 0x06, 0x10, 0x36, 0x20, 0xf6, 0x19, 0xf6, 0x10, 0xec, 0x2e, 0xd1,
  0x32, 0x14, 0xc4, 0x35, 0xff, 0xe0, 0x31, 0x7a, 0x81, 0x0d, 0x16, 0xa4,
  0xbe, 0xf4, 0x28, 0xc2, 0x52, 0x4e, 0xc6, 0xdf, 0xff, 0xc1, 0xfc, 0xbf,
  0xf9, 0x00, 0xf6, 0x81, 0x2d, 0x07, 0x0c, 0xf7, 0x28, 0x2f, 0x6e, 0x5c,
  0xbd, 0xb9, 0xff, 0x08, 0x2d, 0x3b, 0x92, 0x18, 0x0f, 0x9e, 0x96, 0xdf,
  0x13, 0xdf, 0xca, 0xd6, 0xf5, 0x3b, 0xd9, 0x4b, 0x56, 0xbe, 0xb4, 0xfb,
  0x2a, 0xff, 0x81, 0x1c, 0xc0, 0xbd, 0xe0, 0xdf, 0xd6, 0x1a, 0xe3, 0x7f,
  0x59, 0xd9, 0xa7, 0x6d, 0xd2, 0xeb, 0xfc, 0xea, 0xfa, 0x4d, 0x4f, 0x10,
  0x04, 0x2d, 0xd8, 0x01, 0xe2, 0xbd, 0x21, 0xec, 0x23, 0xf4, 0x0c, 0x7f,
  0x14, 0xdb, 0x01, 0xd0, 0x26, 0x2d, 0x2f, 0xec, 0xdd, 0x14, 0x0c, 0xe7,
  0x14, 0x47, 0xff, 0xfc, 0x81, 0xef, 0x03, 0xe6, 0x12, 0x0e, 0x05, 0x0d,
  0x36, 0x0b, 0x1e, 0x21, 0x32, 0x1a, 0x6f, 0xfa, 0x29, 0x10, 0x60, 0x06,
  0xfd, 0xbf, 0x2e, 0xf9, 0xef, 0xec, 0xc9, 0x81, 0xc8, 0xea, 0x34, 0xfc,
  0xaa, 0x7f, 0x27, 0xfd, 0xf8, 0xd2, 0x0e, 0xc6, 0x2f, 0x1b, 0xd9, 0xfb,
  0x07, 0xd0, 0xf9, 0xfd, 0x2b, 0xd5, 0xa8, 0x3b, 0x10, 0x24, 0x81, 0x24,
  0x21, 0x60, 0xf1, 0x35, 0x27, 0x04, 0xa7, 0xea, 0xdd, 0xea, 0xe0, 0x41,
  0xf2, 0xb6, 0x22, 0x56, 0xf6, 0xcb, 0xe6, 0x02, 0x74, 0x3d, 0xec, 0xdf,
  0xfd, 0x11, 0x0f, 0xf1, 0x2d, 0x26, 0x3d, 0xf1, 0x2c, 0x7f, 0xcf, 0x0c,
  0xad, 0xee, 0x73, 0x29, 0x61, 0xf0, 0xc9, 0xd5, 0xd5, 0xbf, 0x35, 0x01,
  0xbb, 0xed, 0x94, 0x7f, 0x50, 0x4f, 0x23, 0xa2, 0x06, 0xb6, 0xd7, 0xd7,
  0xce, 0xf8, 0xb0, 0x41, 0xb5, 0xed, 0x3e, 0xea, 0xd7, 0x3c, 0xd8, 0x7f,
  0x3b, 0x36, 0x54, 0x4e, 0x12, 0x25, 0xe2, 0xef, 0x62, 0xbe, 0x59, 0xcc,
  0x99, 0xaf, 0x8d, 0xef, 0x81, 0xd6, 0x65, 0x47, 0x29, 0xe9, 0x4a, 0xff,
  0x2f, 0xc5, 0xc5, 0xff, 0x44, 0xaa, 0x0a, 0xc5, 0x42, 0x0e, 0x11, 0x23,
  0x00, 0xfe, 0xcc, 0xcc, 0x08, 0x56, 0x81, 0xd4, 0x1e, 0xff, 0xa4, 0xd3,
  0xe0, 0xe8, 0x7f, 0xb4, 0x15, 0xef, 0x3c, 0x04, 0xe4, 0xc1, 0xf2, 0x07,
  0x05, 0x2f, 0xa5, 0x3e, 0xf7, 0xf4, 0xc9, 0x7f, 0x82, 0xfa, 0xb6, 0x22,
  0xdc, 0xc9, 0x13, 0x03, 0x27, 0x5e, 0xe6, 0x44, 0xfb, 0x59, 0x17, 0x43,
  0xba, 0x28, 0x7f, 0x39, 0x0e, 0x4f, 0xfe, 0xeb, 0xfd, 0xa0, 0xfa, 0x03,
  0xce, 0x41, 0xcb, 0x04, 0xb0, 0x48, 0xa8, 0x35, 0x81, 0x35, 0x33, 0x1a,
  0xc7, 0xd1, 0xdc, 0xfe, 0x20, 0x0b, 0xd8, 0xf1, 0x3a, 0x26, 0x8c, 0xf7,
  0x19, 0xcd, 0xec, 0x23, 0x41, 0x2c, 0xd3, 0xdd, 0x07, 0x15, 0x0e, 0xeb,
  0xe4, 0x2e, 0xbd, 0xde, 0x81, 0x0d, 0x14, 0x68, 0x21, 0xbc, 0x27, 0xfc,
  0xb9, 0xcd, 0x0d, 0xf8, 0xbb, 0x18, 0x64, 0xbe, 0x26, 0x7f, 0xf6, 0xb4,
  0x56, 0x86, 0xde, 0x1f, 0x16, 0xd6, 0xc2, 0xd7, 0x32, 0xfb, 0xff, 0xff,
  0x04, 0x00, 0x00, 0x00, 0x80, 0x00, 0x00, 0x00, 0xc2, 0x0a, 0x00, 0x00,
  0x15, 0xee, 0xff, 0xff, 0xf4, 0x09, 0x00, 0x00, 0x2f, 0xff, 0xff, 0xff,
  0x99, 0xf2, 0xff, 0xff, 0xb0, 0x01, 0x00, 0x00, 0x11, 0x05, 0x00, 0x00,
  0x1d, 0xfe, 0xff, 0xff, 0x25, 0xfe, 0xff, 0xff, 0x40, 0x04, 0x00, 0x00,
  0xf0, 0xfc, 0xff, 0xff, 0xe3, 0x05, 0x00, 0x00, 0x7c, 0x06, 0x00, 0x00,
  0xc8, 0x00, 0x00, 0x00, 0xc9, 0xfd, 0xff, 0xff, 0x51, 0xf6, 0xff, 0xff,
  0x3c, 0xfd, 0xff, 0xff, 0x8c, 0xfb, 0xff, 0xff, 0x1e, 0x04, 0x00, 0x00,
  0xdc, 0x0a, 0x00, 0x00, 0xaa, 0xe8, 0xff, 0xff, 0xa7, 0x00, 0x00, 0x00,
  0x9c, 0x00, 0x00, 0x00, 0x0a, 0xfe, 0xff, 0xff, 0x30, 0xef, 0xff, 0xff,
  0x9f, 0x07, 0x00, 0x00, 0x02, 0xf8, 0xff, 0xff, 0x5c, 0x03, 0x00, 0x00,
  0xbc, 0x02, 0x00, 0x00, 0x4f, 0x08, 0x00, 0x00, 0x6f, 0xf2, 0xff, 0xff,
  0x36, 0xfb, 0xff, 0xff, 0xbe, 0xfb, 0xff, 0xff, 0x04, 0x00, 0x00, 0x00,
  0x00, 0x01, 0x00, 0x00, 0x90, 0x1e, 0xb0, 0xcd, 0x13, 0x99, 0xb7, 0x0c,
  0xcb, 0xc3, 0x36, 0x81, 0xd1, 0xe5, 0xcb, 0x3c, 0x1c, 0xd6, 0x44, 0xda,
  0x20, 0xb8, 0xb1, 0x03, 0x11, 0xc3, 0xc3, 0x1c, 0x3e, 0xd9, 0x08, 0x97,
  0xd7, 0x14, 0xd8, 0x48, 0x16, 0xe5, 0x1f, 0x46, 0x44, 0x4f, 0xb1, 0xcd,
  0x3c, 0x6e, 0xb7, 0xc3, 0xbd, 0x18, 0xbf, 0x0b, 0x7f, 0xa8, 0xac, 0x0b,
  0x18, 0xd8, 0x5f, 0x1a, 0xa8, 0xdc, 0x60, 0x16, 0xa4, 0x97, 0xea, 0x85,
  0x82, 0x9d, 0x6e, 0xe9, 0x2b, 0x48, 0xb8, 0x00, 0xb3, 0x13, 0xa8, 0xd6,
  0xa3, 0x4c, 0x36, 0xe0, 0xf4, 0x6e, 0x7f, 0x0d, 0x3b, 0x4c, 0x12, 0xb0,
  0x06, 0xca, 0x58, 0xc2, 0xd9, 0xd4, 0x27, 0xf4, 0x28, 0x47, 0xa6, 0x81,
  0xc2, 0xe6, 0xde, 0xf6, 0xa8, 0x50, 0x66, 0xf7, 0x26, 0xb1, 0xfb, 0x9d,
  0xef, 0xfd, 0xb7, 0xee, 0x37, 0x7b, 0x7b, 0x02, 0xb0, 0xce, 0x18, 0xf6,
  0x27, 0x56, 0x47, 0x29, 0x64, 0x9d, 0x14, 0x26, 0xb5, 0x8a, 0x3a, 0x38,
  0xb2, 0x0e, 0x00, 0xe8, 0x14, 0xab, 0x0d, 0x73, 0xca, 0xf6, 0xce, 0x81,
  0x87, 0xf9, 0xd5, 0xcf, 0xa8, 0x3a, 0xcb, 0x51, 0x54, 0x8d, 0x44, 0x48,
  0xe1, 0xd0, 0x3b, 0xcc, 0x7f, 0x9a, 0x22, 0x18, 0x4c, 0xad, 0x93, 0x9a,
  0xfd, 0x1c, 0xce, 0x2f, 0xc7, 0x37, 0xe1, 0xb1, 0xb8, 0xc3, 0xfa, 0x24,
  0x2a, 0x70, 0xc2, 0x0e, 0xe8, 0x42, 0x88, 0x19, 0xe0, 0x6f, 0xa6, 0xc7,
  0xfa, 0x5a, 0xd7, 0xdc, 0x26, 0xbd, 0x60, 0xd3, 0xda, 0x2d, 0xfa, 0x81,
  0x19, 0x2d, 0xc9, 0x57, 0xba, 0xeb, 0xd7, 0x4f, 0xb6, 0xf7, 0x04, 0x17,
  0x2f, 0xe6, 0x1b, 0x40, 0x45, 0xaf, 0xd4, 0x0e, 0x81, 0xaf, 0xd8, 0x2e,
  0xe1, 0x3f, 0xb5, 0x62, 0x49, 0xa1, 0xd2, 0x11, 0xb0, 0xc6, 0x32, 0x2a,
  0xd5, 0xb5, 0x04, 0xf6, 0xf3, 0x18, 0xfc, 0xac, 0xca, 0xfc, 0xff, 0xff,
  0x04, 0x00, 0x00, 0x00, 0x20, 0x00, 0x00, 0x00, 0x36, 0xff, 0xff, 0xff,
  0xde, 0x04, 0x00, 0x00, 0xa5, 0xfe, 0xff, 0xff, 0x0a, 0x01, 0x00, 0x00,
  0x22, 0x02, 0x00, 0x00, 0xc6, 0xfc, 0xff, 0xff, 0x4d, 0x00, 0x00, 0x00,
  0xf6, 0xfe, 0xff, 0xff, 0xf6, 0xfc, 0xff, 0xff, 0x04, 0x00, 0x00, 0x00,
  0x08, 0x00, 0x00, 0x00, 0xff, 0xff, 0xff, 0xff, 0x08, 0x00, 0x00, 0x00,
  0x0a, 0xfd, 0xff, 0xff, 0x04, 0x00, 0x00, 0x00, 0x08, 0x00, 0x00, 0x00,
  0x01, 0x00, 0x00, 0x00, 0x02, 0x00, 0x00, 0x00, 0x1e, 0xfd, 0xff, 0xff,
  0x04, 0x00, 0x00, 0x00, 0x04, 0x00, 0x00, 0x00, 0x01, 0x00, 0x00, 0x00,
  0xd4, 0xc9, 0xfe, 0xff, 0xd8, 0xc9, 0xfe, 0xff, 0x0f, 0x00, 0x00, 0x00,
  0x4d, 0x4c, 0x49, 0x52, 0x20, 0x43, 0x6f, 0x6e, 0x76, 0x65, 0x72, 0x74,
  0x65, 0x64, 0x2e, 0x00, 0x01, 0x00, 0x00, 0x00, 0x14, 0x00, 0x00, 0x00,
  0x00, 0x00, 0x0e, 0x00, 0x18, 0x00, 0x14, 0x00, 0x10, 0x00, 0x0c, 0x00,
  0x08, 0x00, 0x04, 0x00, 0x0e, 0x00, 0x00, 0x00, 0x14, 0x00, 0x00, 0x00,
  0x1c, 0x00, 0x00, 0x00, 0xcc, 0x1f, 0x00, 0x00, 0xd0, 0x1f, 0x00, 0x00,
  0xd4, 0x1f, 0x00, 0x00, 0x04, 0x00, 0x00, 0x00, 0x6d, 0x61, 0x69, 0x6e,
  0x00, 0x00, 0x00, 0x00, 0x97, 0x00, 0x00, 0x00, 0x68, 0x1f, 0x00, 0x00,
  0x08, 0x1f, 0x00, 0x00, 0xc0, 0x1e, 0x00, 0x00, 0x80, 0x1e, 0x00, 0x00,
  0x34, 0x1e, 0x00, 0x00, 0x10, 0x1e, 0x00, 0x00, 0xd0, 0x1d, 0x00, 0x00,
  0x9c, 0x1d, 0x00, 0x00, 0x68, 0x1d, 0x00, 0x00, 0x44, 0x1d, 0x00, 0x00,
  0x10, 0x1d, 0x00, 0x00, 0xc4, 0x1c, 0x00, 0x00, 0x8c, 0x1c, 0x00, 0x00,
  0x50, 0x1c, 0x00, 0x00, 0x18, 0x1c, 0x00, 0x00, 0xdc, 0x1b, 0x00, 0x00,
  0xb8, 0x1b, 0x00, 0x00, 0x84, 0x1b, 0x00, 0x00, 0x50, 0x1b, 0x00, 0x00,
  0x1c, 0x1b, 0x00, 0x00, 0xf8, 0x1a, 0x00, 0x00, 0xc4, 0x1a, 0x00, 0x00,
  0x84, 0x1a, 0x00, 0x00, 0x50, 0x1a, 0x00, 0x00, 0x18, 0x1a, 0x00, 0x00,
  0xd4, 0x19, 0x00, 0x00, 0x98, 0x19, 0x00, 0x00, 0x60, 0x19, 0x00, 0x00,
  0x24, 0x19, 0x00, 0x00, 0x00, 0x19, 0x00, 0x00, 0xcc, 0x18, 0x00, 0x00,
  0x98, 0x18, 0x00, 0x00, 0x64, 0x18, 0x00, 0x00, 0x40, 0x18, 0x00, 0x00,
  0x0c, 0x18, 0x00, 0x00, 0xcc, 0x17, 0x00, 0x00, 0x94, 0x17, 0x00, 0x00,
  0x58, 0x17, 0x00, 0x00, 0x20, 0x17, 0x00, 0x00, 0xe4, 0x16, 0x00, 0x00,
  0xc0, 0x16, 0x00, 0x00, 0x8c, 0x16, 0x00, 0x00, 0x58, 0x16, 0x00, 0x00,
  0x24, 0x16, 0x00, 0x00, 0x00, 0x16, 0x00, 0x00, 0xcc, 0x15, 0x00, 0x00,
  0x8c, 0x15, 0x00, 0x00, 0x58, 0x15, 0x00, 0x00, 0x20, 0x15, 0x00, 0x00,
  0xdc, 0x14, 0x00, 0x00, 0xa0, 0x14, 0x00, 0x00, 0x68, 0x14, 0x00, 0x00,
  0x2c, 0x14, 0x00, 0x00, 0x08, 0x14, 0x00, 0x00, 0xd4, 0x13, 0x00, 0x00,
  0xa0, 0x13, 0x00, 0x00, 0x6c, 0x13, 0x00, 0x00, 0x48, 0x13, 0x00, 0x00,
  0x14, 0x13, 0x00, 0x00, 0xd4, 0x12, 0x00, 0x00, 0x9c, 0x12, 0x00, 0x00,
  0x60, 0x12, 0x00, 0x00, 0x28, 0x12, 0x00, 0x00, 0xec, 0x11, 0x00, 0x00,
  0xc8, 0x11, 0x00, 0x00, 0x94, 0x11, 0x00, 0x00, 0x60, 0x11, 0x00, 0x00,
  0x2c, 0x11, 0x00, 0x00, 0x08, 0x11, 0x00, 0x00, 0xd4, 0x10, 0x00, 0x00,
  0x94, 0x10, 0x00, 0x00, 0x60, 0x10, 0x00, 0x00, 0x28, 0x10, 0x00, 0x00,
  0xec, 0x0f, 0x00, 0x00, 0xb4, 0x0f, 0x00, 0x00, 0x78, 0x0f, 0x00, 0x00,
  0x54, 0x0f, 0x00, 0x00, 0x20, 0x0f, 0x00, 0x00, 0xec, 0x0e, 0x00, 0x00,
  0xb8, 0x0e, 0x00, 0x00, 0x94, 0x0e, 0x00, 0x00, 0x60, 0x0e, 0x00, 0x00,
  0x20, 0x0e, 0x00, 0x00, 0xec, 0x0d, 0x00, 0x00, 0xb4, 0x0d, 0x00, 0x00,
  0x78, 0x0d, 0x00, 0x00, 0x40, 0x0d, 0x00, 0x00, 0x04, 0x0d, 0x00, 0x00,
  0xe0, 0x0c, 0x00, 0x00, 0xac, 0x0c, 0x00, 0x00, 0x78, 0x0c, 0x00, 0x00,
  0x44, 0x0c, 0x00, 0x00, 0x20, 0x0c, 0x00, 0x00, 0xec, 0x0b, 0x00, 0x00,
  0xac, 0x0b, 0x00, 0x00, 0x78, 0x0b, 0x00, 0x00, 0x40, 0x0b, 0x00, 0x00,
  0xfc, 0x0a, 0x00, 0x00, 0xc0, 0x0a, 0x00, 0x00, 0x88, 0x0a, 0x00, 0x00,
  0x4c, 0x0a, 0x00, 0x00, 0x28, 0x0a, 0x00, 0x00, 0xf4, 0x09, 0x00, 0x00,
  0xc0, 0x09, 0x00, 0x00, 0x8c, 0x09, 0x00, 0x00, 0x68, 0x09, 0x00, 0x00,
  0x34, 0x09, 0x00, 0x00, 0xf4, 0x08, 0x00, 0x00, 0xbc, 0x08, 0x00, 0x00,
  0x80, 0x08, 0x00, 0x00, 0x48, 0x08, 0x00, 0x00, 0x0c, 0x08, 0x00, 0x00,
  0xe8, 0x07, 0x00, 0x00, 0xb4, 0x07, 0x00, 0x00, 0x80, 0x07, 0x00, 0x00,
  0x4c, 0x07, 0x00, 0x00, 0x28, 0x07, 0x00, 0x00, 0xf4, 0x06, 0x00, 0x00,
  0xb4, 0x06, 0x00, 0x00, 0x80, 0x06, 0x00, 0x00, 0x48, 0x06, 0x00, 0x00,
  0x0c, 0x06, 0x00, 0x00, 0xd4, 0x05, 0x00, 0x00, 0x98, 0x05, 0x00, 0x00,
  0x74, 0x05, 0x00, 0x00, 0x40, 0x05, 0x00, 0x00, 0x0c, 0x05, 0x00, 0x00,
  0xd8, 0x04, 0x00, 0x00, 0xb4, 0x04, 0x00, 0x00, 0x80, 0x04, 0x00, 0x00,
  0x40, 0x04, 0x00, 0x00, 0x0c, 0x04, 0x00, 0x00, 0xd4, 0x03, 0x00, 0x00,
  0x98, 0x03, 0x00, 0x00, 0x60, 0x03, 0x00, 0x00, 0x24, 0x03, 0x00, 0x00,
  0x00, 0x03, 0x00, 0x00, 0xcc, 0x02, 0x00, 0x00, 0x98, 0x02, 0x00, 0x00,
  0x64, 0x02, 0x00, 0x00, 0x40, 0x02, 0x00, 0x00, 0x0c, 0x02, 0x00, 0x00,
  0xcc, 0x01, 0x00, 0x00, 0x98, 0x01, 0x00, 0x00, 0x60, 0x01, 0x00, 0x00,
  0x24, 0x01, 0x00, 0x00, 0xe0, 0x00, 0x00, 0x00, 0xa8, 0x00, 0x00, 0x00,
  0x68, 0x00, 0x00, 0x00, 0x40, 0x00, 0x00, 0x00, 0x04, 0x00, 0x00, 0x00,
  0xde, 0xe3, 0xff, 0xff, 0x1c, 0x00, 0x00, 0x00, 0x00, 0x00, 0x00, 0x09,
  0x1c, 0x00, 0x00, 0x00, 0x20, 0x00, 0x00, 0x00, 0x06, 0x00, 0x00, 0x00,
  0x00, 0x00, 0x06, 0x00, 0x08, 0x00, 0x04, 0x00, 0x06, 0x00, 0x00, 0x00,
  0x00, 0x00, 0x80, 0x3f, 0x01, 0x00, 0x00, 0x00, 0x0a, 0x01, 0x00, 0x00,
  0x01, 0x00, 0x00, 0x00, 0x09, 0x01, 0x00, 0x00, 0x7a, 0xe4, 0xff, 0xff,
  0x0c, 0x00, 0x00, 0x00, 0x10, 0x00, 0x00, 0x00, 0x05, 0x00, 0x00, 0x00,
  0x01, 0x00, 0x00, 0x00, 0x09, 0x01, 0x00, 0x00, 0x02, 0x00, 0x00, 0x00,
  0x08, 0x01, 0x00, 0x00, 0x03, 0x00, 0x00, 0x00, 0x5e, 0xe3, 0xff, 0xff,
  0x10, 0x00, 0x00, 0x00, 0x00, 0x00, 0x00, 0x01, 0x18, 0x00, 0x00, 0x00,
  0x1c, 0x00, 0x00, 0x00, 0xc6, 0xe5, 0xff, 0xff, 0x01, 0x00, 0x00, 0x00,
  0x01, 0x00, 0x00, 0x00, 0x00, 0x00, 0x00, 0x01, 0x01, 0x00, 0x00, 0x00,
  0x08, 0x01, 0x00, 0x00, 0x03, 0x00, 0x00, 0x00, 0x07, 0x01, 0x00, 0x00,
  0x05, 0x00, 0x00, 0x00, 0x04, 0x00, 0x00, 0x00, 0x76, 0xe4, 0xff, 0xff,
  0x14, 0x00, 0x00, 0x00, 0x00, 0x00, 0x00, 0x1b, 0x14, 0x00, 0x00, 0x00,
  0x18, 0x00, 0x00, 0x00, 0x01, 0x00, 0x00, 0x00, 0x66, 0xe4, 0xff, 0xff,
  0x00, 0x00, 0x00, 0x01, 0x01, 0x00, 0x00, 0x00, 0x07, 0x01, 0x00, 0x00,
  0x02, 0x00, 0x00, 0x00, 0x06, 0x01, 0x00, 0x00, 0x02, 0x00, 0x00, 0x00,
  0xce, 0xe3, 0xff, 0xff, 0x10, 0x00, 0x00, 0x00, 0x00, 0x00, 0x00, 0x01,
  0x1c, 0x00, 0x00, 0x00, 0x20, 0x00, 0x00, 0x00, 0x1c, 0xe4, 0xff, 0xff,
  0x00, 0x00, 0x00, 0x01, 0x01, 0x00, 0x00, 0x00, 0x01, 0x00, 0x00, 0x00,
  0x00, 0x00, 0x00, 0x01, 0x01, 0x00, 0x00, 0x00, 0x06, 0x01, 0x00, 0x00,
  0x03, 0x00, 0x00, 0x00, 0x05, 0x01, 0x00, 0x00, 0x07, 0x00, 0x00, 0x00,
  0x06, 0x00, 0x00, 0x00, 0x0e, 0xe4, 0xff, 0xff, 0x10, 0x00, 0x00, 0x00,
  0x00, 0x00, 0x00, 0x01, 0x14, 0x00, 0x00, 0x00, 0x18, 0x00, 0x00, 0x00,
  0x9e, 0xe4, 0xff, 0xff, 0x01, 0x00, 0x00, 0x00, 0x01, 0x00, 0x00, 0x00,
  0x01, 0x00, 0x00, 0x00, 0x05, 0x01, 0x00, 0x00, 0x03, 0x00, 0x00, 0x00,
  0x04, 0x01, 0x00, 0x00, 0x08, 0x00, 0x00, 0x00, 0x26, 0x00, 0x00, 0x00,
  0x22, 0xe5, 0xff, 0xff, 0x14, 0x00, 0x00, 0x00, 0x00, 0x00, 0x00, 0x0b,
  0x14, 0x00, 0x00, 0x00, 0x18, 0x00, 0x00, 0x00, 0x04, 0x00, 0x00, 0x00,
  0x12, 0xe5, 0xff, 0xff, 0x00, 0x00, 0x00, 0x01, 0x01, 0x00, 0x00, 0x00,
  0x04, 0x01, 0x00, 0x00, 0x02, 0x00, 0x00, 0x00, 0x03, 0x01, 0x00, 0x00,
  0xf8, 0x00, 0x00, 0x00, 0x56, 0xe5, 0xff, 0xff, 0x14, 0x00, 0x00, 0x00,
  0x00, 0x00, 0x00, 0x0b, 0x10, 0x00, 0x00, 0x00, 0x14, 0x00, 0x00, 0x00,
  0x04, 0x00, 0x00, 0x00, 0x1c, 0xce, 0xfe, 0xff, 0x01, 0x00, 0x00, 0x00,
  0x03, 0x01, 0x00, 0x00, 0x02, 0x00, 0x00, 0x00, 0x02, 0x01, 0x00, 0x00,
  0xf9, 0x00, 0x00, 0x00, 0xaa, 0xe4, 0xff, 0xff, 0x10, 0x00, 0x00, 0x00,
  0x00, 0x00, 0x00, 0x01, 0x18, 0x00, 0x00, 0x00, 0x1c, 0x00, 0x00, 0x00,
  0x12, 0xe7, 0xff, 0xff, 0x01, 0x00, 0x00, 0x00, 0x01, 0x00, 0x00, 0x00,
  0x00, 0x00, 0x00, 0x01, 0x01, 0x00, 0x00, 0x00, 0x02, 0x01, 0x00, 0x00,
  0x03, 0x00, 0x00, 0x00, 0x01, 0x01, 0x00, 0x00, 0x09, 0x00, 0x00, 0x00,
  0x25, 0x00, 0x00, 0x00, 0xc2, 0xe5, 0xff, 0xff, 0x14, 0x00, 0x00, 0x00,
  0x00, 0x00, 0x00, 0x15, 0x10, 0x00, 0x00, 0x00, 0x14, 0x00, 0x00, 0x00,
  0x03, 0x00, 0x00, 0x00, 0x88, 0xce, 0xfe, 0xff, 0x01, 0x00, 0x00, 0x00,
  0x01, 0x01, 0x00, 0x00, 0x02, 0x00, 0x00, 0x00, 0xff, 0x00, 0x00, 0x00,
  0x00, 0x01, 0x00, 0x00, 0x56, 0xe6, 0xff, 0xff, 0x0c, 0x00, 0x00, 0x00,
  0x10, 0x00, 0x00, 0x00, 0x02, 0x00, 0x00, 0x00, 0x01, 0x00, 0x00, 0x00,
  0x00, 0x01, 0x00, 0x00, 0x01, 0x00, 0x00, 0x00, 0xff, 0x00, 0x00, 0x00,
  0x12, 0xe6, 0xff, 0xff, 0x14, 0x00, 0x00, 0x00, 0x00, 0x00, 0x00, 0x0b,
  0x10, 0x00, 0x00, 0x00, 0x14, 0x00, 0x00, 0x00, 0x04, 0x00, 0x00, 0x00,
  0xd8, 0xce, 0xfe, 0xff, 0x01, 0x00, 0x00, 0x00, 0xff, 0x00, 0x00, 0x00,
  0x02, 0x00, 0x00, 0x00, 0xfe, 0x00, 0x00, 0x00, 0x0a, 0x00, 0x00, 0x00,
  0x42, 0xe6, 0xff, 0xff, 0x14, 0x00, 0x00, 0x00, 0x00, 0x00, 0x00, 0x15,
  0x10, 0x00, 0x00, 0x00, 0x14, 0x00, 0x00, 0x00, 0x03, 0x00, 0x00, 0x00,
  0x08, 0xcf, 0xfe, 0xff, 0x01, 0x00, 0x00, 0x00, 0xfe, 0x00, 0x00, 0x00,
  0x02, 0x00, 0x00, 0x00, 0xfd, 0x00, 0x00, 0x00, 0x0b, 0x00, 0x00, 0x00,
  0x72, 0xe6, 0xff, 0xff, 0x14, 0x00, 0x00, 0x00, 0x00, 0x00, 0x00, 0x15,
  0x10, 0x00, 0x00, 0x00, 0x14, 0x00, 0x00, 0x00, 0x03, 0x00, 0x00, 0x00,
  0x38, 0xcf, 0xfe, 0xff, 0x01, 0x00, 0x00, 0x00, 0xfd, 0x00, 0x00, 0x00,
  0x02, 0x00, 0x00, 0x00, 0xfb, 0x00, 0x00, 0x00, 0xfc, 0x00, 0x00, 0x00,
  0x06, 0xe7, 0xff, 0xff, 0x0c, 0x00, 0x00, 0x00, 0x10, 0x00, 0x00, 0x00,
  0x02, 0x00, 0x00, 0x00, 0x01, 0x00, 0x00, 0x00, 0xfc, 0x00, 0x00, 0x00,
  0x01, 0x00, 0x00, 0x00, 0xfb, 0x00, 0x00, 0x00, 0xe6, 0xe5, 0xff, 0xff,
  0x10, 0x00, 0x00, 0x00, 0x00, 0x00, 0x00, 0x01, 0x14, 0x00, 0x00, 0x00,
  0x18, 0x00, 0x00, 0x00, 0x76, 0xe6, 0xff, 0xff, 0x01, 0x00, 0x00, 0x00,
  0x01, 0x00, 0x00, 0x00, 0x01, 0x00, 0x00, 0x00, 0xfb, 0x00, 0x00, 0x00,
  0x03, 0x00, 0x00, 0x00, 0xfa, 0x00, 0x00, 0x00, 0x0c, 0x00, 0x00, 0x00,
  0x24, 0x00, 0x00, 0x00, 0xfa, 0xe6, 0xff, 0xff, 0x14, 0x00, 0x00, 0x00,
  0x00, 0x00, 0x00, 0x1b, 0x14, 0x00, 0x00, 0x00, 0x18, 0x00, 0x00, 0x00,
  0x01, 0x00, 0x00, 0x00, 0xea, 0xe6, 0xff, 0xff, 0x00, 0x00, 0x00, 0x01,
  0x01, 0x00, 0x00, 0x00, 0xfa, 0x00, 0x00, 0x00, 0x02, 0x00, 0x00, 0x00,
  0xf9, 0x00, 0x00, 0x00, 0x01, 0x00, 0x00, 0x00, 0x52, 0xe6, 0xff, 0xff,
  0x10, 0x00, 0x00, 0x00, 0x00, 0x00, 0x00, 0x01, 0x14, 0x00, 0x00, 0x00,
  0x18, 0x00, 0x00, 0x00, 0xe2, 0xe6, 0xff, 0xff, 0x01, 0x00, 0x00, 0x00,
  0x01, 0x00, 0x00, 0x00, 0x01, 0x00, 0x00, 0x00, 0xf9, 0x00, 0x00, 0x00,
  0x03, 0x00, 0x00, 0x00, 0xf8, 0x00, 0x00, 0x00, 0x0e, 0x00, 0x00, 0x00,
  0x0d, 0x00, 0x00, 0x00, 0x66, 0xe7, 0xff, 0xff, 0x14, 0x00, 0x00, 0x00,
  0x00, 0x00, 0x00, 0x0b, 0x14, 0x00, 0x00, 0x00, 0x18, 0x00, 0x00, 0x00,
  0x04, 0x00, 0x00, 0x00, 0x56, 0xe7, 0xff, 0xff, 0x00, 0x00, 0x00, 0x01,
  0x01, 0x00, 0x00, 0x00, 0xf8, 0x00, 0x00, 0x00, 0x02, 0x00, 0x00, 0x00,
  0xf7, 0x00, 0x00, 0x00, 0xec, 0x00, 0x00, 0x00, 0x9a, 0xe7, 0xff, 0xff,
  0x14, 0x00, 0x00, 0x00, 0x00, 0x00, 0x00, 0x0b, 0x10, 0x00, 0x00, 0x00,
  0x14, 0x00, 0x00, 0x00, 0x04, 0x00, 0x00, 0x00, 0x60, 0xd0, 0xfe, 0xff,
  0x01, 0x00, 0x00, 0x00, 0xf7, 0x00, 0x00, 0x00, 0x02, 0x00, 0x00, 0x00,
  0xf6, 0x00, 0x00, 0x00, 0xed, 0x00, 0x00, 0x00, 0xee, 0xe6, 0xff, 0xff,
  0x10, 0x00, 0x00, 0x00, 0x00, 0x00, 0x00, 0x01, 0x18, 0x00, 0x00, 0x00,
  0x1c, 0x00, 0x00, 0x00, 0x56, 0xe9, 0xff, 0xff, 0x01, 0x00, 0x00, 0x00,
  0x01, 0x00, 0x00, 0x00, 0x00, 0x00, 0x00, 0x01, 0x01, 0x00, 0x00, 0x00,
  0xf6, 0x00, 0x00, 0x00, 0x03, 0x00, 0x00, 0x00, 0xf5, 0x00, 0x00, 0x00,
  0x0f, 0x00, 0x00, 0x00, 0x23, 0x00, 0x00, 0x00, 0x06, 0xe8, 0xff, 0xff,
  0x14, 0x00, 0x00, 0x00, 0x00, 0x00, 0x00, 0x15, 0x10, 0x00, 0x00, 0x00,
  0x14, 0x00, 0x00, 0x00, 0x03, 0x00, 0x00, 0x00, 0xcc, 0xd0, 0xfe, 0xff,
  0x01, 0x00, 0x00, 0x00, 0xf5, 0x00, 0x00, 0x00, 0x02, 0x00, 0x00, 0x00,
  0xf3, 0x00, 0x00, 0x00, 0xf4, 0x00, 0x00, 0x00, 0x9a, 0xe8, 0xff, 0xff,
  0x0c, 0x00, 0x00, 0x00, 0x10, 0x00, 0x00, 0x00, 0x02, 0x00, 0x00, 0x00,
  0x01, 0x00, 0x00, 0x00, 0xf4, 0x00, 0x00, 0x00, 0x01, 0x00, 0x00, 0x00,
  0xf3, 0x00, 0x00, 0x00, 0x56, 0xe8, 0xff, 0xff, 0x14, 0x00, 0x00, 0x00,
  0x00, 0x00, 0x00, 0x0b, 0x10, 0x00, 0x00, 0x00, 0x14, 0x00, 0x00, 0x00,
  0x04, 0x00, 0x00, 0x00, 0x1c, 0xd1, 0xfe, 0xff, 0x01, 0x00, 0x00, 0x00,
  0xf3, 0x00, 0x00, 0x00, 0x02, 0x00, 0x00, 0x00, 0xf2, 0x00, 0x00, 0x00,
  0x10, 0x00, 0x00, 0x00, 0x86, 0xe8, 0xff, 0xff, 0x14, 0x00, 0x00, 0x00,
  0x00, 0x00, 0x00, 0x15, 0x10, 0x00, 0x00, 0x00, 0x14, 0x00, 0x00, 0x00,
  0x03, 0x00, 0x00, 0x00, 0x4c, 0xd1, 0xfe, 0xff, 0x01, 0x00, 0x00, 0x00,
  0xf2, 0x00, 0x00, 0x00, 0x02, 0x00, 0x00, 0x00, 0xf1, 0x00, 0x00, 0x00,
  0x11, 0x00, 0x00, 0x00, 0xb6, 0xe8, 0xff, 0xff, 0x14, 0x00, 0x00, 0x00,
  0x00, 0x00, 0x00, 0x15, 0x10, 0x00, 0x00, 0x00, 0x14, 0x00, 0x00, 0x00,
  0x03, 0x00, 0x00, 0x00, 0x7c, 0xd1, 0xfe, 0xff, 0x01, 0x00, 0x00, 0x00,
  0xf1, 0x00, 0x00, 0x00, 0x02, 0x00, 0x00, 0x00, 0xef, 0x00, 0x00, 0x00,
  0xf0, 0x00, 0x00, 0x00, 0x4a, 0xe9, 0xff, 0xff, 0x0c, 0x00, 0x00, 0x00,
  0x10, 0x00, 0x00, 0x00, 0x02, 0x00, 0x00, 0x00, 0x01, 0x00, 0x00, 0x00,
  0xf0, 0x00, 0x00, 0x00, 0x01, 0x00, 0x00, 0x00, 0xef, 0x00, 0x00, 0x00,
  0x2a, 0xe8, 0xff, 0xff, 0x10, 0x00, 0x00, 0x00, 0x00, 0x00, 0x00, 0x01,
  0x14, 0x00, 0x00, 0x00, 0x18, 0x00, 0x00, 0x00, 0xba, 0xe8, 0xff, 0xff,
  0x01, 0x00, 0x00, 0x00, 0x01, 0x00, 0x00, 0x00, 0x01, 0x00, 0x00, 0x00,
  0xef, 0x00, 0x00, 0x00, 0x03, 0x00, 0x00, 0x00, 0xee, 0x00, 0x00, 0x00,
  0x12, 0x00, 0x00, 0x00, 0x22, 0x00, 0x00, 0x00, 0x3e, 0xe9, 0xff, 0xff,
  0x14, 0x00, 0x00, 0x00, 0x00, 0x00, 0x00, 0x1b, 0x14, 0x00, 0x00, 0x00,
  0x18, 0x00, 0x00, 0x00, 0x01, 0x00, 0x00, 0x00, 0x2e, 0xe9, 0xff, 0xff,
  0x00, 0x00, 0x00, 0x01, 0x01, 0x00, 0x00, 0x00, 0xee, 0x00, 0x00, 0x00,
  0x02, 0x00, 0x00, 0x00, 0xed, 0x00, 0x00, 0x00, 0x01, 0x00, 0x00, 0x00,
  0x96, 0xe8, 0xff, 0xff, 0x10, 0x00, 0x00, 0x00, 0x00, 0x00, 0x00, 0x01,
  0x14, 0x00, 0x00, 0x00, 0x18, 0x00, 0x00, 0x00, 0x26, 0xe9, 0xff, 0xff,
  0x01, 0x00, 0x00, 0x00, 0x01, 0x00, 0x00, 0x00, 0x01, 0x00, 0x00, 0x00,
  0xed, 0x00, 0x00, 0x00, 0x03, 0x00, 0x00, 0x00, 0xec, 0x00, 0x00, 0x00,
  0x14, 0x00, 0x00, 0x00, 0x13, 0x00, 0x00, 0x00, 0xaa, 0xe9, 0xff, 0xff,
  0x14, 0x00, 0x00, 0x00, 0x00, 0x00, 0x00, 0x0b, 0x14, 0x00, 0x00, 0x00,
  0x18, 0x00, 0x00, 0x00, 0x04, 0x00, 0x00, 0x00, 0x9a, 0xe9, 0xff, 0xff,
  0x00, 0x00, 0x00, 0x01, 0x01, 0x00, 0x00, 0x00, 0xec, 0x00, 0x00, 0x00,
  0x02, 0x00, 0x00, 0x00, 0xeb, 0x00, 0x00, 0x00, 0xe0, 0x00, 0x00, 0x00,
  0xde, 0xe9, 0xff, 0xff, 0x14, 0x00, 0x00, 0x00, 0x00, 0x00, 0x00, 0x0b,
  0x10, 0x00, 0x00, 0x00, 0x14, 0x00, 0x00, 0x00, 0x04, 0x00, 0x00, 0x00,
  0xa4, 0xd2, 0xfe, 0xff, 0x01, 0x00, 0x00, 0x00, 0xeb, 0x00, 0x00, 0x00,
  0x02, 0x00, 0x00, 0x00, 0xea, 0x00, 0x00, 0x00, 0xe1, 0x00, 0x00, 0x00,
  0x32, 0xe9, 0xff, 0xff, 0x10, 0x00, 0x00, 0x00, 0x00, 0x00, 0x00, 0x01,
  0x18, 0x00, 0x00, 0x00, 0x1c, 0x00, 0x00, 0x00, 0x9a, 0xeb, 0xff, 0xff,
  0x01, 0x00, 0x00, 0x00, 0x01, 0x00, 0x00, 0x00, 0x00, 0x00, 0x00, 0x01,
  0x01, 0x00, 0x00, 0x00, 0xea, 0x00, 0x00, 0x00, 0x03, 0x00, 0x00, 0x00,
  0xe9, 0x00, 0x00, 0x00, 0x15, 0x00, 0x00, 0x00, 0x21, 0x00, 0x00, 0x00,
  0x4a, 0xea, 0xff, 0xff, 0x14, 0x00, 0x00, 0x00, 0x00, 0x00, 0x00, 0x15,
  0x10, 0x00, 0x00, 0x00, 0x14, 0x00, 0x00, 0x00, 0x03, 0x00, 0x00, 0x00,
  0x10, 0xd3, 0xfe, 0xff, 0x01, 0x00, 0x00, 0x00, 0xe9, 0x00, 0x00, 0x00,
  0x02, 0x00, 0x00, 0x00, 0xe7, 0x00, 0x00, 0x00, 0xe8, 0x00, 0x00, 0x00,
  0xde, 0xea, 0xff, 0xff, 0x0c, 0x00, 0x00, 0x00, 0x10, 0x00, 0x00, 0x00,
  0x02, 0x00, 0x00, 0x00, 0x01, 0x00, 0x00, 0x00, 0xe8, 0x00, 0x00, 0x00,
  0x01, 0x00, 0x00, 0x00, 0xe7, 0x00, 0x00, 0x00, 0x9a, 0xea, 0xff, 0xff,
  0x14, 0x00, 0x00, 0x00, 0x00, 0x00, 0x00, 0x0b, 0x10, 0x00, 0x00, 0x00,
  0x14, 0x00, 0x00, 0x00, 0x04, 0x00, 0x00, 0x00, 0x60, 0xd3, 0xfe, 0xff,
  0x01, 0x00, 0x00, 0x00, 0xe7, 0x00, 0x00, 0x00, 0x02, 0x00, 0x00, 0x00,
  0xe6, 0x00, 0x00, 0x00, 0x16, 0x00, 0x00, 0x00, 0xca, 0xea, 0xff, 0xff,
  0x14, 0x00, 0x00, 0x00, 0x00, 0x00, 0x00, 0x15, 0x10, 0x00, 0x00, 0x00,
  0x14, 0x00, 0x00, 0x00, 0x03, 0x00, 0x00, 0x00, 0x90, 0xd3, 0xfe, 0xff,
  0x01, 0x00, 0x00, 0x00, 0xe6, 0x00, 0x00, 0x00, 0x02, 0x00, 0x00, 0x00,
  0xe5, 0x00, 0x00, 0x00, 0x17, 0x00, 0x00, 0x00, 0xfa, 0xea, 0xff, 0xff,
  0x14, 0x00, 0x00, 0x00, 0x00, 0x00, 0x00, 0x15, 0x10, 0x00, 0x00, 0x00,
  0x14, 0x00, 0x00, 0x00, 0x03, 0x00, 0x00, 0x00, 0xc0, 0xd3, 0xfe, 0xff,
  0x01, 0x00, 0x00, 0x00, 0xe5, 0x00, 0x00, 0x00, 0x02, 0x00, 0x00, 0x00,
  0xe3, 0x00, 0x00, 0x00, 0xe4, 0x00, 0x00, 0x00, 0x8e, 0xeb, 0xff, 0xff,
  0x0c, 0x00, 0x00, 0x00, 0x10, 0x00, 0x00, 0x00, 0x02, 0x00, 0x00, 0x00,
  0x01, 0x00, 0x00, 0x00, 0xe4, 0x00, 0x00, 0x00, 0x01, 0x00, 0x00, 0x00,
  0xe3, 0x00, 0x00, 0x00, 0x6e, 0xea, 0xff, 0xff, 0x10, 0x00, 0x00, 0x00,
  0x00, 0x00, 0x00, 0x01, 0x14, 0x00, 0x00, 0x00, 0x18, 0x00, 0x00, 0x00,
  0xfe, 0xea, 0xff, 0xff, 0x01, 0x00, 0x00, 0x00, 0x01, 0x00, 0x00, 0x00,
  0x01, 0x00, 0x00, 0x00, 0xe3, 0x00, 0x00, 0x00, 0x03, 0x00, 0x00, 0x00,
  0xe2, 0x00, 0x00, 0x00, 0x18, 0x00, 0x00, 0x00, 0x20, 0x00, 0x00, 0x00,
  0x82, 0xeb, 0xff, 0xff, 0x14, 0x00, 0x00, 0x00, 0x00, 0x00, 0x00, 0x1b,
  0x14, 0x00, 0x00, 0x00, 0x18, 0x00, 0x00, 0x00, 0x01, 0x00, 0x00, 0x00,
  0x72, 0xeb, 0xff, 0xff, 0x00, 0x00, 0x00, 0x01, 0x01, 0x00, 0x00, 0x00,
  0xe2, 0x00, 0x00, 0x00, 0x02, 0x00, 0x00, 0x00, 0xe1, 0x00, 0x00, 0x00,
  0x01, 0x00, 0x00, 0x00, 0xda, 0xea, 0xff, 0xff, 0x10, 0x00, 0x00, 0x00,
  0x00, 0x00, 0x00, 0x01, 0x14, 0x00, 0x00, 0x00, 0x18, 0x00, 0x00, 0x00,
  0x6a, 0xeb, 0xff, 0xff, 0x01, 0x00, 0x00, 0x00, 0x01, 0x00, 0x00, 0x00,
  0x01, 0x00, 0x00, 0x00, 0xe1, 0x00, 0x00, 0x00, 0x03, 0x00, 0x00, 0x00,
  0xe0, 0x00, 0x00, 0x00, 0x1a, 0x00, 0x00, 0x00, 0x19, 0x00, 0x00, 0x00,
  0xee, 0xeb, 0xff, 0xff, 0x14, 0x00, 0x00, 0x00, 0x00, 0x00, 0x00, 0x0b,
  0x14, 0x00, 0x00, 0x00, 0x18, 0x00, 0x00, 0x00, 0x04, 0x00, 0x00, 0x00,
  0xde, 0xeb, 0xff, 0xff, 0x00, 0x00, 0x00, 0x01, 0x01, 0x00, 0x00, 0x00,
  0xe0, 0x00, 0x00, 0x00, 0x02, 0x00, 0x00, 0x00, 0xdf, 0x00, 0x00, 0x00,
  0xd6, 0x00, 0x00, 0x00, 0x46, 0xeb, 0xff, 0xff, 0x10, 0x00, 0x00, 0x00,
  0x00, 0x00, 0x00, 0x01, 0x18, 0x00, 0x00, 0x00, 0x1c, 0x00, 0x00, 0x00,
  0xae, 0xed, 0xff, 0xff, 0x01, 0x00, 0x00, 0x00, 0x01, 0x00, 0x00, 0x00,
  0x00, 0x00, 0x00, 0x01, 0x01, 0x00, 0x00, 0x00, 0xdf, 0x00, 0x00, 0x00,
  0x03, 0x00, 0x00, 0x00, 0xde, 0x00, 0x00, 0x00, 0x1b, 0x00, 0x00, 0x00,
  0x1f, 0x00, 0x00, 0x00, 0x5e, 0xec, 0xff, 0xff, 0x14, 0x00, 0x00, 0x00,
  0x00, 0x00, 0x00, 0x15, 0x10, 0x00, 0x00, 0x00, 0x14, 0x00, 0x00, 0x00,
  0x03, 0x00, 0x00, 0x00, 0x24, 0xd5, 0xfe, 0xff, 0x01, 0x00, 0x00, 0x00,
  0xde, 0x00, 0x00, 0x00, 0x02, 0x00, 0x00, 0x00, 0xdc, 0x00, 0x00, 0x00,
  0xdd, 0x00, 0x00, 0x00, 0xf2, 0xec, 0xff, 0xff, 0x0c, 0x00, 0x00, 0x00,
  0x10, 0x00, 0x00, 0x00, 0x02, 0x00, 0x00, 0x00, 0x01, 0x00, 0x00, 0x00,
  0xdd, 0x00, 0x00, 0x00, 0x01, 0x00, 0x00, 0x00, 0xdc, 0x00, 0x00, 0x00,
  0xae, 0xec, 0xff, 0xff, 0x14, 0x00, 0x00, 0x00, 0x00, 0x00, 0x00, 0x0b,
  0x10, 0x00, 0x00, 0x00, 0x14, 0x00, 0x00, 0x00, 0x04, 0x00, 0x00, 0x00,
  0x74, 0xd5, 0xfe, 0xff, 0x01, 0x00, 0x00, 0x00, 0xdc, 0x00, 0x00, 0x00,
  0x02, 0x00, 0x00, 0x00, 0xdb, 0x00, 0x00, 0x00, 0x1c, 0x00, 0x00, 0x00,
  0xde, 0xec, 0xff, 0xff, 0x14, 0x00, 0x00, 0x00, 0x00, 0x00, 0x00, 0x15,
  0x10, 0x00, 0x00, 0x00, 0x14, 0x00, 0x00, 0x00, 0x03, 0x00, 0x00, 0x00,
  0xa4, 0xd5, 0xfe, 0xff, 0x01, 0x00, 0x00, 0x00, 0xdb, 0x00, 0x00, 0x00,
  0x02, 0x00, 0x00, 0x00, 0xda, 0x00, 0x00, 0x00, 0x1d, 0x00, 0x00, 0x00,
  0x0e, 0xed, 0xff, 0xff, 0x14, 0x00, 0x00, 0x00, 0x00, 0x00, 0x00, 0x15,
  0x10, 0x00, 0x00, 0x00, 0x14, 0x00, 0x00, 0x00, 0x03, 0x00, 0x00, 0x00,
  0xd4, 0xd5, 0xfe, 0xff, 0x01, 0x00, 0x00, 0x00, 0xda, 0x00, 0x00, 0x00,
  0x02, 0x00, 0x00, 0x00, 0xd8, 0x00, 0x00, 0x00, 0xd9, 0x00, 0x00, 0x00,
  0xa2, 0xed, 0xff, 0xff, 0x0c, 0x00, 0x00, 0x00, 0x10, 0x00, 0x00, 0x00,
  0x02, 0x00, 0x00, 0x00, 0x01, 0x00, 0x00, 0x00, 0xd9, 0x00, 0x00, 0x00,
  0x01, 0x00, 0x00, 0x00, 0xd8, 0x00, 0x00, 0x00, 0x82, 0xec, 0xff, 0xff,
  0x10, 0x00, 0x00, 0x00, 0x00, 0x00, 0x00, 0x01, 0x14, 0x00, 0x00, 0x00,
  0x18, 0x00, 0x00, 0x00, 0x12, 0xed, 0xff, 0xff, 0x01, 0x00, 0x00, 0x00,
  0x01, 0x00, 0x00, 0x00, 0x01, 0x00, 0x00, 0x00, 0xd8, 0x00, 0x00, 0x00,
  0x03, 0x00, 0x00, 0x00, 0xd7, 0x00, 0x00, 0x00, 0x27, 0x00, 0x00, 0x00,
  0x1e, 0x00, 0x00, 0x00, 0x96, 0xed, 0xff, 0xff, 0x14, 0x00, 0x00, 0x00,
  0x00, 0x00, 0x00, 0x1b, 0x14, 0x00, 0x00, 0x00, 0x18, 0x00, 0x00, 0x00,
  0x01, 0x00, 0x00, 0x00, 0x86, 0xed, 0xff, 0xff, 0x00, 0x00, 0x00, 0x01,
  0x01, 0x00, 0x00, 0x00, 0xd7, 0x00, 0x00, 0x00, 0x02, 0x00, 0x00, 0x00,
  0xd6, 0x00, 0x00, 0x00, 0x01, 0x00, 0x00, 0x00, 0xee, 0xec, 0xff, 0xff,
  0x10, 0x00, 0x00, 0x00, 0x00, 0x00, 0x00, 0x01, 0x14, 0x00, 0x00, 0x00,
  0x18, 0x00, 0x00, 0x00, 0x7e, 0xed, 0xff, 0xff, 0x01, 0x00, 0x00, 0x00,
  0x01, 0x00, 0x00, 0x00, 0x01, 0x00, 0x00, 0x00, 0xd6, 0x00, 0x00, 0x00,
  0x03, 0x00, 0x00, 0x00, 0xd5, 0x00, 0x00, 0x00, 0x29, 0x00, 0x00, 0x00,
  0x28, 0x00, 0x00, 0x00, 0x26, 0xed, 0xff, 0xff, 0x10, 0x00, 0x00, 0x00,
  0x00, 0x00, 0x00, 0x01, 0x1c, 0x00, 0x00, 0x00, 0x20, 0x00, 0x00, 0x00,
  0x74, 0xed, 0xff, 0xff, 0x00, 0x00, 0x00, 0x01, 0x01, 0x00, 0x00, 0x00,
  0x01, 0x00, 0x00, 0x00, 0x00, 0x00, 0x00, 0x01, 0x01, 0x00, 0x00, 0x00,
  0xd5, 0x00, 0x00, 0x00, 0x03, 0x00, 0x00, 0x00, 0xd4, 0x00, 0x00, 0x00,
  0x2b, 0x00, 0x00, 0x00, 0x2a, 0x00, 0x00, 0x00, 0x42, 0xee, 0xff, 0xff,
  0x14, 0x00, 0x00, 0x00, 0x00, 0x00, 0x00, 0x0b, 0x14, 0x00, 0x00, 0x00,
  0x18, 0x00, 0x00, 0x00, 0x04, 0x00, 0x00, 0x00, 0x32, 0xee, 0xff, 0xff,
  0x00, 0x00, 0x00, 0x01, 0x01, 0x00, 0x00, 0x00, 0xd4, 0x00, 0x00, 0x00,
  0x02, 0x00, 0x00, 0x00, 0xd3, 0x00, 0x00, 0x00, 0xc8, 0x00, 0x00, 0x00,
  0x76, 0xee, 0xff, 0xff, 0x14, 0x00, 0x00, 0x00, 0x00, 0x00, 0x00, 0x0b,
  0x10, 0x00, 0x00, 0x00, 0x14, 0x00, 0x00, 0x00, 0x04, 0x00, 0x00, 0x00,
  0x3c, 0xd7, 0xfe, 0xff, 0x01, 0x00, 0x00, 0x00, 0xd3, 0x00, 0x00, 0x00,
  0x02, 0x00, 0x00, 0x00, 0xd2, 0x00, 0x00, 0x00, 0xc9, 0x00, 0x00, 0x00,
  0xca, 0xed, 0xff, 0xff, 0x10, 0x00, 0x00, 0x00, 0x00, 0x00, 0x00, 0x01,
  0x18, 0x00, 0x00, 0x00, 0x1c, 0x00, 0x00, 0x00, 0x32, 0xf0, 0xff, 0xff,
  0x01, 0x00, 0x00, 0x00, 0x01, 0x00, 0x00, 0x00, 0x00, 0x00, 0x00, 0x01,
  0x01, 0x00, 0x00, 0x00, 0xd2, 0x00, 0x00, 0x00, 0x03, 0x00, 0x00, 0x00,
  0xd1, 0x00, 0x00, 0x00, 0x2c, 0x00, 0x00, 0x00, 0x48, 0x00, 0x00, 0x00,
  0xe2, 0xee, 0xff, 0xff, 0x14, 0x00, 0x00, 0x00, 0x00, 0x00, 0x00, 0x15,
  0x10, 0x00, 0x00, 0x00, 0x14, 0x00, 0x00, 0x00, 0x03, 0x00, 0x00, 0x00,
  0xa8, 0xd7, 0xfe, 0xff, 0x01, 0x00, 0x00, 0x00, 0xd1, 0x00, 0x00, 0x00,
  0x02, 0x00, 0x00, 0x00, 0xcf, 0x00, 0x00, 0x00, 0xd0, 0x00, 0x00, 0x00,
  0x76, 0xef, 0xff, 0xff, 0x0c, 0x00, 0x00, 0x00, 0x10, 0x00, 0x00, 0x00,
  0x02, 0x00, 0x00, 0x00, 0x01, 0x00, 0x00, 0x00, 0xd0, 0x00, 0x00, 0x00,
  0x01, 0x00, 0x00, 0x00, 0xcf, 0x00, 0x00, 0x00, 0x32, 0xef, 0xff, 0xff,
  0x14, 0x00, 0x00, 0x00, 0x00, 0x00, 0x00, 0x0b, 0x10, 0x00, 0x00, 0x00,
  0x14, 0x00, 0x00, 0x00, 0x04, 0x00, 0x00, 0x00, 0xf8, 0xd7, 0xfe, 0xff,
  0x01, 0x00, 0x00, 0x00, 0xcf, 0x00, 0x00, 0x00, 0x02, 0x00, 0x00, 0x00,
  0xce, 0x00, 0x00, 0x00, 0x2d, 0x00, 0x00, 0x00, 0x62, 0xef, 0xff, 0xff,
  0x14, 0x00, 0x00, 0x00, 0x00, 0x00, 0x00, 0x15, 0x10, 0x00, 0x00, 0x00,
  0x14, 0x00, 0x00, 0x00, 0x03, 0x00, 0x00, 0x00, 0x28, 0xd8, 0xfe, 0xff,
  0x01, 0x00, 0x00, 0x00, 0xce, 0x00, 0x00, 0x00, 0x02, 0x00, 0x00, 0x00,
  0xcd, 0x00, 0x00, 0x00, 0x2e, 0x00, 0x00, 0x00, 0x92, 0xef, 0xff, 0xff,
  0x14, 0x00, 0x00, 0x00, 0x00, 0x00, 0x00, 0x15, 0x10, 0x00, 0x00, 0x00,
  0x14, 0x00, 0x00, 0x00, 0x03, 0x00, 0x00, 0x00, 0x58, 0xd8, 0xfe, 0xff,
  0x01, 0x00, 0x00, 0x00, 0xcd, 0x00, 0x00, 0x00, 0x02, 0x00, 0x00, 0x00,
  0xcb, 0x00, 0x00, 0x00, 0xcc, 0x00, 0x00, 0x00, 0x26, 0xf0, 0xff, 0xff,
  0x0c, 0x00, 0x00, 0x00, 0x10, 0x00, 0x00, 0x00, 0x02, 0x00, 0x00, 0x00,
  0x01, 0x00, 0x00, 0x00, 0xcc, 0x00, 0x00, 0x00, 0x01, 0x00, 0x00, 0x00,
  0xcb, 0x00, 0x00, 0x00, 0x06, 0xef, 0xff, 0xff, 0x10, 0x00, 0x00, 0x00,
  0x00, 0x00, 0x00, 0x01, 0x14, 0x00, 0x00, 0x00, 0x18, 0x00, 0x00, 0x00,
  0x96, 0xef, 0xff, 0xff, 0x01, 0x00, 0x00, 0x00, 0x01, 0x00, 0x00, 0x00,
  0x01, 0x00, 0x00, 0x00, 0xcb, 0x00, 0x00, 0x00, 0x03, 0x00, 0x00, 0x00,
  0xca, 0x00, 0x00, 0x00, 0x2f, 0x00, 0x00, 0x00, 0x47, 0x00, 0x00, 0x00,
  0x1a, 0xf0, 0xff, 0xff, 0x14, 0x00, 0x00, 0x00, 0x00, 0x00, 0x00, 0x1b,
  0x14, 0x00, 0x00, 0x00, 0x18, 0x00, 0x00, 0x00, 0x01, 0x00, 0x00, 0x00,
  0x0a, 0xf0, 0xff, 0xff, 0x00, 0x00, 0x00, 0x01, 0x01, 0x00, 0x00, 0x00,
  0xca, 0x00, 0x00, 0x00, 0x02, 0x00, 0x00, 0x00, 0xc9, 0x00, 0x00, 0x00,
  0x01, 0x00, 0x00, 0x00, 0x72, 0xef, 0xff, 0xff, 0x10, 0x00, 0x00, 0x00,
  0x00, 0x00, 0x00, 0x01, 0x14, 0x00, 0x00, 0x00, 0x18, 0x00, 0x00, 0x00,
  0x02, 0xf0, 0xff, 0xff, 0x01, 0x00, 0x00, 0x00, 0x01, 0x00, 0x00, 0x00,
  0x01, 0x00, 0x00, 0x00, 0xc9, 0x00, 0x00, 0x00, 0x03, 0x00, 0x00, 0x00,
  0xc8, 0x00, 0x00, 0x00, 0x31, 0x00, 0x00, 0x00, 0x30, 0x00, 0x00, 0x00,
  0x86, 0xf0, 0xff, 0xff, 0x14, 0x00, 0x00, 0x00, 0x00, 0x00, 0x00, 0x0b,
  0x14, 0x00, 0x00, 0x00, 0x18, 0x00, 0x00, 0x00, 0x04, 0x00, 0x00, 0x00,
  0x76, 0xf0, 0xff, 0xff, 0x00, 0x00, 0x00, 0x01, 0x01, 0x00, 0x00, 0x00,
  0xc8, 0x00, 0x00, 0x00, 0x02, 0x00, 0x00, 0x00, 0xc7, 0x00, 0x00, 0x00,
  0xbc, 0x00, 0x00, 0x00, 0xba, 0xf0, 0xff, 0xff, 0x14, 0x00, 0x00, 0x00,
  0x00, 0x00, 0x00, 0x0b, 0x10, 0x00, 0x00, 0x00, 0x14, 0x00, 0x00, 0x00,
  0x04, 0x00, 0x00, 0x00, 0x80, 0xd9, 0xfe, 0xff, 0x01, 0x00, 0x00, 0x00,
  0xc7, 0x00, 0x00, 0x00, 0x02, 0x00, 0x00, 0x00, 0xc6, 0x00, 0x00, 0x00,
  0xbd, 0x00, 0x00, 0x00, 0x0e, 0xf0, 0xff, 0xff, 0x10, 0x00, 0x00, 0x00,
  0x00, 0x00, 0x00, 0x01, 0x18, 0x00, 0x00, 0x00, 0x1c, 0x00, 0x00, 0x00,
  0x76, 0xf2, 0xff, 0xff, 0x01, 0x00, 0x00, 0x00, 0x01, 0x00, 0x00, 0x00,
  0x00, 0x00, 0x00, 0x01, 0x01, 0x00, 0x00, 0x00, 0xc6, 0x00, 0x00, 0x00,
  0x03, 0x00, 0x00, 0x00, 0xc5, 0x00, 0x00, 0x00, 0x32, 0x00, 0x00, 0x00,
  0x46, 0x00, 0x00, 0x00, 0x26, 0xf1, 0xff, 0xff, 0x14, 0x00, 0x00, 0x00,
  0x00, 0x00, 0x00, 0x15, 0x10, 0x00, 0x00, 0x00, 0x14, 0x00, 0x00, 0x00,
  0x03, 0x00, 0x00, 0x00, 0xec, 0xd9, 0xfe, 0xff, 0x01, 0x00, 0x00, 0x00,
  0xc5, 0x00, 0x00, 0x00, 0x02, 0x00, 0x00, 0x00, 0xc3, 0x00, 0x00, 0x00,
  0xc4, 0x00, 0x00, 0x00, 0xba, 0xf1, 0xff, 0xff, 0x0c, 0x00, 0x00, 0x00,
  0x10, 0x00, 0x00, 0x00, 0x02, 0x00, 0x00, 0x00, 0x01, 0x00, 0x00, 0x00,
  0xc4, 0x00, 0x00, 0x00, 0x01, 0x00, 0x00, 0x00, 0xc3, 0x00, 0x00, 0x00,
  0x76, 0xf1, 0xff, 0xff, 0x14, 0x00, 0x00, 0x00, 0x00, 0x00, 0x00, 0x0b,
  0x10, 0x00, 0x00, 0x00, 0x14, 0x00, 0x00, 0x00, 0x04, 0x00, 0x00, 0x00,
  0x3c, 0xda, 0xfe, 0xff, 0x01, 0x00, 0x00, 0x00, 0xc3, 0x00, 0x00, 0x00,
  0x02, 0x00, 0x00, 0x00, 0xc2, 0x00, 0x00, 0x00, 0x33, 0x00, 0x00, 0x00,
  0xa6, 0xf1, 0xff, 0xff, 0x14, 0x00, 0x00, 0x00, 0x00, 0x00, 0x00, 0x15,
  0x10, 0x00, 0x00, 0x00, 0x14, 0x00, 0x00, 0x00, 0x03, 0x00, 0x00, 0x00,
  0x6c, 0xda, 0xfe, 0xff, 0x01, 0x00, 0x00, 0x00, 0xc2, 0x00, 0x00, 0x00,
  0x02, 0x00, 0x00, 0x00, 0xc1, 0x00, 0x00, 0x00, 0x34, 0x00, 0x00, 0x00,
  0xd6, 0xf1, 0xff, 0xff, 0x14, 0x00, 0x00, 0x00, 0x00, 0x00, 0x00, 0x15,
  0x10, 0x00, 0x00, 0x00, 0x14, 0x00, 0x00, 0x00, 0x03, 0x00, 0x00, 0x00,
  0x9c, 0xda, 0xfe, 0xff, 0x01, 0x00, 0x00, 0x00, 0xc1, 0x00, 0x00, 0x00,
  0x02, 0x00, 0x00, 0x00, 0xbf, 0x00, 0x00, 0x00, 0xc0, 0x00, 0x00, 0x00,
  0x6a, 0xf2, 0xff, 0xff, 0x0c, 0x00, 0x00, 0x00, 0x10, 0x00, 0x00, 0x00,
  0x02, 0x00, 0x00, 0x00, 0x01, 0x00, 0x00, 0x00, 0xc0, 0x00, 0x00, 0x00,
  0x01, 0x00, 0x00, 0x00, 0xbf, 0x00, 0x00, 0x00, 0x4a, 0xf1, 0xff, 0xff,
  0x10, 0x00, 0x00, 0x00, 0x00, 0x00, 0x00, 0x01, 0x14, 0x00, 0x00, 0x00,
  0x18, 0x00, 0x00, 0x00, 0xda, 0xf1, 0xff, 0xff, 0x01, 0x00, 0x00, 0x00,
  0x01, 0x00, 0x00, 0x00, 0x01, 0x00, 0x00, 0x00, 0xbf, 0x00, 0x00, 0x00,
  0x03, 0x00, 0x00, 0x00, 0xbe, 0x00, 0x00, 0x00, 0x35, 0x00, 0x00, 0x00,
  0x45, 0x00, 0x00, 0x00, 0x5e, 0xf2, 0xff, 0xff, 0x14, 0x00, 0x00, 0x00,
  0x00, 0x00, 0x00, 0x1b, 0x14, 0x00, 0x00, 0x00, 0x18, 0x00, 0x00, 0x00,
  0x01, 0x00, 0x00, 0x00, 0x4e, 0xf2, 0xff, 0xff, 0x00, 0x00, 0x00, 0x01,
