unsigned char _content_gsc_tflite_bcresnet1_s_quant_tflite[] = {
  0x1c, 0x00, 0x00, 0x00, 0x54, 0x46, 0x4c, 0x33, 0x14, 0x00, 0x20, 0x00,
  0x1c, 0x00, 0x18, 0x00, 0x14, 0x00, 0x10, 0x00, 0x0c, 0x00, 0x00, 0x00,
  0x08, 0x00, 0x04, 0x00, 0x14, 0x00, 0x00, 0x00, 0x1c, 0x00, 0x00, 0x00,
  0x84, 0x00, 0x00, 0x00, 0xdc, 0x00, 0x00, 0x00, 0xcc, 0x2d, 0x00, 0x00,
  0xdc, 0x2d, 0x00, 0x00, 0x28, 0x69, 0x01, 0x00, 0x03, 0x00, 0x00, 0x00,
  0x01, 0x00, 0x00, 0x00, 0x04, 0x00, 0x00, 0x00, 0xde, 0xb3, 0xff, 0xff,
  0x0c, 0x00, 0x00, 0x00, 0x1c, 0x00, 0x00, 0x00, 0x3c, 0x00, 0x00, 0x00,
  0x0f, 0x00, 0x00, 0x00, 0x73, 0x65, 0x72, 0x76, 0x69, 0x6e, 0x67, 0x5f,
  0x64, 0x65, 0x66, 0x61, 0x75, 0x6c, 0x74, 0x00, 0x01, 0x00, 0x00, 0x00,
  0x04, 0x00, 0x00, 0x00, 0x98, 0xff, 0xff, 0xff, 0x0a, 0x01, 0x00, 0x00,
  0x04, 0x00, 0x00, 0x00, 0x09, 0x00, 0x00, 0x00, 0x73, 0x6f, 0x66, 0x74,
  0x6d, 0x61, 0x78, 0x5f, 0x31, 0x00, 0x00, 0x00, 0x01, 0x00, 0x00, 0x00,
  0x04, 0x00, 0x00, 0x00, 0xd2, 0xcf, 0xff, 0xff, 0x04, 0x00, 0x00, 0x00,
  0x07, 0x00, 0x00, 0x00, 0x69, 0x6e, 0x70, 0x75, 0x74, 0x5f, 0x32, 0x00,
  0x02, 0x00, 0x00, 0x00, 0x34, 0x00, 0x00, 0x00, 0x04, 0x00, 0x00, 0x00,
  0xdc, 0xff, 0xff, 0xff, 0x0d, 0x01, 0x00, 0x00, 0x04, 0x00, 0x00, 0x00,
  0x13, 0x00, 0x00, 0x00, 0x43, 0x4f, 0x4e, 0x56, 0x45, 0x52, 0x53, 0x49,
  0x4f, 0x4e, 0x5f, 0x4d, 0x45, 0x54, 0x41, 0x44, 0x41, 0x54, 0x41, 0x00,
  0x08, 0x00, 0x0c, 0x00, 0x08, 0x00, 0x04, 0x00, 0x08, 0x00, 0x00, 0x00,
  0x0c, 0x01, 0x00, 0x00, 0x04, 0x00, 0x00, 0x00, 0x13, 0x00, 0x00, 0x00,
  0x6d, 0x69, 0x6e, 0x5f, 0x72, 0x75, 0x6e, 0x74, 0x69, 0x6d, 0x65, 0x5f,
  0x76, 0x65, 0x72, 0x73, 0x69, 0x6f, 0x6e, 0x00, 0x0e, 0x01, 0x00, 0x00,
  0xec, 0x2c, 0x00, 0x00, 0xe4, 0x2c, 0x00, 0x00, 0xd0, 0x2c, 0x00, 0x00,
  0xb8, 0x2c, 0x00, 0x00, 0xa0, 0x2c, 0x00, 0x00, 0x70, 0x2c, 0x00, 0x00,
  0x60, 0x2b, 0x00, 0x00, 0xd0, 0x2a, 0x00, 0x00, 0x40, 0x28, 0x00, 0x00,
  0x3c, 0x26, 0x00, 0x00, 0x9c, 0x24, 0x00, 0x00, 0x78, 0x24, 0x00, 0x00,
  0x54, 0x24, 0x00, 0x00, 0x08, 0x24, 0x00, 0x00, 0xa8, 0x23, 0x00, 0x00,
  0x5c, 0x23, 0x00, 0x00, 0xbc, 0x21, 0x00, 0x00, 0x98, 0x21, 0x00, 0x00,
  0x74, 0x21, 0x00, 0x00, 0x28, 0x21, 0x00, 0x00, 0xc8, 0x20, 0x00, 0x00,
  0x7c, 0x20, 0x00, 0x00, 0xdc, 0x1e, 0x00, 0x00, 0xb8, 0x1e, 0x00, 0x00,
  0x94, 0x1e, 0x00, 0x00, 0x48, 0x1e, 0x00, 0x00, 0xe8, 0x1d, 0x00, 0x00,
  0x9c, 0x1d, 0x00, 0x00, 0xfc, 0x1b, 0x00, 0x00, 0xd8, 0x1b, 0x00, 0x00,
  0xb4, 0x1b, 0x00, 0x00, 0x54, 0x1b, 0x00, 0x00, 0x4c, 0x1b, 0x00, 0x00,
  0x44, 0x1b, 0x00, 0x00, 0x3c, 0x1b, 0x00, 0x00, 0x34, 0x1b, 0x00, 0x00,
  0x2c, 0x1b, 0x00, 0x00, 0x24, 0x1b, 0x00, 0x00, 0x1c, 0x1b, 0x00, 0x00,
  0x14, 0x1b, 0x00, 0x00, 0xc8, 0x1a, 0x00, 0x00, 0x68, 0x1a, 0x00, 0x00,
  0x1c, 0x1a, 0x00, 0x00, 0xbc, 0x19, 0x00, 0x00, 0x6c, 0x18, 0x00, 0x00,
  0x5c, 0x17, 0x00, 0x00, 0x3c, 0x17, 0x00, 0x00, 0x1c, 0x17, 0x00, 0x00,
  0xdc, 0x16, 0x00, 0x00, 0x8c, 0x16, 0x00, 0x00, 0x4c, 0x16, 0x00, 0x00,
  0x3c, 0x15, 0x00, 0x00, 0x1c, 0x15, 0x00, 0x00, 0xfc, 0x14, 0x00, 0x00,
  0xbc, 0x14, 0x00, 0x00, 0x6c, 0x14, 0x00, 0x00, 0x2c, 0x14, 0x00, 0x00,
  0x1c, 0x13, 0x00, 0x00, 0xfc, 0x12, 0x00, 0x00, 0xdc, 0x12, 0x00, 0x00,
  0x9c, 0x12, 0x00, 0x00, 0x4c, 0x12, 0x00, 0x00, 0x0c, 0x12, 0x00, 0x00,
  0xfc, 0x10, 0x00, 0x00, 0xdc, 0x10, 0x00, 0x00, 0xbc, 0x10, 0x00, 0x00,
  0x6c, 0x10, 0x00, 0x00, 0x64, 0x10, 0x00, 0x00, 0x5c, 0x10, 0x00, 0x00,
  0x54, 0x10, 0x00, 0x00, 0x4c, 0x10, 0x00, 0x00, 0x44, 0x10, 0x00, 0x00,
  0x3c, 0x10, 0x00, 0x00, 0x34, 0x10, 0x00, 0x00, 0xf4, 0x0f, 0x00, 0x00,
  0xa4, 0x0f, 0x00, 0x00, 0x64, 0x0f, 0x00, 0x00, 0x14, 0x0f, 0x00, 0x00,
  0x44, 0x0e, 0x00, 0x00, 0xa4, 0x0d, 0x00, 0x00, 0x88, 0x0d, 0x00, 0x00,
  0x6c, 0x0d, 0x00, 0x00, 0x38, 0x0d, 0x00, 0x00, 0xf8, 0x0c, 0x00, 0x00,
  0xc4, 0x0c, 0x00, 0x00, 0x24, 0x0c, 0x00, 0x00, 0x08, 0x0c, 0x00, 0x00,
  0xec, 0x0b, 0x00, 0x00, 0xac, 0x0b, 0x00, 0x00, 0xa4, 0x0b, 0x00, 0x00,
  0x9c, 0x0b, 0x00, 0x00, 0x94, 0x0b, 0x00, 0x00, 0x60, 0x0b, 0x00, 0x00,
  0x20, 0x0b, 0x00, 0x00, 0xec, 0x0a, 0x00, 0x00, 0xac, 0x0a, 0x00, 0x00,
  0x3c, 0x0a, 0x00, 0x00, 0xec, 0x09, 0x00, 0x00, 0xd4, 0x09, 0x00, 0x00,
  0xbc, 0x09, 0x00, 0x00, 0x94, 0x09, 0x00, 0x00, 0x64, 0x09, 0x00, 0x00,
  0x3c, 0x09, 0x00, 0x00, 0xec, 0x08, 0x00, 0x00, 0xd4, 0x08, 0x00, 0x00,
  0xbc, 0x08, 0x00, 0x00, 0x8c, 0x08, 0x00, 0x00, 0x84, 0x08, 0x00, 0x00,
  0x7c, 0x08, 0x00, 0x00, 0x74, 0x08, 0x00, 0x00, 0x4c, 0x08, 0x00, 0x00,
  0x1c, 0x08, 0x00, 0x00, 0xf4, 0x07, 0x00, 0x00, 0xc4, 0x07, 0x00, 0x00,
  0x34, 0x07, 0x00, 0x00, 0xe4, 0x06, 0x00, 0x00, 0x44, 0x05, 0x00, 0x00,
  0x3c, 0x05, 0x00, 0x00, 0x34, 0x05, 0x00, 0x00, 0x2c, 0x05, 0x00, 0x00,
  0x24, 0x05, 0x00, 0x00, 0x1c, 0x05, 0x00, 0x00, 0x14, 0x05, 0x00, 0x00,
  0x0c, 0x05, 0x00, 0x00, 0x04, 0x05, 0x00, 0x00, 0xfc, 0x04, 0x00, 0x00,
  0xf4, 0x04, 0x00, 0x00, 0xec, 0x04, 0x00, 0x00, 0xe4, 0x04, 0x00, 0x00,
  0xdc, 0x04, 0x00, 0x00, 0xd4, 0x04, 0x00, 0x00, 0xcc, 0x04, 0x00, 0x00,
  0xc4, 0x04, 0x00, 0x00, 0xbc, 0x04, 0x00, 0x00, 0xb4, 0x04, 0x00, 0x00,
  0xac, 0x04, 0x00, 0x00, 0xa4, 0x04, 0x00, 0x00, 0x9c, 0x04, 0x00, 0x00,
  0x94, 0x04, 0x00, 0x00, 0x8c, 0x04, 0x00, 0x00, 0x84, 0x04, 0x00, 0x00,
  0x7c, 0x04, 0x00, 0x00, 0x74, 0x04, 0x00, 0x00, 0x6c, 0x04, 0x00, 0x00,
  0x64, 0x04, 0x00, 0x00, 0x5c, 0x04, 0x00, 0x00, 0x54, 0x04, 0x00, 0x00,
  0x4c, 0x04, 0x00, 0x00, 0x44, 0x04, 0x00, 0x00, 0x3c, 0x04, 0x00, 0x00,
  0x34, 0x04, 0x00, 0x00, 0x2c, 0x04, 0x00, 0x00, 0x24, 0x04, 0x00, 0x00,
  0x1c, 0x04, 0x00, 0x00, 0x14, 0x04, 0x00, 0x00, 0x0c, 0x04, 0x00, 0x00,
  0x04, 0x04, 0x00, 0x00, 0xfc, 0x03, 0x00, 0x00, 0xf4, 0x03, 0x00, 0x00,
  0xec, 0x03, 0x00, 0x00, 0xe4, 0x03, 0x00, 0x00, 0xdc, 0x03, 0x00, 0x00,
  0xd4, 0x03, 0x00, 0x00, 0xcc, 0x03, 0x00, 0x00, 0xc4, 0x03, 0x00, 0x00,
  0xbc, 0x03, 0x00, 0x00, 0xb4, 0x03, 0x00, 0x00, 0xac, 0x03, 0x00, 0x00,
  0xa4, 0x03, 0x00, 0x00, 0x9c, 0x03, 0x00, 0x00, 0x94, 0x03, 0x00, 0x00,
  0x8c, 0x03, 0x00, 0x00, 0x84, 0x03, 0x00, 0x00, 0x7c, 0x03, 0x00, 0x00,
  0x74, 0x03, 0x00, 0x00, 0x6c, 0x03, 0x00, 0x00, 0x64, 0x03, 0x00, 0x00,
  0x5c, 0x03, 0x00, 0x00, 0x54, 0x03, 0x00, 0x00, 0x4c, 0x03, 0x00, 0x00,
  0x44, 0x03, 0x00, 0x00, 0x3c, 0x03, 0x00, 0x00, 0x34, 0x03, 0x00, 0x00,
  0x2c, 0x03, 0x00, 0x00, 0x24, 0x03, 0x00, 0x00, 0x1c, 0x03, 0x00, 0x00,
  0x14, 0x03, 0x00, 0x00, 0x0c, 0x03, 0x00, 0x00, 0x04, 0x03, 0x00, 0x00,
  0xfc, 0x02, 0x00, 0x00, 0xf4, 0x02, 0x00, 0x00, 0xec, 0x02, 0x00, 0x00,
  0xe4, 0x02, 0x00, 0x00, 0xdc, 0x02, 0x00, 0x00, 0xd4, 0x02, 0x00, 0x00,
  0xcc, 0x02, 0x00, 0x00, 0xc4, 0x02, 0x00, 0x00, 0xbc, 0x02, 0x00, 0x00,
  0xb4, 0x02, 0x00, 0x00, 0xac, 0x02, 0x00, 0x00, 0xa4, 0x02, 0x00, 0x00,
  0x9c, 0x02, 0x00, 0x00, 0x94, 0x02, 0x00, 0x00, 0x8c, 0x02, 0x00, 0x00,
  0x84, 0x02, 0x00, 0x00, 0x7c, 0x02, 0x00, 0x00, 0x74, 0x02, 0x00, 0x00,
  0x6c, 0x02, 0x00, 0x00, 0x64, 0x02, 0x00, 0x00, 0x5c, 0x02, 0x00, 0x00,
  0x54, 0x02, 0x00, 0x00, 0x4c, 0x02, 0x00, 0x00, 0x44, 0x02, 0x00, 0x00,
  0x3c, 0x02, 0x00, 0x00, 0x34, 0x02, 0x00, 0x00, 0x2c, 0x02, 0x00, 0x00,
  0x24, 0x02, 0x00, 0x00, 0x1c, 0x02, 0x00, 0x00, 0x14, 0x02, 0x00, 0x00,
  0x0c, 0x02, 0x00, 0x00, 0x04, 0x02, 0x00, 0x00, 0xfc, 0x01, 0x00, 0x00,
  0xf4, 0x01, 0x00, 0x00, 0xec, 0x01, 0x00, 0x00, 0xe4, 0x01, 0x00, 0x00,
  0xdc, 0x01, 0x00, 0x00, 0xd4, 0x01, 0x00, 0x00, 0xcc, 0x01, 0x00, 0x00,
  0xc4, 0x01, 0x00, 0x00, 0xbc, 0x01, 0x00, 0x00, 0xb4, 0x01, 0x00, 0x00,
  0xac, 0x01, 0x00, 0x00, 0xa4, 0x01, 0x00, 0x00, 0x9c, 0x01, 0x00, 0x00,
  0x94, 0x01, 0x00, 0x00, 0x8c, 0x01, 0x00, 0x00, 0x84, 0x01, 0x00, 0x00,
  0x7c, 0x01, 0x00, 0x00, 0x74, 0x01, 0x00, 0x00, 0x6c, 0x01, 0x00, 0x00,
  0x64, 0x01, 0x00, 0x00, 0x5c, 0x01, 0x00, 0x00, 0x54, 0x01, 0x00, 0x00,
  0x4c, 0x01, 0x00, 0x00, 0x44, 0x01, 0x00, 0x00, 0x3c, 0x01, 0x00, 0x00,
  0x34, 0x01, 0x00, 0x00, 0x2c, 0x01, 0x00, 0x00, 0x24, 0x01, 0x00, 0x00,
  0x1c, 0x01, 0x00, 0x00, 0x14, 0x01, 0x00, 0x00, 0x0c, 0x01, 0x00, 0x00,
  0x04, 0x01, 0x00, 0x00, 0xfc, 0x00, 0x00, 0x00, 0xf4, 0x00, 0x00, 0x00,
  0xec, 0x00, 0x00, 0x00, 0xe4, 0x00, 0x00, 0x00, 0xdc, 0x00, 0x00, 0x00,
  0xd4, 0x00, 0x00, 0x00, 0xcc, 0x00, 0x00, 0x00, 0xc4, 0x00, 0x00, 0x00,
  0xbc, 0x00, 0x00, 0x00, 0xb4, 0x00, 0x00, 0x00, 0xac, 0x00, 0x00, 0x00,
  0xa4, 0x00, 0x00, 0x00, 0x9c, 0x00, 0x00, 0x00, 0x94, 0x00, 0x00, 0x00,
  0x8c, 0x00, 0x00, 0x00, 0x6c, 0x00, 0x00, 0x00, 0x04, 0x00, 0x00, 0x00,
  0x7e, 0xd4, 0xff, 0xff, 0x04, 0x00, 0x00, 0x00, 0x58, 0x00, 0x00, 0x00,
  0x0c, 0x00, 0x00, 0x00, 0x08, 0x00, 0x0e, 0x00, 0x08, 0x00, 0x04, 0x00,
  0x08, 0x00, 0x00, 0x00, 0x10, 0x00, 0x00, 0x00, 0x28, 0x00, 0x00, 0x00,
  0x00, 0x00, 0x06, 0x00, 0x08, 0x00, 0x04, 0x00, 0x06, 0x00, 0x00, 0x00,
  0x04, 0x00, 0x00, 0x00, 0x01, 0x00, 0x00, 0x00, 0xeb, 0x03, 0x00, 0x00,
  0x00, 0x00, 0x0a, 0x00, 0x10, 0x00, 0x0c, 0x00, 0x08, 0x00, 0x04, 0x00,
  0x0a, 0x00, 0x00, 0x00, 0x02, 0x00, 0x00, 0x00, 0x02, 0x00, 0x00, 0x00,
  0x04, 0x00, 0x00, 0x00, 0x06, 0x00, 0x00, 0x00, 0x32, 0x2e, 0x31, 0x35,
  0x2e, 0x30, 0x00, 0x00, 0xe2, 0xd4, 0xff, 0xff, 0x04, 0x00, 0x00, 0x00,
  0x10, 0x00, 0x00, 0x00, 0x32, 0x2e, 0x39, 0x2e, 0x30, 0x00, 0x00, 0x00,
  0x00, 0x00, 0x00, 0x00, 0x00, 0x00, 0x00, 0x00, 0xb0, 0x9d, 0xfe, 0xff,
  0xb4, 0x9d, 0xfe, 0xff, 0xb8, 0x9d, 0xfe, 0xff, 0xbc, 0x9d, 0xfe, 0xff,
  0xc0, 0x9d, 0xfe, 0xff, 0xc4, 0x9d, 0xfe, 0xff, 0xc8, 0x9d, 0xfe, 0xff,
  0xcc, 0x9d, 0xfe, 0xff, 0xd0, 0x9d, 0xfe, 0xff, 0xd4, 0x9d, 0xfe, 0xff,
  0xd8, 0x9d, 0xfe, 0xff, 0xdc, 0x9d, 0xfe, 0xff, 0xe0, 0x9d, 0xfe, 0xff,
  0xe4, 0x9d, 0xfe, 0xff, 0xe8, 0x9d, 0xfe, 0xff, 0xec, 0x9d, 0xfe, 0xff,
  0xf0, 0x9d, 0xfe, 0xff, 0xf4, 0x9d, 0xfe, 0xff, 0xf8, 0x9d, 0xfe, 0xff,
  0xfc, 0x9d, 0xfe, 0xff, 0x00, 0x9e, 0xfe, 0xff, 0x04, 0x9e, 0xfe, 0xff,
  0x08, 0x9e, 0xfe, 0xff, 0x0c, 0x9e, 0xfe, 0xff, 0x10, 0x9e, 0xfe, 0xff,
  0x14, 0x9e, 0xfe, 0xff, 0x18, 0x9e, 0xfe, 0xff, 0x1c, 0x9e, 0xfe, 0xff,
  0x20, 0x9e, 0xfe, 0xff, 0x24, 0x9e, 0xfe, 0xff, 0x28, 0x9e, 0xfe, 0xff,
  0x2c, 0x9e, 0xfe, 0xff, 0x30, 0x9e, 0xfe, 0xff, 0x34, 0x9e, 0xfe, 0xff,
  0x38, 0x9e, 0xfe, 0xff, 0x3c, 0x9e, 0xfe, 0xff, 0x40, 0x9e, 0xfe, 0xff,
  0x44, 0x9e, 0xfe, 0xff, 0x48, 0x9e, 0xfe, 0xff, 0x4c, 0x9e, 0xfe, 0xff,
  0x50, 0x9e, 0xfe, 0xff, 0x54, 0x9e, 0xfe, 0xff, 0x58, 0x9e, 0xfe, 0xff,
  0x5c, 0x9e, 0xfe, 0xff, 0x60, 0x9e, 0xfe, 0xff, 0x64, 0x9e, 0xfe, 0xff,
  0x68, 0x9e, 0xfe, 0xff, 0x6c, 0x9e, 0xfe, 0xff, 0x70, 0x9e, 0xfe, 0xff,
  0x74, 0x9e, 0xfe, 0xff, 0x78, 0x9e, 0xfe, 0xff, 0x7c, 0x9e, 0xfe, 0xff,
  0x80, 0x9e, 0xfe, 0xff, 0x84, 0x9e, 0xfe, 0xff, 0x88, 0x9e, 0xfe, 0xff,
  0x8c, 0x9e, 0xfe, 0xff, 0x90, 0x9e, 0xfe, 0xff, 0x94, 0x9e, 0xfe, 0xff,
  0x98, 0x9e, 0xfe, 0xff, 0x9c, 0x9e, 0xfe, 0xff, 0xa0, 0x9e, 0xfe, 0xff,
  0xa4, 0x9e, 0xfe, 0xff, 0xa8, 0x9e, 0xfe, 0xff, 0xac, 0x9e, 0xfe, 0xff,
  0xb0, 0x9e, 0xfe, 0xff, 0xb4, 0x9e, 0xfe, 0xff, 0xb8, 0x9e, 0xfe, 0xff,
  0xbc, 0x9e, 0xfe, 0xff, 0xc0, 0x9e, 0xfe, 0xff, 0xc4, 0x9e, 0xfe, 0xff,
  0xc8, 0x9e, 0xfe, 0xff, 0xcc, 0x9e, 0xfe, 0xff, 0xd0, 0x9e, 0xfe, 0xff,
  0xd4, 0x9e, 0xfe, 0xff, 0xd8, 0x9e, 0xfe, 0xff, 0xdc, 0x9e, 0xfe, 0xff,
  0xe0, 0x9e, 0xfe, 0xff, 0xe4, 0x9e, 0xfe, 0xff, 0xe8, 0x9e, 0xfe, 0xff,
  0xec, 0x9e, 0xfe, 0xff, 0xf0, 0x9e, 0xfe, 0xff, 0xf4, 0x9e, 0xfe, 0xff,
  0xf8, 0x9e, 0xfe, 0xff, 0xfc, 0x9e, 0xfe, 0xff, 0x00, 0x9f, 0xfe, 0xff,
  0x04, 0x9f, 0xfe, 0xff, 0x08, 0x9f, 0xfe, 0xff, 0x0c, 0x9f, 0xfe, 0xff,
  0x10, 0x9f, 0xfe, 0xff, 0x14, 0x9f, 0xfe, 0xff, 0x18, 0x9f, 0xfe, 0xff,
  0x1c, 0x9f, 0xfe, 0xff, 0x20, 0x9f, 0xfe, 0xff, 0x24, 0x9f, 0xfe, 0xff,
  0x28, 0x9f, 0xfe, 0xff, 0x2c, 0x9f, 0xfe, 0xff, 0x30, 0x9f, 0xfe, 0xff,
  0x34, 0x9f, 0xfe, 0xff, 0x38, 0x9f, 0xfe, 0xff, 0x3c, 0x9f, 0xfe, 0xff,
  0x40, 0x9f, 0xfe, 0xff, 0x44, 0x9f, 0xfe, 0xff, 0x48, 0x9f, 0xfe, 0xff,
  0x4c, 0x9f, 0xfe, 0xff, 0x50, 0x9f, 0xfe, 0xff, 0x54, 0x9f, 0xfe, 0xff,
  0x58, 0x9f, 0xfe, 0xff, 0x5c, 0x9f, 0xfe, 0xff, 0x60, 0x9f, 0xfe, 0xff,
  0x64, 0x9f, 0xfe, 0xff, 0x68, 0x9f, 0xfe, 0xff, 0x6c, 0x9f, 0xfe, 0xff,
  0x70, 0x9f, 0xfe, 0xff, 0x74, 0x9f, 0xfe, 0xff, 0x78, 0x9f, 0xfe, 0xff,
  0x7c, 0x9f, 0xfe, 0xff, 0x80, 0x9f, 0xfe, 0xff, 0x84, 0x9f, 0xfe, 0xff,
  0x88, 0x9f, 0xfe, 0xff, 0x8c, 0x9f, 0xfe, 0xff, 0x90, 0x9f, 0xfe, 0xff,
  0x94, 0x9f, 0xfe, 0xff, 0x98, 0x9f, 0xfe, 0xff, 0x9c, 0x9f, 0xfe, 0xff,
  0xa0, 0x9f, 0xfe, 0xff, 0xa4, 0x9f, 0xfe, 0xff, 0xa8, 0x9f, 0xfe, 0xff,
  0xac, 0x9f, 0xfe, 0xff, 0xb0, 0x9f, 0xfe, 0xff, 0xb4, 0x9f, 0xfe, 0xff,
  0xb8, 0x9f, 0xfe, 0xff, 0xbc, 0x9f, 0xfe, 0xff, 0xc0, 0x9f, 0xfe, 0xff,
  0xc4, 0x9f, 0xfe, 0xff, 0xc8, 0x9f, 0xfe, 0xff, 0xcc, 0x9f, 0xfe, 0xff,
  0xd0, 0x9f, 0xfe, 0xff, 0xd4, 0x9f, 0xfe, 0xff, 0xd8, 0x9f, 0xfe, 0xff,
  0xdc, 0x9f, 0xfe, 0xff, 0xe0, 0x9f, 0xfe, 0xff, 0xe4, 0x9f, 0xfe, 0xff,
  0xe8, 0x9f, 0xfe, 0xff, 0xec, 0x9f, 0xfe, 0xff, 0xf0, 0x9f, 0xfe, 0xff,
  0xf4, 0x9f, 0xfe, 0xff, 0xf8, 0x9f, 0xfe, 0xff, 0xfc, 0x9f, 0xfe, 0xff,
  0x00, 0xa0, 0xfe, 0xff, 0x04, 0xa0, 0xfe, 0xff, 0x08, 0xa0, 0xfe, 0xff,
  0x5a, 0xd7, 0xff, 0xff, 0x04, 0x00, 0x00, 0x00, 0x90, 0x01, 0x00, 0x00,
  0x01, 0xf0, 0x20, 0x7f, 0x6a, 0x36, 0xc0, 0xfd, 0x41, 0x3a, 0xd1, 0xdc,
  0xde, 0x3c, 0x7e, 0x95, 0xa8, 0x00, 0x3a, 0xf1, 0xe8, 0xcf, 0xe8, 0xef,
  0xf9, 0x14, 0x7f, 0x48, 0x15, 0x22, 0x09, 0x70, 0xe6, 0xe7, 0xca, 0x07,
  0x27, 0xe6, 0xde, 0xd5, 0xf0, 0xd7, 0xef, 0xf5, 0xfd, 0xdb, 0xd6, 0x02,
  0xe7, 0xe2, 0xed, 0x4f, 0x08, 0x7f, 0x3e, 0x0e, 0x12, 0xe8, 0x07, 0xec,
  0x41, 0xf1, 0x1f, 0xee, 0xf4, 0x0c, 0xc5, 0xd0, 0xe4, 0xc6, 0xc5, 0xb7,
  0xb9, 0xae, 0xe7, 0xff, 0xbf, 0xd0, 0xf4, 0xa6, 0x3a, 0x1b, 0xdc, 0x7f,
  0xeb, 0x5e, 0x34, 0x52, 0xff, 0x70, 0x35, 0x1d, 0x12, 0x36, 0x72, 0xf2,
  0xdb, 0xf4, 0x1b, 0x0c, 0x01, 0x02, 0x04, 0x12, 0x11, 0x62, 0x29, 0x7f,
  0x03, 0x2b, 0xed, 0xfc, 0x77, 0x1a, 0xe0, 0xd9, 0xd9, 0x31, 0xed, 0xd1,
  0x12, 0xef, 0xd4, 0x10, 0xe4, 0xd5, 0x15, 0x7f, 0x3a, 0xbd, 0xf3, 0xed,
  0x3e, 0x71, 0x2d, 0x17, 0x03, 0x1b, 0xd4, 0x34, 0x1d, 0x08, 0xda, 0xf3,
  0xf2, 0x09, 0xec, 0xcd, 0xfb, 0xf0, 0x3b, 0x7f, 0x12, 0x31, 0x36, 0x30,
  0x25, 0xd1, 0x44, 0x3a, 0x28, 0x40, 0x46, 0x7f, 0x16, 0x1f, 0x22, 0x00,
  0x14, 0xf8, 0xd0, 0x1c, 0x4f, 0xc1, 0xbf, 0xe8, 0x1c, 0xd6, 0x15, 0x31,
  0x0d, 0x15, 0x5e, 0x4d, 0xe3, 0xd5, 0x45, 0xd6, 0x04, 0x17, 0x16, 0x7f,
  0x14, 0xf8, 0x01, 0xd0, 0x08, 0xda, 0x41, 0x3e, 0x81, 0x29, 0xda, 0xde,
  0xc0, 0xd7, 0xa8, 0xaf, 0xc5, 0xe9, 0xd1, 0xe1, 0xea, 0xd7, 0x12, 0x35,
  0x40, 0x06, 0x08, 0xd0, 0x27, 0x35, 0xec, 0xe4, 0x3c, 0x00, 0x1d, 0x0a,
  0x01, 0x10, 0x7f, 0x3a, 0x19, 0xcc, 0x04, 0x27, 0x14, 0xf3, 0xdc, 0x10,
  0x34, 0x13, 0xfb, 0x05, 0xf8, 0xff, 0xf3, 0xf6, 0xe9, 0xe7, 0x0f, 0xcc,
  0x15, 0xe5, 0xf9, 0x11, 0x0e, 0xd0, 0xe4, 0xf4, 0xf6, 0x2a, 0xf8, 0x17,
  0x17, 0x32, 0x1b, 0xf7, 0x05, 0xf2, 0x01, 0xec, 0xdf, 0x81, 0xa4, 0x01,
  0xe5, 0xc9, 0x76, 0x5c, 0xf2, 0xdf, 0xe4, 0x23, 0x39, 0xf0, 0xed, 0x02,
  0xe5, 0xea, 0x31, 0xed, 0x7f, 0x2d, 0xc3, 0x02, 0x4b, 0xed, 0xe5, 0xfd,
  0xdf, 0xef, 0xf2, 0x0e, 0xda, 0xd8, 0x06, 0xf5, 0xec, 0xdf, 0x11, 0x3e,
  0xfe, 0xef, 0xec, 0x5b, 0x7f, 0x09, 0xd8, 0xe7, 0x32, 0x0e, 0x1e, 0xfa,
  0xe5, 0x46, 0x06, 0x1a, 0xff, 0x5c, 0xf4, 0x91, 0xc9, 0xb9, 0xe8, 0xf1,
  0xb7, 0xf4, 0xb3, 0x06, 0x16, 0x15, 0x44, 0x3a, 0x2e, 0x24, 0x7f, 0x5c,
  0x3e, 0x16, 0x81, 0xe7, 0xb8, 0x08, 0xcc, 0xbd, 0x10, 0xfa, 0x06, 0xdf,
  0xea, 0x1b, 0x0c, 0x26, 0x42, 0xcb, 0x06, 0xf3, 0x4f, 0x61, 0xe1, 0xfb,
  0x42, 0xf2, 0x20, 0xe6, 0xce, 0x13, 0x9b, 0x10, 0xf0, 0xf6, 0x1a, 0xb8,
  0x3a, 0xb0, 0x47, 0x46, 0x08, 0x08, 0xfa, 0x7f, 0x27, 0x06, 0xde, 0xbc,
  0x1e, 0xdf, 0xf5, 0x35, 0xf6, 0xd8, 0xff, 0xff, 0x04, 0x00, 0x00, 0x00,
  0x40, 0x00, 0x00, 0x00, 0x66, 0xbf, 0xff, 0xff, 0xa8, 0xd2, 0xff, 0xff,
  0xfe, 0x1c, 0x00, 0x00, 0xc6, 0x83, 0xff, 0xff, 0xc7, 0xaf, 0xff, 0xff,
  0x1b, 0x7c, 0xff, 0xff, 0x27, 0xe5, 0xfe, 0xff, 0x25, 0x56, 0xff, 0xff,
  0xd7, 0x93, 0x00, 0x00, 0x01, 0xa3, 0xff, 0xff, 0x3f, 0x5d, 0x00, 0x00,
  0x29, 0x9a, 0xff, 0xff, 0x28, 0xd1, 0xff, 0xff, 0x4c, 0xcc, 0xff, 0xff,
  0x15, 0xe5, 0xff, 0xff, 0x9c, 0xd9, 0xff, 0xff, 0x42, 0xd9, 0xff, 0xff,
  0x04, 0x00, 0x00, 0x00, 0x80, 0x00, 0x00, 0x00, 0x65, 0xb0, 0xe5, 0xcb,
  0xb1, 0x7f, 0x76, 0x0f, 0x54, 0xa9, 0x64, 0x35, 0x56, 0x04, 0xde, 0x05,
  0xc0, 0x62, 0x14, 0x99, 0x32, 0x43, 0xe8, 0x6b, 0x81, 0xb4, 0x64, 0xe9,
  0x3a, 0xb1, 0x37, 0x16, 0x09, 0x95, 0x44, 0xeb, 0x81, 0xda, 0xc2, 0x45,
  0xb9, 0x31, 0x4f, 0xe1, 0x75, 0x7e, 0x42, 0xe6, 0x43, 0xdf, 0x92, 0x81,
  0xd6, 0x26, 0x61, 0xc2, 0x33, 0xb1, 0x26, 0xdf, 0x18, 0xf5, 0x31, 0xf2,
  0x3e, 0x0a, 0x4b, 0xf4, 0xbd, 0x7f, 0xd0, 0x1a, 0x02, 0xc9, 0xbe, 0x4d,
  0xcc, 0xf5, 0xcf, 0xe0, 0xb0, 0x7f, 0x36, 0xf0, 0xbf, 0x48, 0x25, 0x1f,
  0x0d, 0x7d, 0xc2, 0x10, 0x70, 0xf0, 0xc0, 0x11, 0x48, 0x5b, 0x23, 0x30,
  0x5f, 0x2e, 0x5b, 0x3c, 0xe3, 0x70, 0xf5, 0x26, 0x12, 0x81, 0x4b, 0x4e,
  0x1c, 0x47, 0x0b, 0xb4, 0xe3, 0x23, 0xb8, 0xca, 0xf9, 0x23, 0xb0, 0xbc,
  0x3f, 0x7f, 0x3d, 0x06, 0xce, 0xd9, 0xff, 0xff, 0x04, 0x00, 0x00, 0x00,
  0x20, 0x00, 0x00, 0x00, 0xf8, 0xe7, 0xff, 0xff, 0x9b, 0x00, 0x00, 0x00,
  0xa8, 0xf5, 0xff, 0xff, 0xe1, 0x0a, 0x00, 0x00, 0x44, 0xff, 0xff, 0xff,
  0xea, 0xfa, 0xff, 0xff, 0xb2, 0xdd, 0xff, 0xff, 0xcc, 0x05, 0x00, 0x00,
  0xfa, 0xd9, 0xff, 0xff, 0x04, 0x00, 0x00, 0x00, 0x18, 0x00, 0x00, 0x00,
  0x66, 0xe8, 0x81, 0x7f, 0xce, 0xdc, 0xba, 0x09, 0x81, 0xe1, 0x81, 0x89,
  0x7f, 0x5a, 0xfd, 0x28, 0x7f, 0xf5, 0x81, 0xcb, 0x06, 0xcc, 0x4e, 0x81,
  0x1e, 0xda, 0xff, 0xff, 0x04, 0x00, 0x00, 0x00, 0x20, 0x00, 0x00, 0x00,
  0x0f, 0x03, 0x00, 0x00, 0x74, 0x02, 0x00, 0x00, 0xc1, 0x18, 0x00, 0x00,
  0x35, 0x15, 0x00, 0x00, 0xde, 0xf9, 0xff, 0xff, 0xff, 0xf7, 0xff, 0xff,
  0x21, 0x08, 0x00, 0x00, 0x27, 0x06, 0x00, 0x00, 0x4a, 0xda, 0xff, 0xff,
  0x04, 0x00, 0x00, 0x00, 0x18, 0x00, 0x00, 0x00, 0x81, 0x14, 0x8c, 0x81,
  0xe9, 0x0e, 0x99, 0x12, 0x7f, 0x16, 0x1b, 0x7f, 0x3b, 0x81, 0x0d, 0xf0,
  0xe1, 0x81, 0xb6, 0x7f, 0x1f, 0x61, 0x07, 0x81, 0x20, 0xa3, 0xfe, 0xff,
  0x24, 0xa3, 0xfe, 0xff, 0x28, 0xa3, 0xfe, 0xff, 0x7a, 0xda, 0xff, 0xff,
  0x04, 0x00, 0x00, 0x00, 0x20, 0x00, 0x00, 0x00, 0x00, 0x00, 0x00, 0x00,
  0x00, 0x00, 0x00, 0x00, 0x00, 0x00, 0x00, 0x00, 0x00, 0x00, 0x00, 0x00,
  0x00, 0x00, 0x00, 0x00, 0x00, 0x00, 0x00, 0x00, 0x00, 0x00, 0x00, 0x00,
  0x00, 0x00, 0x00, 0x00, 0xa6, 0xda, 0xff, 0xff, 0x04, 0x00, 0x00, 0x00,
  0x08, 0x00, 0x00, 0x00, 0x73, 0x4e, 0x77, 0x5e, 0x7f, 0x6f, 0x4c, 0x68,
  0xba, 0xda, 0xff, 0xff, 0x04, 0x00, 0x00, 0x00, 0x08, 0x00, 0x00, 0x00,
  0x5b, 0x7e, 0x80, 0x25, 0xde, 0x5d, 0x88, 0x7f, 0xce, 0xda, 0xff, 0xff,
  0x04, 0x00, 0x00, 0x00, 0x40, 0x00, 0x00, 0x00, 0x2d, 0x28, 0x0d, 0xdd,
  0xec, 0x81, 0x13, 0x0f, 0x81, 0x04, 0xf2, 0x19, 0x64, 0x3a, 0xcd, 0x3d,
  0xcf, 0x43, 0x81, 0x69, 0x71, 0xcd, 0x9e, 0xf7, 0xfe, 0xc9, 0x7f, 0xb3,
  0xd4, 0x27, 0xe6, 0x05, 0x25, 0x22, 0x26, 0x51, 0x7f, 0x16, 0xcc, 0x5e,
  0x67, 0x26, 0x26, 0x10, 0xfe, 0x7f, 0xd1, 0x3d, 0xd4, 0x03, 0x91, 0x62,
  0xc9, 0x81, 0x16, 0x48, 0x7f, 0x3c, 0x24, 0xcd, 0xed, 0x25, 0xb6, 0xd3,
  0x1a, 0xdb, 0xff, 0xff, 0x04, 0x00, 0x00, 0x00, 0x18, 0x00, 0x00, 0x00,
  0xf7, 0x4f, 0x81, 0x81, 0xc7, 0x6e, 0xf7, 0xbd, 0x7f, 0x81, 0x3d, 0x0d,
  0x7d, 0xcd, 0x7f, 0x7f, 0x54, 0x07, 0x81, 0xbc, 0xff, 0xd2, 0x7f, 0xe9,
  0x3e, 0xdb, 0xff, 0xff, 0x04, 0x00, 0x00, 0x00, 0x20, 0x00, 0x00, 0x00,
  0x66, 0x02, 0x00, 0x00, 0x3f, 0x01, 0x00, 0x00, 0x36, 0xff, 0xff, 0xff,
  0x8c, 0x01, 0x00, 0x00, 0x28, 0xfb, 0xff, 0xff, 0x96, 0xf8, 0xff, 0xff,
  0x78, 0x08, 0x00, 0x00, 0xad, 0xfd, 0xff, 0xff, 0x6a, 0xdb, 0xff, 0xff,
  0x04, 0x00, 0x00, 0x00, 0x18, 0x00, 0x00, 0x00, 0x50, 0xd6, 0x81, 0x81,
  0xed, 0x90, 0x81, 0x61, 0xa1, 0x81, 0x1c, 0x61, 0x81, 0x1f, 0xa2, 0x81,
  0xe7, 0xbd, 0x01, 0xf5, 0x7f, 0x2d, 0x29, 0x81, 0x8e, 0xdb, 0xff, 0xff,
  0x04, 0x00, 0x00, 0x00, 0x08, 0x00, 0x00, 0x00, 0x63, 0x6a, 0x1a, 0x16,
  0x7f, 0x7c, 0x67, 0x41, 0xa2, 0xdb, 0xff, 0xff, 0x04, 0x00, 0x00, 0x00,
  0x08, 0x00, 0x00, 0x00, 0x6e, 0x18, 0x80, 0x50, 0x7f, 0x4a, 0x0e, 0x1a,
  0xb6, 0xdb, 0xff, 0xff, 0x04, 0x00, 0x00, 0x00, 0x40, 0x00, 0x00, 0x00,
  0x45, 0x50, 0x14, 0xa4, 0x09, 0x49, 0x4b, 0x7f, 0xf3, 0x7f, 0x51, 0x00,
  0xea, 0x0f, 0xf3, 0x1a, 0x3c, 0x36, 0xd2, 0x0a, 0x7f, 0x18, 0x15, 0x1d,
  0xf8, 0xe4, 0x38, 0x2d, 0x81, 0x21, 0xd8, 0x0a, 0x3e, 0xbe, 0x26, 0xe6,
  0x81, 0xba, 0xc2, 0xb3, 0xc9, 0x0d, 0x32, 0xea, 0xc1, 0x7f, 0xcd, 0x53,
  0xfb, 0x21, 0x05, 0x06, 0xf4, 0x7f, 0x6d, 0xf6, 0x18, 0xdc, 0x09, 0x10,
  0xfb, 0x81, 0xc4, 0x1b, 0x02, 0xdc, 0xff, 0xff, 0x04, 0x00, 0x00, 0x00,
  0x60, 0x00, 0x00, 0x00, 0x81, 0xe2, 0x24, 0x69, 0x30, 0xa7, 0xda, 0xf1,
  0xcf, 0x49, 0xe4, 0x3e, 0xf9, 0xf2, 0x7f, 0xaa, 0x13, 0x32, 0xec, 0xe2,
  0xbb, 0xbe, 0x81, 0xc1, 0xc4, 0xc7, 0xcd, 0x7f, 0xf3, 0xa8, 0x30, 0xc8,
  0x0b, 0xcd, 0x81, 0x6a, 0x2f, 0xde, 0xa8, 0xc2, 0x37, 0x32, 0x81, 0x38,
  0xba, 0x56, 0xd6, 0xeb, 0x72, 0xf9, 0xe4, 0xdd, 0x81, 0x22, 0x87, 0xa8,
  0x4e, 0xf9, 0xc1, 0x14, 0x7f, 0x99, 0x62, 0x21, 0x0b, 0x81, 0xf3, 0xad,
  0x66, 0x7c, 0x60, 0x2b, 0xd0, 0xa1, 0x70, 0xe2, 0x7f, 0x7f, 0x99, 0x45,
  0x06, 0x69, 0x7f, 0x17, 0xd2, 0x4e, 0x2b, 0x28, 0xdf, 0xd0, 0x31, 0x04,
  0x81, 0x66, 0x00, 0x0c, 0x6e, 0xdc, 0xff, 0xff, 0x04, 0x00, 0x00, 0x00,
  0x30, 0x00, 0x00, 0x00, 0x58, 0x0a, 0x00, 0x00, 0xae, 0x01, 0x00, 0x00,
  0x74, 0x0a, 0x00, 0x00, 0x8a, 0x0c, 0x00, 0x00, 0x66, 0x0d, 0x00, 0x00,
  0x9e, 0x05, 0x00, 0x00, 0x3e, 0x08, 0x00, 0x00, 0x55, 0xfd, 0xff, 0xff,
  0x84, 0xfd, 0xff, 0xff, 0xfd, 0xf9, 0xff, 0xff, 0xb6, 0xf1, 0xff, 0xff,
  0x97, 0xfc, 0xff, 0xff, 0xaa, 0xdc, 0xff, 0xff, 0x04, 0x00, 0x00, 0x00,
  0x24, 0x00, 0x00, 0x00, 0xb4, 0x81, 0xb8, 0x7f, 0x5d, 0x49, 0x4c, 0x7f,
  0x59, 0xd0, 0x81, 0xe3, 0x6a, 0x7f, 0x16, 0xcf, 0x7f, 0xeb, 0x18, 0xe8,
  0x81, 0x7f, 0x1e, 0x29, 0xe1, 0x81, 0xf9, 0x8e, 0x81, 0xde, 0x43, 0x7f,
  0x54, 0x7f, 0x2e, 0x28, 0xda, 0xdc, 0xff, 0xff, 0x04, 0x00, 0x00, 0x00,
  0x30, 0x00, 0x00, 0x00, 0xa4, 0x08, 0x00, 0x00, 0xa5, 0xfb, 0xff, 0xff,
  0x95, 0xf5, 0xff, 0xff, 0x2c, 0x09, 0x00, 0x00, 0x52, 0xfa, 0xff, 0xff,
  0x34, 0xfd, 0xff, 0xff, 0xd5, 0x03, 0x00, 0x00, 0x15, 0xfd, 0xff, 0xff,
  0xfc, 0x0a, 0x00, 0x00, 0xb9, 0x0c, 0x00, 0x00, 0x3a, 0xfb, 0xff, 0xff,
  0x51, 0xfe, 0xff, 0xff, 0x16, 0xdd, 0xff, 0xff, 0x04, 0x00, 0x00, 0x00,
  0x24, 0x00, 0x00, 0x00, 0xeb, 0xeb, 0x7f, 0x7f, 0x85, 0x91, 0xad, 0xe2,
  0x7f, 0xb6, 0x7f, 0x2a, 0x0e, 0x11, 0x7f, 0x7f, 0x09, 0x0d, 0x7f, 0x0f,
  0x85, 0x96, 0x37, 0x7f, 0x81, 0x4b, 0xb8, 0x81, 0x06, 0xcc, 0x81, 0x2a,
  0x82, 0x9c, 0x0d, 0x81, 0xf8, 0xa5, 0xfe, 0xff, 0xfc, 0xa5, 0xfe, 0xff,
  0x00, 0xa6, 0xfe, 0xff, 0x52, 0xdd, 0xff, 0xff, 0x04, 0x00, 0x00, 0x00,
  0x30, 0x00, 0x00, 0x00, 0x00, 0x00, 0x00, 0x00, 0x00, 0x00, 0x00, 0x00,
  0x00, 0x00, 0x00, 0x00, 0x00, 0x00, 0x00, 0x00, 0x00, 0x00, 0x00, 0x00,
  0x00, 0x00, 0x00, 0x00, 0x00, 0x00, 0x00, 0x00, 0x00, 0x00, 0x00, 0x00,
  0x00, 0x00, 0x00, 0x00, 0x00, 0x00, 0x00, 0x00, 0x00, 0x00, 0x00, 0x00,
  0x00, 0x00, 0x00, 0x00, 0x8e, 0xdd, 0xff, 0xff, 0x04, 0x00, 0x00, 0x00,
  0x0c, 0x00, 0x00, 0x00, 0x5c, 0x57, 0x6c, 0x1c, 0x65, 0x3c, 0x55, 0x55,
  0x0a, 0x35, 0x41, 0x7f, 0xa6, 0xdd, 0xff, 0xff, 0x04, 0x00, 0x00, 0x00,
  0x0c, 0x00, 0x00, 0x00, 0x19, 0x63, 0x7f, 0xac, 0x3c, 0x74, 0x64, 0x6e,
  0x80, 0x30, 0x6c, 0x70, 0xbe, 0xdd, 0xff, 0xff, 0x04, 0x00, 0x00, 0x00,
  0x90, 0x00, 0x00, 0x00, 0x7f, 0x92, 0x67, 0xeb, 0xd3, 0x19, 0xe0, 0x05,
  0xe9, 0xeb, 0xbd, 0x5f, 0xc2, 0x48, 0x14, 0xec, 0x86, 0x8a, 0x34, 0xe0,
  0x7f, 0x28, 0xe9, 0x35, 0x06, 0xfb, 0xed, 0xf8, 0xbc, 0xbb, 0x31, 0xeb,
  0xfc, 0x81, 0xf8, 0xf6, 0xc1, 0x31, 0xd3, 0xbd, 0xe4, 0xe0, 0xec, 0x28,
  0x81, 0x30, 0x42, 0x00, 0xb9, 0x63, 0x8c, 0xb3, 0x81, 0x0a, 0x07, 0x84,
  0x7b, 0x7b, 0x0d, 0x60, 0x81, 0xe9, 0xb8, 0x02, 0xe8, 0x52, 0xec, 0x51,
  0x59, 0xbe, 0x4d, 0x0c, 0xfe, 0xba, 0xd6, 0xdc, 0x4c, 0x17, 0xfe, 0x91,
  0x81, 0x90, 0xd3, 0x48, 0xf8, 0x9c, 0xeb, 0xcc, 0x14, 0xe8, 0xd1, 0xa5,
  0xb0, 0x81, 0xfc, 0x62, 0x3f, 0x1c, 0x02, 0xff, 0xa8, 0xee, 0xc4, 0x81,
  0xed, 0xdb, 0x46, 0x76, 0x5f, 0xe5, 0xee, 0x4d, 0xeb, 0x1a, 0x81, 0x74,
  0x4f, 0x3c, 0x98, 0xe4, 0xe3, 0x24, 0x01, 0xd2, 0xe4, 0x45, 0x7f, 0x07,
  0x3a, 0xf0, 0xde, 0x2c, 0xe5, 0xee, 0x2e, 0xeb, 0xac, 0x1a, 0xe0, 0x81,
  0x51, 0xd1, 0x97, 0x55, 0x5a, 0xde, 0xff, 0xff, 0x04, 0x00, 0x00, 0x00,
  0x24, 0x00, 0x00, 0x00, 0xf7, 0x0c, 0x7f, 0x3c, 0xed, 0x7f, 0x7f, 0x9a,
  0xa5, 0x81, 0x62, 0x30, 0x7f, 0x18, 0x68, 0x2d, 0x81, 0x1e, 0x81, 0xb5,
  0x00, 0xda, 0x7f, 0xbc, 0x45, 0x7f, 0x5f, 0x7f, 0x07, 0x5d, 0x0d, 0xcf,
  0x7f, 0x4a, 0x81, 0xec, 0x8a, 0xde, 0xff, 0xff, 0x04, 0x00, 0x00, 0x00,
  0x30, 0x00, 0x00, 0x00, 0xe7, 0xfc, 0xff, 0xff, 0x33, 0xff, 0xff, 0xff,
  0x57, 0x02, 0x00, 0x00, 0x66, 0xfe, 0xff, 0xff, 0x64, 0xfb, 0xff, 0xff,
  0x86, 0x00, 0x00, 0x00, 0x8b, 0x04, 0x00, 0x00, 0xf7, 0xfe, 0xff, 0xff,
  0xde, 0xf5, 0xff, 0xff, 0x98, 0xfb, 0xff, 0xff, 0x14, 0xfe, 0xff, 0xff,
  0xc7, 0x01, 0x00, 0x00, 0xc6, 0xde, 0xff, 0xff, 0x04, 0x00, 0x00, 0x00,
  0x24, 0x00, 0x00, 0x00, 0x56, 0x29, 0x81, 0x7f, 0x1f, 0xa1, 0xb6, 0x08,
  0x7f, 0x81, 0x10, 0x72, 0x7f, 0x21, 0xe3, 0xea, 0x66, 0x81, 0x7f, 0x08,
  0x79, 0x7f, 0x7b, 0x3f, 0xc4, 0x16, 0x7f, 0x7f, 0xfa, 0x2e, 0x81, 0xce,
  0xff, 0xe6, 0x26, 0x81, 0xf6, 0xde, 0xff, 0xff, 0x04, 0x00, 0x00, 0x00,
  0x0c, 0x00, 0x00, 0x00, 0x56, 0x36, 0x46, 0x62, 0x1e, 0xfe, 0x33, 0x7f,
  0x6c, 0x2e, 0x35, 0x77, 0x0e, 0xdf, 0xff, 0xff, 0x04, 0x00, 0x00, 0x00,
  0x0c, 0x00, 0x00, 0x00, 0x24, 0x88, 0x10, 0x12, 0x9c, 0xfe, 0xf0, 0x7f,
  0x80, 0x0e, 0xeb, 0xb5, 0x26, 0xdf, 0xff, 0xff, 0x04, 0x00, 0x00, 0x00,
  0x90, 0x00, 0x00, 0x00, 0xef, 0x6f, 0x6b, 0x5b, 0x27, 0x0d, 0xdc, 0x81,
  0xe9, 0x05, 0x28, 0x02, 0x21, 0x38, 0x0d, 0x08, 0xf1, 0x42, 0x5f, 0x0f,
  0x7f, 0x4f, 0x54, 0x11, 0x6d, 0x4e, 0xdb, 0xcb, 0xc0, 0xf3, 0x0c, 0x0f,
  0xf1, 0x70, 0x81, 0x6c, 0x6f, 0x3e, 0x81, 0x1a, 0x36, 0x16, 0xb2, 0x6d,
  0x4e, 0xf6, 0xd8, 0x29, 0xd7, 0x0d, 0xf4, 0xba, 0xab, 0x3b, 0x0b, 0x1a,
  0x14, 0x2d, 0x7f, 0x43, 0x1e, 0x47, 0x5f, 0xec, 0x1d, 0xe5, 0xd3, 0x5c,
  0x14, 0x81, 0x59, 0x18, 0xf5, 0x26, 0xfd, 0xb1, 0xdd, 0x23, 0x06, 0x20,
  0xe8, 0xf3, 0x2c, 0x81, 0x3e, 0x24, 0xca, 0x0f, 0x50, 0x3a, 0xee, 0xb9,
  0xcf, 0x04, 0x27, 0x81, 0x06, 0x47, 0xa9, 0xd8, 0x81, 0x60, 0xf3, 0x96,
  0xa3, 0xfb, 0x5c, 0x91, 0xcd, 0x18, 0xf0, 0xf9, 0x2e, 0x24, 0x5b, 0x7f,
  0xe7, 0xb9, 0x23, 0x01, 0xd4, 0x46, 0x14, 0xdf, 0xe1, 0x5a, 0xad, 0x34,
  0xbb, 0xb7, 0x4d, 0x81, 0x0f, 0x92, 0x06, 0x77, 0xfa, 0xdc, 0x35, 0xd4,
  0xee, 0xfe, 0x84, 0x7f, 0xc2, 0xdf, 0xff, 0xff, 0x04, 0x00, 0x00, 0x00,
  0xc0, 0x00, 0x00, 0x00, 0xd6, 0x60, 0x0c, 0xec, 0x4d, 0x10, 0x90, 0x29,
  0xdf, 0xc9, 0x7f, 0x4c, 0x45, 0xb8, 0x50, 0x15, 0x29, 0xd2, 0x4d, 0x81,
  0xf8, 0xe3, 0xb6, 0xc5, 0x2a, 0x06, 0xf0, 0xcf, 0x25, 0xe0, 0x81, 0x21,
  0xd1, 0xea, 0xf0, 0x31, 0xa3, 0x49, 0xcc, 0xef, 0x75, 0x54, 0x7f, 0xad,
  0xc3, 0x12, 0x30, 0x49, 0xfb, 0xe3, 0x81, 0x07, 0x55, 0x28, 0xd7, 0xe1,
  0x3a, 0x03, 0xa5, 0x01, 0x7f, 0x2d, 0xaf, 0xc5, 0x4b, 0xfe, 0xd7, 0x18,
  0x56, 0xd4, 0xd9, 0x84, 0x43, 0x4e, 0x40, 0x7f, 0xda, 0xee, 0x74, 0xa5,
  0x0e, 0x41, 0xf4, 0x83, 0x68, 0x2e, 0x00, 0xc2, 0x0e, 0x5c, 0x39, 0x1b,
  0x81, 0xe2, 0x89, 0xea, 0x38, 0x25, 0xf9, 0xa8, 0x1c, 0x81, 0x29, 0xbe,
  0x1d, 0xd3, 0xf9, 0x3b, 0xd0, 0x81, 0xb7, 0x1c, 0xe6, 0x13, 0x08, 0x2c,
  0x50, 0xb7, 0x38, 0xc3, 0x17, 0x15, 0x94, 0xbe, 0xdc, 0x04, 0x7f, 0xd0,
  0x27, 0xfe, 0x70, 0x9b, 0xaa, 0xf7, 0xee, 0xda, 0x17, 0xd6, 0xcf, 0x03,
  0x7f, 0x83, 0x44, 0xaf, 0x37, 0x2a, 0xd8, 0xc6, 0x7f, 0xad, 0xa1, 0x37,
  0xaf, 0xe6, 0x44, 0x9e, 0x33, 0x4c, 0x32, 0x18, 0x7f, 0xbe, 0xa7, 0x2b,
  0x55, 0x52, 0xed, 0xad, 0xf1, 0x21, 0xd8, 0x17, 0x3c, 0xdf, 0xe5, 0x3d,
  0xf2, 0x38, 0x7f, 0x01, 0xe0, 0x43, 0x00, 0xc9, 0x07, 0xda, 0xd8, 0x44,
  0xe7, 0x7f, 0xb3, 0xb9, 0x8e, 0xe0, 0xff, 0xff, 0x04, 0x00, 0x00, 0x00,
  0x40, 0x00, 0x00, 0x00, 0x0b, 0xfd, 0xff, 0xff, 0x03, 0x0b, 0x00, 0x00,
  0x53, 0x04, 0x00, 0x00, 0x92, 0xfd, 0xff, 0xff, 0x84, 0x01, 0x00, 0x00,
  0xfd, 0xff, 0xff, 0xff, 0xf6, 0xf7, 0xff, 0xff, 0x65, 0x03, 0x00, 0x00,
  0xaf, 0xff, 0xff, 0xff, 0xd5, 0x07, 0x00, 0x00, 0xcc, 0xfd, 0xff, 0xff,
  0x80, 0xff, 0xff, 0xff, 0x6b, 0x02, 0x00, 0x00, 0x19, 0xf4, 0xff, 0xff,
  0x0e, 0x04, 0x00, 0x00, 0x2a, 0x00, 0x00, 0x00, 0xda, 0xe0, 0xff, 0xff,
  0x04, 0x00, 0x00, 0x00, 0x30, 0x00, 0x00, 0x00, 0xc5, 0x81, 0xa6, 0x7f,
  0x26, 0xa6, 0x7f, 0xea, 0x0e, 0x81, 0xcf, 0x32, 0x55, 0x17, 0x81, 0x7f,
  0xc3, 0xbe, 0xe0, 0x7f, 0x50, 0x0e, 0x7f, 0x1a, 0x81, 0x75, 0x81, 0x27,
  0x7f, 0x36, 0x7f, 0x54, 0xf2, 0x3e, 0x81, 0x91, 0x7f, 0xb1, 0xdb, 0x22,
  0x7f, 0x23, 0x7f, 0x6c, 0x28, 0xc3, 0x1c, 0x7f, 0x16, 0xe1, 0xff, 0xff,
  0x04, 0x00, 0x00, 0x00, 0x40, 0x00, 0x00, 0x00, 0xfe, 0x09, 0x00, 0x00,
  0x18, 0xfb, 0xff, 0xff, 0x8d, 0xfd, 0xff, 0xff, 0x90, 0x04, 0x00, 0x00,
  0xb5, 0x00, 0x00, 0x00, 0x5c, 0x02, 0x00, 0x00, 0x8e, 0xff, 0xff, 0xff,
  0x56, 0xfd, 0xff, 0xff, 0xb9, 0x05, 0x00, 0x00, 0xd8, 0xfa, 0xff, 0xff,
  0x13, 0xfd, 0xff, 0xff, 0x5f, 0x04, 0x00, 0x00, 0x17, 0x00, 0x00, 0x00,
  0x38, 0xfd, 0xff, 0xff, 0xc4, 0xf8, 0xff, 0xff, 0x75, 0xff, 0xff, 0xff,
  0x62, 0xe1, 0xff, 0xff, 0x04, 0x00, 0x00, 0x00, 0x30, 0x00, 0x00, 0x00,
  0x81, 0xe4, 0x96, 0x93, 0xdf, 0x81, 0x44, 0x1a, 0x7f, 0x81, 0xf5, 0x2c,
  0x06, 0xda, 0x81, 0x32, 0xca, 0x7f, 0x46, 0x28, 0x7f, 0x68, 0x81, 0x41,
  0x81, 0x32, 0xdc, 0x81, 0xec, 0x73, 0x81, 0x09, 0x60, 0x7f, 0x27, 0x4f,
  0x81, 0x17, 0xdf, 0x81, 0x1a, 0x6f, 0x7f, 0x3e, 0xb9, 0x81, 0xf3, 0xe6,
  0x50, 0xaa, 0xfe, 0xff, 0x54, 0xaa, 0xfe, 0xff, 0x58, 0xaa, 0xfe, 0xff,
  0x5c, 0xaa, 0xfe, 0xff, 0x60, 0xaa, 0xfe, 0xff, 0x64, 0xaa, 0xfe, 0xff,
  0x68, 0xaa, 0xfe, 0xff, 0xba, 0xe1, 0xff, 0xff, 0x04, 0x00, 0x00, 0x00,
  0x40, 0x00, 0x00, 0x00, 0x00, 0x00, 0x00, 0x00, 0x00, 0x00, 0x00, 0x00,
  0x00, 0x00, 0x00, 0x00, 0x00, 0x00, 0x00, 0x00, 0x00, 0x00, 0x00, 0x00,
  0x00, 0x00, 0x00, 0x00, 0x00, 0x00, 0x00, 0x00, 0x00, 0x00, 0x00, 0x00,
  0x00, 0x00, 0x00, 0x00, 0x00, 0x00, 0x00, 0x00, 0x00, 0x00, 0x00, 0x00,
  0x00, 0x00, 0x00, 0x00, 0x00, 0x00, 0x00, 0x00, 0x00, 0x00, 0x00, 0x00,
  0x00, 0x00, 0x00, 0x00, 0x00, 0x00, 0x00, 0x00, 0x06, 0xe2, 0xff, 0xff,
  0x04, 0x00, 0x00, 0x00, 0x10, 0x00, 0x00, 0x00, 0x7f, 0x55, 0x5f, 0x72,
  0x54, 0x3b, 0x63, 0xec, 0x49, 0x53, 0x4a, 0x41, 0x54, 0x77, 0x7b, 0x3b,
  0x22, 0xe2, 0xff, 0xff, 0x04, 0x00, 0x00, 0x00, 0x10, 0x00, 0x00, 0x00,
  0x0a, 0x82, 0xe3, 0xfc, 0xe0, 0x7f, 0x80, 0xf0, 0x90, 0x54, 0xd5, 0x8a,
  0xaf, 0x9c, 0xde, 0xb4, 0x3e, 0xe2, 0xff, 0xff, 0x04, 0x00, 0x00, 0x00,
  0x00, 0x01, 0x00, 0x00, 0x19, 0xee, 0xd3, 0xe2, 0xc3, 0x1f, 0xcf, 0xd0,
  0xe5, 0xe0, 0x81, 0x14, 0x23, 0xdb, 0x40, 0xe2, 0x81, 0x30, 0x62, 0xbb,
  0xd4, 0x0e, 0xd8, 0xe7, 0xaa, 0x30, 0x22, 0xc6, 0xdb, 0x49, 0xcb, 0x30,
  0x11, 0xed, 0xde, 0xaf, 0x25, 0x44, 0xa6, 0x7f, 0xe0, 0x0f, 0x1b, 0x5b,
  0x09, 0x51, 0x1f, 0x53, 0x81, 0xd1, 0x1b, 0xd1, 0x46, 0xe5, 0x6f, 0xe3,
  0x25, 0xbe, 0xcf, 0xd5, 0xb4, 0xd0, 0xf2, 0xf8, 0x26, 0x3d, 0xd0, 0x58,
  0xa8, 0x1e, 0xcf, 0x3b, 0x17, 0x11, 0xf8, 0x14, 0x02, 0x8e, 0x81, 0xc2,
  0xd9, 0x7f, 0xfe, 0x9c, 0x43, 0x9b, 0xd6, 0x95, 0x2d, 0x1e, 0xd0, 0xba,
  0xf1, 0xa6, 0xd7, 0xc7, 0x19, 0xd2, 0xb9, 0x28, 0x56, 0xb4, 0x8f, 0x9b,
  0x90, 0xe1, 0xbd, 0xa8, 0xe9, 0x02, 0x7f, 0xd0, 0xe1, 0xca, 0xf2, 0x7f,
  0xb0, 0xbb, 0xdc, 0xe5, 0x63, 0x0b, 0xd5, 0xe9, 0x30, 0xe4, 0xc3, 0x2b,
  0x81, 0xee, 0x0d, 0x69, 0xd6, 0xb3, 0xa4, 0xbe, 0xcc, 0x84, 0x06, 0xd4,
  0xf7, 0x3f, 0x0f, 0xb2, 0xe5, 0x22, 0xc8, 0x2f, 0xfa, 0x26, 0x18, 0x7f,
  0xd2, 0x36, 0xdb, 0x19, 0xd0, 0x31, 0xfc, 0x77, 0xf4, 0x03, 0x81, 0x2c,
  0xfd, 0xf7, 0x2d, 0xe6, 0x40, 0x28, 0x2e, 0xe7, 0x68, 0xf4, 0xd0, 0xf0,
  0xdf, 0xef, 0x2e, 0x1b, 0x03, 0xb4, 0xdf, 0x01, 0xe8, 0x81, 0x07, 0x2a,
  0x89, 0x3e, 0x11, 0x1e, 0xb8, 0xf1, 0x07, 0xe7, 0x55, 0xf2, 0xcc, 0x81,
  0xd4, 0x04, 0x42, 0x9f, 0xa9, 0x5f, 0x06, 0xe2, 0x81, 0xfe, 0xf1, 0xf1,
  0x3d, 0xe7, 0xe8, 0x10, 0xc6, 0xe8, 0xc8, 0xec, 0x35, 0xf9, 0x10, 0xe7,
  0x31, 0xdf, 0x03, 0x36, 0x01, 0xe2, 0x46, 0x7f, 0x37, 0x42, 0x03, 0xd6,
  0xef, 0xb8, 0x84, 0x13, 0x81, 0x39, 0xd9, 0x5f, 0xf6, 0xe0, 0x14, 0x93,
  0x6d, 0xea, 0xe7, 0x9e, 0xe4, 0x71, 0x60, 0xc8, 0x4a, 0xe3, 0xff, 0xff,
  0x04, 0x00, 0x00, 0x00, 0x30, 0x00, 0x00, 0x00, 0x8a, 0xad, 0x81, 0x24,
  0xe5, 0x7f, 0x49, 0x63, 0x81, 0xc8, 0x81, 0xf7, 0x57, 0x81, 0xdd, 0x81,
  0xde, 0x25, 0x7f, 0xff, 0xf2, 0x63, 0x06, 0x81, 0x81, 0xe5, 0x40, 0x7f,
  0x93, 0x38, 0x7f, 0x0c, 0xe0, 0x81, 0xc2, 0xf4, 0xd5, 0x7f, 0xf9, 0x81,
  0x55, 0xf0, 0xfa, 0x81, 0x34, 0xf8, 0x91, 0x81, 0x86, 0xe3, 0xff, 0xff,
  0x04, 0x00, 0x00, 0x00, 0x40, 0x00, 0x00, 0x00, 0x07, 0x07, 0x00, 0x00,
  0x54, 0xfe, 0xff, 0xff, 0x7f, 0xfe, 0xff, 0xff, 0x40, 0x04, 0x00, 0x00,
  0xf4, 0x01, 0x00, 0x00, 0x62, 0x06, 0x00, 0x00, 0xe6, 0xfe, 0xff, 0xff,
  0x20, 0x00, 0x00, 0x00, 0xf2, 0x01, 0x00, 0x00, 0xeb, 0xfe, 0xff, 0xff,
  0x62, 0xff, 0xff, 0xff, 0x22, 0x05, 0x00, 0x00, 0x71, 0xfd, 0xff, 0xff,
  0x8e, 0x01, 0x00, 0x00, 0x0a, 0x02, 0x00, 0x00, 0xc3, 0x06, 0x00, 0x00,
  0xd2, 0xe3, 0xff, 0xff, 0x04, 0x00, 0x00, 0x00, 0x30, 0x00, 0x00, 0x00,
  0xf5, 0x81, 0x19, 0x7f, 0xb7, 0xf1, 0x94, 0x28, 0x7f, 0xd5, 0x09, 0x7f,
  0x81, 0x23, 0xd9, 0x81, 0x23, 0xa2, 0x81, 0x05, 0xcb, 0x7f, 0x54, 0x1a,
  0x7f, 0x1d, 0x6c, 0x3f, 0xf4, 0x7f, 0x7f, 0xa3, 0x74, 0x78, 0xf1, 0x81,
  0x8f, 0x81, 0xbc, 0x4c, 0x81, 0x1b, 0xb7, 0xf3, 0x7f, 0x81, 0x4a, 0x7e,
  0x0e, 0xe4, 0xff, 0xff, 0x04, 0x00, 0x00, 0x00, 0x10, 0x00, 0x00, 0x00,
  0x2b, 0xf5, 0x7f, 0x5a, 0x46, 0x57, 0x3f, 0x68, 0x67, 0x4c, 0x28, 0x65,
  0x4f, 0xf0, 0x7a, 0x56, 0x2a, 0xe4, 0xff, 0xff, 0x04, 0x00, 0x00, 0x00,
  0x10, 0x00, 0x00, 0x00, 0x38, 0xb6, 0x46, 0x23, 0x2c, 0x80, 0x2f, 0x37,
  0x13, 0x00, 0x7f, 0x63, 0xc0, 0x15, 0x3e, 0xd1, 0x46, 0xe4, 0xff, 0xff,
  0x04, 0x00, 0x00, 0x00, 0x00, 0x01, 0x00, 0x00, 0x1f, 0xc8, 0xd2, 0xfb,
  0x3e, 0x01, 0x11, 0x7f, 0xd7, 0x1c, 0x46, 0xbb, 0x3d, 0x22, 0xfa, 0x0a,
  0xb8, 0xad, 0x03, 0xa0, 0x35, 0xed, 0xa2, 0x30, 0x81, 0xfd, 0x22, 0xd8,
  0x38, 0x0e, 0xe3, 0xd9, 0xe9, 0x2d, 0x03, 0x0a, 0x18, 0x82, 0x90, 0xba,
  0xb1, 0x60, 0x29, 0x3b, 0x5f, 0x7f, 0x60, 0xfa, 0x2a, 0x04, 0xf2, 0x7f,
  0xf2, 0x2a, 0x97, 0x1f, 0xcb, 0xc3, 0xec, 0xbf, 0xf8, 0x19, 0x20, 0xc7,
  0xc4, 0x2b, 0xd9, 0xa9, 0x35, 0xe6, 0xc3, 0x81, 0x05, 0xd9, 0xfe, 0x10,
  0x14, 0x04, 0xb4, 0x4a, 0xfc, 0x3a, 0x0b, 0x0c, 0xe5, 0x15, 0x4e, 0xa5,
  0x7f, 0xe1, 0x8a, 0xe3, 0xc7, 0x46, 0xda, 0xd2, 0x1c, 0x05, 0xe1, 0x22,
  0xad, 0x81, 0x06, 0x19, 0x41, 0x2e, 0x35, 0xa6, 0x0e, 0x34, 0x14, 0xce,
  0xe0, 0xdc, 0x37, 0xb2, 0x09, 0x35, 0x9c, 0x3f, 0xf0, 0x2e, 0x81, 0x00,
  0x00, 0x40, 0x30, 0x98, 0xbe, 0x55, 0x0b, 0x1c, 0x2d, 0x01, 0x00, 0x86,
  0x81, 0xe9, 0x41, 0xf4, 0xe0, 0x28, 0xeb, 0x63, 0x3a, 0x53, 0xd2, 0xf2,
  0x17, 0x7a, 0x08, 0x10, 0xf8, 0x4a, 0xeb, 0x20, 0xab, 0x81, 0xe6, 0x24,
  0xe2, 0x64, 0x1f, 0x2d, 0x01, 0x40, 0x00, 0x52, 0xb0, 0x7f, 0x18, 0x0a,
  0xf6, 0x01, 0xb0, 0xab, 0x9a, 0xd5, 0x7f, 0x12, 0x98, 0x24, 0xa8, 0x1e,
  0x09, 0x03, 0x94, 0x9a, 0x2e, 0x34, 0x05, 0xbd, 0xc8, 0x25, 0x91, 0x1d,
  0x13, 0x8f, 0xf6, 0xff, 0xfd, 0x7f, 0xdf, 0xbd, 0x15, 0xee, 0x32, 0xda,
  0x1e, 0x10, 0x7f, 0xce, 0x74, 0x7b, 0x12, 0xe4, 0xdc, 0xdb, 0x2f, 0xea,
  0xe6, 0x08, 0x7c, 0x28, 0x36, 0x5b, 0xf2, 0xf7, 0xed, 0xf0, 0xf0, 0x4c,
  0x62, 0xda, 0x13, 0xcb, 0x81, 0x00, 0x95, 0xeb, 0x36, 0xbf, 0x81, 0x14,
  0xeb, 0x0d, 0xea, 0x44, 0xbe, 0xde, 0xf5, 0xe5, 0xf5, 0xa1, 0xfb, 0xfd,
  0x52, 0xe5, 0xff, 0xff, 0x04, 0x00, 0x00, 0x00, 0x30, 0x00, 0x00, 0x00,
  0x81, 0x2f, 0x4a, 0xe5, 0x7f, 0xdf, 0x7f, 0xf3, 0x2b, 0x2a, 0x7f, 0xe1,
  0x7f, 0x53, 0xea, 0x81, 0x1b, 0x29, 0x7f, 0x3f, 0x84, 0x6a, 0x7f, 0xc2,
  0x03, 0x7f, 0x23, 0x2f, 0x7f, 0xf2, 0x7f, 0xe7, 0xcc, 0xc1, 0x7f, 0xdb,
  0x81, 0x04, 0x0c, 0x1f, 0x36, 0x7f, 0x81, 0x69, 0xf7, 0x81, 0x12, 0x09,
  0x8e, 0xe5, 0xff, 0xff, 0x04, 0x00, 0x00, 0x00, 0x40, 0x00, 0x00, 0x00,
  0xc1, 0xff, 0xff, 0xff, 0x28, 0xfe, 0xff, 0xff, 0x31, 0xfd, 0xff, 0xff,
  0xcd, 0xfc, 0xff, 0xff, 0x72, 0xfd, 0xff, 0xff, 0x33, 0x04, 0x00, 0x00,
  0x3e, 0x00, 0x00, 0x00, 0xc2, 0xfb, 0xff, 0xff, 0x94, 0xfb, 0xff, 0xff,
  0x6e, 0xfe, 0xff, 0xff, 0x70, 0xff, 0xff, 0xff, 0xcc, 0xff, 0xff, 0xff,
  0x07, 0x00, 0x00, 0x00, 0x15, 0xf9, 0xff, 0xff, 0x9e, 0xff, 0xff, 0xff,
  0xa6, 0x02, 0x00, 0x00, 0xda, 0xe5, 0xff, 0xff, 0x04, 0x00, 0x00, 0x00,
  0x30, 0x00, 0x00, 0x00, 0x8f, 0x17, 0x7f, 0xd5, 0xcc, 0x7f, 0x81, 0x1a,
  0x9d, 0x7f, 0x33, 0xea, 0x6b, 0x22, 0x7f, 0x24, 0x29, 0x81, 0x6e, 0x81,
  0xd6, 0xed, 0x7f, 0x9a, 0x7f, 0x28, 0x67, 0x4e, 0xb8, 0x7f, 0x81, 0xd9,
  0x1d, 0x7d, 0xf4, 0x81, 0x7f, 0x88, 0x35, 0xa0, 0xc4, 0x81, 0x81, 0x1e,
  0xae, 0xc8, 0xd4, 0x81, 0x16, 0xe6, 0xff, 0xff, 0x04, 0x00, 0x00, 0x00,
  0x10, 0x00, 0x00, 0x00, 0x77, 0x3e, 0x7f, 0x53, 0x43, 0x4e, 0x4d, 0xe8,
  0x7e, 0x36, 0x63, 0x47, 0x7b, 0x67, 0x68, 0x3f, 0x32, 0xe6, 0xff, 0xff,
  0x04, 0x00, 0x00, 0x00, 0x10, 0x00, 0x00, 0x00, 0x23, 0xdf, 0xf1, 0xe4,
  0xfc, 0xa2, 0x55, 0x53, 0x11, 0x7f, 0xf5, 0x33, 0x80, 0x8a, 0x49, 0x2d,
  0x4e, 0xe6, 0xff, 0xff, 0x04, 0x00, 0x00, 0x00, 0x00, 0x01, 0x00, 0x00,
  0x39, 0xca, 0xf3, 0x15, 0x7f, 0xbb, 0x53, 0x4a, 0xc7, 0x34, 0x34, 0xe1,
  0xdf, 0x99, 0xa6, 0xf7, 0x2a, 0x4e, 0x25, 0x08, 0x5f, 0x87, 0x81, 0x39,
  0x03, 0x05, 0xfa, 0xec, 0xe8, 0x99, 0x20, 0xa7, 0x81, 0x2e, 0x34, 0x5f,
  0xe0, 0x22, 0xe5, 0xa5, 0xd8, 0x29, 0xd3, 0x4a, 0x52, 0xf4, 0xba, 0x1c,
  0xc8, 0x7a, 0x26, 0x0d, 0x29, 0xf7, 0x4f, 0x27, 0xfd, 0x45, 0x32, 0xe7,
  0x7f, 0xb4, 0xb0, 0x15, 0x00, 0x97, 0x1f, 0x16, 0xe4, 0xb3, 0x78, 0xe2,
  0xce, 0x96, 0x31, 0x17, 0x1f, 0x7f, 0x56, 0x59, 0x22, 0x7f, 0xac, 0xf4,
  0x3e, 0xb3, 0xd6, 0x93, 0xdf, 0xf8, 0x43, 0xf8, 0xf2, 0x6a, 0xc1, 0x9a,
  0xd4, 0x81, 0x23, 0xee, 0xf6, 0xdb, 0x0f, 0x15, 0x76, 0x20, 0x1f, 0x06,
  0x53, 0x9b, 0xa4, 0x06, 0xcc, 0x50, 0x12, 0xf6, 0x1b, 0xae, 0x78, 0xdd,
  0x81, 0xf7, 0xe2, 0xdc, 0xc7, 0x56, 0xae, 0x1a, 0x07, 0x54, 0x72, 0xcf,
  0x0c, 0x12, 0xe7, 0xb8, 0xac, 0xdd, 0xdb, 0x61, 0x81, 0x2a, 0x5b, 0x2e,
  0xa0, 0x61, 0xac, 0x5d, 0x0e, 0xa5, 0x3f, 0xc9, 0x93, 0x7c, 0xdb, 0x25,
  0xf2, 0xed, 0x5d, 0x7f, 0xfc, 0xf2, 0xfc, 0xdf, 0x38, 0x38, 0xf0, 0x00,
  0x04, 0x47, 0x81, 0xc9, 0xfb, 0xd4, 0xd9, 0x0e, 0xd1, 0x22, 0x20, 0x37,
  0x0d, 0x21, 0xe4, 0xe6, 0xf7, 0x52, 0x0b, 0xeb, 0x7f, 0xaa, 0x0b, 0x03,
  0xb1, 0xf1, 0xfc, 0x04, 0x4a, 0xe9, 0x81, 0xd6, 0x22, 0x2e, 0x2c, 0xe1,
  0x44, 0x2b, 0x98, 0x3a, 0x06, 0xfb, 0x7f, 0xc6, 0xca, 0xe5, 0xe7, 0x1d,
  0xef, 0xe4, 0x0e, 0xd6, 0xa1, 0xd1, 0x0b, 0xe9, 0xec, 0xd7, 0xd5, 0x10,
  0x0c, 0xa5, 0x10, 0xdb, 0x8e, 0xeb, 0xef, 0xcb, 0xce, 0x54, 0xfc, 0x81,
  0xf9, 0x7a, 0xeb, 0x29, 0x81, 0xae, 0x0b, 0xe1, 0xe0, 0xf5, 0xeb, 0xa0,
  0x57, 0x13, 0x0b, 0x25, 0x5a, 0xe7, 0xff, 0xff, 0x04, 0x00, 0x00, 0x00,
  0x30, 0x00, 0x00, 0x00, 0x81, 0x29, 0x2e, 0xed, 0x81, 0x03, 0xb3, 0x7f,
  0x66, 0x7f, 0x38, 0xa9, 0x87, 0x81, 0xdd, 0x7f, 0xff, 0xf6, 0x92, 0x5d,
  0x81, 0x7f, 0xcf, 0xf0, 0x81, 0xce, 0xf6, 0x7f, 0x32, 0xf4, 0x2e, 0x53,
  0x81, 0x7f, 0x1e, 0x6e, 0xd8, 0x0c, 0x7f, 0x81, 0xf9, 0x11, 0x7f, 0xe4,
  0x25, 0x7f, 0x06, 0xdc, 0x96, 0xe7, 0xff, 0xff, 0x04, 0x00, 0x00, 0x00,
  0x40, 0x00, 0x00, 0x00, 0x49, 0xff, 0xff, 0xff, 0x52, 0x00, 0x00, 0x00,
  0xb1, 0xfb, 0xff, 0xff, 0xef, 0xfe, 0xff, 0xff, 0x7f, 0x03, 0x00, 0x00,
  0xf6, 0xfc, 0xff, 0xff, 0xe6, 0x04, 0x00, 0x00, 0xde, 0x00, 0x00, 0x00,
  0x8f, 0x03, 0x00, 0x00, 0x79, 0xfd, 0xff, 0xff, 0x3f, 0xfe, 0xff, 0xff,
  0xa4, 0xfa, 0xff, 0xff, 0x91, 0xfd, 0xff, 0xff, 0xdb, 0x04, 0x00, 0x00,
  0xf4, 0xfe, 0xff, 0xff, 0x34, 0xfd, 0xff, 0xff, 0xe2, 0xe7, 0xff, 0xff,
  0x04, 0x00, 0x00, 0x00, 0x30, 0x00, 0x00, 0x00, 0x7f, 0x25, 0x25, 0xc9,
  0x7f, 0xc8, 0x0e, 0xbb, 0x81, 0x7f, 0x27, 0x9f, 0xef, 0x45, 0x81, 0xc2,
  0x81, 0xc5, 0x81, 0xf1, 0x27, 0x7f, 0x63, 0x4e, 0x54, 0x9c, 0x7f, 0x71,
  0x81, 0xe8, 0x8f, 0x17, 0x7f, 0x66, 0x81, 0x27, 0x7f, 0x10, 0x06, 0x7f,
  0xb1, 0xe9, 0x7f, 0xd7, 0x91, 0x29, 0x81, 0x82, 0x1e, 0xe8, 0xff, 0xff,
  0x04, 0x00, 0x00, 0x00, 0x10, 0x00, 0x00, 0x00, 0x44, 0xe3, 0x6b, 0x43,
  0x02, 0xc4, 0x57, 0x21, 0x31, 0x2f, 0x53, 0x26, 0x57, 0x7f, 0x1e, 0xcb,
  0x3a, 0xe8, 0xff, 0xff, 0x04, 0x00, 0x00, 0x00, 0x10, 0x00, 0x00, 0x00,
  0x7f, 0x7f, 0xf9, 0xd9, 0x6e, 0x2d, 0x6c, 0xed, 0x0d, 0x60, 0x61, 0x63,
  0x11, 0x47, 0x28, 0x80, 0x56, 0xe8, 0xff, 0xff, 0x04, 0x00, 0x00, 0x00,
  0x00, 0x01, 0x00, 0x00, 0x17, 0x81, 0x6f, 0x49, 0xc4, 0x4f, 0x25, 0xf6,
  0x52, 0xec, 0xba, 0xfe, 0xc7, 0x4e, 0xc8, 0xe0, 0x6e, 0xd2, 0x81, 0x33,
  0x58, 0xce, 0xf5, 0xde, 0xbe, 0x62, 0xe8, 0x3b, 0x74, 0x1e, 0xbc, 0xbe,
  0xc0, 0x3e, 0xea, 0x48, 0xff, 0x81, 0xed, 0x1b, 0x2e, 0xdc, 0xb8, 0x3f,
  0xbb, 0xed, 0xed, 0xdd, 0xc4, 0x3d, 0xec, 0xae, 0x40, 0x0d, 0xbc, 0x7f,
  0xf4, 0xf0, 0xe5, 0x20, 0x00, 0x26, 0xf6, 0xf1, 0x3d, 0x3f, 0x52, 0x3d,
  0x81, 0x0f, 0x57, 0xcd, 0x05, 0x2e, 0xd5, 0x0f, 0x1b, 0xe2, 0x19, 0x9f,
  0x19, 0x7f, 0x45, 0x31, 0x24, 0xc3, 0x1e, 0xc4, 0xc4, 0x94, 0x8b, 0xf2,
  0x00, 0x60, 0x45, 0x40, 0xdb, 0xc9, 0x54, 0x15, 0x45, 0x16, 0xdc, 0x3a,
  0xcf, 0xe2, 0x15, 0xbe, 0x01, 0x7f, 0xe5, 0xfe, 0xcc, 0x7f, 0xbf, 0xf5,
  0xe1, 0x2f, 0xc9, 0xcd, 0xc7, 0xea, 0x3f, 0xdc, 0x40, 0x68, 0x4c, 0x06,
  0xb7, 0x7f, 0x81, 0xe3, 0xe6, 0x3e, 0xcd, 0xa7, 0x3a, 0xe9, 0x00, 0x0d,
  0x3e, 0xd2, 0x6b, 0xe7, 0xc1, 0x53, 0x38, 0x55, 0x31, 0xec, 0x06, 0x18,
  0x9d, 0xd1, 0xb8, 0x49, 0xe5, 0x31, 0x7f, 0xd7, 0x81, 0x4b, 0xf0, 0xf2,
  0xfd, 0x17, 0xa9, 0x1a, 0xb9, 0x52, 0x04, 0x49, 0x87, 0x0a, 0xad, 0x42,
  0x47, 0xbd, 0xb1, 0x10, 0x34, 0xd3, 0x81, 0x38, 0xc7, 0x3b, 0x45, 0x41,
  0x0c, 0xf2, 0x95, 0x47, 0xe3, 0x2f, 0x2f, 0x30, 0x81, 0xed, 0x10, 0xc8,
  0x47, 0xcd, 0xd1, 0x1e, 0x10, 0xde, 0x95, 0x01, 0xbf, 0xc6, 0x5a, 0x38,
  0xf5, 0x4e, 0x12, 0x0a, 0x01, 0x26, 0xe4, 0xda, 0x04, 0xe7, 0x1b, 0x81,
  0x1c, 0x20, 0xe2, 0xc8, 0x54, 0xae, 0xcc, 0xff, 0xc2, 0x40, 0xff, 0xfd,
  0x48, 0x81, 0x66, 0xcb, 0x2a, 0x48, 0x04, 0x23, 0x2e, 0xbb, 0x1f, 0xb1,
  0x24, 0xdc, 0x41, 0x81, 0xf1, 0x9c, 0x05, 0x4f, 0x62, 0xe9, 0xff, 0xff,
  0x04, 0x00, 0x00, 0x00, 0x40, 0x01, 0x00, 0x00, 0xc7, 0xfb, 0x2f, 0x7f,
  0x57, 0x3d, 0xf2, 0x35, 0xd5, 0x59, 0x7e, 0x21, 0x2c, 0x24, 0x13, 0x25,
  0xea, 0xa2, 0x1b, 0x48, 0xe6, 0xf4, 0x7f, 0xa1, 0xd0, 0x38, 0xc7, 0xd0,
  0x4c, 0x00, 0x43, 0x19, 0x7f, 0xb7, 0x0f, 0x22, 0x21, 0x16, 0xf2, 0xf2,
  0xf3, 0x04, 0xb5, 0x5f, 0x08, 0x2a, 0xec, 0xce, 0x64, 0x7f, 0x57, 0xe7,
  0xf4, 0xc9, 0x5f, 0x03, 0x14, 0xb0, 0xde, 0xc5, 0xd2, 0x74, 0x06, 0x06,
  0xd5, 0xdf, 0x67, 0x0f, 0xba, 0x27, 0x3c, 0x03, 0xa0, 0xb0, 0xaa, 0x92,
  0xe5, 0xca, 0x81, 0xbb, 0xb9, 0x19, 0x46, 0x9a, 0x8f, 0x0a, 0x7f, 0x07,
  0x02, 0xb5, 0x2b, 0x45, 0x2b, 0x2f, 0x0e, 0xf3, 0xce, 0xf5, 0xc1, 0xe0,
  0xb2, 0x12, 0x6d, 0x9d, 0xf6, 0xf3, 0xa1, 0xfc, 0x81, 0x58, 0x3a, 0x15,
  0xd0, 0xbf, 0xbe, 0x3d, 0xfa, 0x7f, 0xae, 0xf4, 0x48, 0x8f, 0x06, 0x28,
  0x28, 0xa5, 0xe3, 0xfb, 0xac, 0x25, 0x21, 0x65, 0xb2, 0xe9, 0x03, 0xec,
  0x81, 0xf4, 0x14, 0x07, 0xec, 0xb6, 0x71, 0x01, 0x05, 0xf7, 0xfe, 0xfa,
  0x1a, 0x05, 0xec, 0x81, 0x05, 0x50, 0x87, 0x05, 0x36, 0x69, 0x08, 0x23,
  0xe8, 0xdc, 0x10, 0x9c, 0xd3, 0x45, 0xd7, 0xb2, 0xdc, 0xf8, 0x7f, 0x38,
  0x46, 0xe4, 0x40, 0x1c, 0x98, 0xa8, 0xa3, 0x18, 0xc9, 0x03, 0xac, 0x7f,
  0x43, 0xfc, 0x4a, 0x6e, 0xbe, 0x15, 0x9d, 0x15, 0x18, 0x81, 0xab, 0xb6,
  0x3f, 0xff, 0x41, 0x38, 0x15, 0xf3, 0xfb, 0xad, 0xe8, 0x9d, 0x9c, 0x3b,
  0x08, 0x14, 0xc5, 0x29, 0xb5, 0xbe, 0x18, 0x9d, 0x0e, 0xd8, 0xff, 0x5c,
  0x4a, 0x2d, 0x81, 0xb8, 0xf3, 0xde, 0xea, 0xe5, 0x0e, 0xfa, 0x2f, 0x7f,
  0xd0, 0xae, 0x9f, 0x1c, 0x7a, 0x97, 0xe9, 0x87, 0x81, 0xeb, 0x0c, 0x2a,
  0x19, 0x12, 0xf1, 0x29, 0x11, 0x07, 0x67, 0x3e, 0x02, 0x1b, 0x3d, 0x01,
  0x81, 0xd8, 0x04, 0xca, 0xd9, 0x0d, 0xed, 0xc8, 0xf5, 0x3f, 0xfe, 0xee,
  0x25, 0x00, 0x03, 0xd9, 0x13, 0x7f, 0xe6, 0xed, 0xf3, 0x5d, 0x00, 0xa3,
  0xd1, 0x43, 0x1d, 0x4b, 0xd2, 0x01, 0xda, 0xf1, 0x2b, 0xe3, 0xb3, 0x10,
  0x05, 0xee, 0xb9, 0xb4, 0x5e, 0x06, 0x7f, 0x06, 0x35, 0xfd, 0xf3, 0xbc,
  0xfe, 0x49, 0x88, 0x56, 0x96, 0xb1, 0xde, 0x81, 0xe4, 0xf6, 0x8b, 0x15,
  0x8e, 0x90, 0x5f, 0x02, 0xae, 0xea, 0xff, 0xff, 0x04, 0x00, 0x00, 0x00,
  0x50, 0x00, 0x00, 0x00, 0x1b, 0xe4, 0xff, 0xff, 0x04, 0xfb, 0xff, 0xff,
  0x60, 0xf8, 0xff, 0xff, 0xb2, 0xf6, 0xff, 0xff, 0xd8, 0x0f, 0x00, 0x00,
  0x17, 0xfc, 0xff, 0xff, 0x13, 0x03, 0x00, 0x00, 0xa0, 0x01, 0x00, 0x00,
  0xd0, 0x02, 0x00, 0x00, 0x68, 0xfc, 0xff, 0xff, 0xb2, 0xff, 0xff, 0xff,
  0xec, 0xff, 0xff, 0xff, 0xcc, 0x07, 0x00, 0x00, 0x4c, 0x04, 0x00, 0x00,
  0xf5, 0x05, 0x00, 0x00, 0x33, 0xfb, 0xff, 0xff, 0x69, 0x06, 0x00, 0x00,
  0xab, 0xfd, 0xff, 0xff, 0x64, 0x01, 0x00, 0x00, 0x4c, 0x12, 0x00, 0x00,
  0x0a, 0xeb, 0xff, 0xff, 0x04, 0x00, 0x00, 0x00, 0x3c, 0x00, 0x00, 0x00,
  0xdd, 0x91, 0x81, 0x81, 0x8f, 0xf7, 0xc1, 0x81, 0xf7, 0x81, 0xbb, 0x1a,
  0x7f, 0x54, 0x59, 0xe9, 0x81, 0xa7, 0x43, 0x7f, 0xf2, 0x7f, 0xbd, 0xcb,
  0xd4, 0x7f, 0xc3, 0x04, 0xe5, 0x7f, 0xa7, 0xea, 0x81, 0x7f, 0xe7, 0x4a,
  0xdf, 0x7f, 0xb7, 0x7f, 0xcb, 0xe3, 0x46, 0x81, 0x7b, 0xc1, 0xe2, 0x7f,
  0x81, 0xd0, 0x46, 0x7f, 0x0b, 0x98, 0x81, 0x8b, 0xa6, 0x7f, 0xaa, 0x47,
  0x52, 0xeb, 0xff, 0xff, 0x04, 0x00, 0x00, 0x00, 0x50, 0x00, 0x00, 0x00,
  0x3a, 0x02, 0x00, 0x00, 0x04, 0x06, 0x00, 0x00, 0x1d, 0x06, 0x00, 0x00,
  0x36, 0x01, 0x00, 0x00, 0x12, 0xf9, 0xff, 0xff, 0xb6, 0x04, 0x00, 0x00,
  0xa3, 0xfc, 0xff, 0xff, 0x3d, 0x01, 0x00, 0x00, 0xb2, 0xff, 0xff, 0xff,
  0xf5, 0xfe, 0xff, 0xff, 0x33, 0x07, 0x00, 0x00, 0xfe, 0xfc, 0xff, 0xff,
  0x49, 0xfe, 0xff, 0xff, 0xa3, 0xff, 0xff, 0xff, 0xff, 0xff, 0xff, 0xff,
  0xf6, 0xff, 0xff, 0xff, 0x3a, 0x04, 0x00, 0x00, 0xc2, 0xff, 0xff, 0xff,
  0x4e, 0x0a, 0x00, 0x00, 0x9b, 0xfe, 0xff, 0xff, 0xae, 0xeb, 0xff, 0xff,
  0x04, 0x00, 0x00, 0x00, 0x3c, 0x00, 0x00, 0x00, 0x2c, 0x7a, 0x7f, 0x7f,
  0x2a, 0xa0, 0x7f, 0xea, 0x95, 0xcc, 0x3e, 0x81, 0x7f, 0x25, 0x48, 0x73,
  0x3a, 0x7f, 0x03, 0x81, 0x3c, 0x7f, 0xff, 0x6a, 0xa1, 0xe9, 0x7f, 0x86,
  0xdc, 0x7f, 0xea, 0x7f, 0x92, 0xfa, 0xe6, 0x7f, 0x7f, 0x2e, 0x57, 0x81,
  0xdf, 0xdd, 0x7f, 0x8f, 0x25, 0x13, 0x81, 0x42, 0x61, 0x7f, 0x2a, 0x19,
  0x7f, 0x6a, 0xf2, 0x7f, 0xfb, 0xde, 0x81, 0x26, 0xa8, 0xb4, 0xfe, 0xff,
  0xac, 0xb4, 0xfe, 0xff, 0xb0, 0xb4, 0xfe, 0xff, 0xb4, 0xb4, 0xfe, 0xff,
  0xb8, 0xb4, 0xfe, 0xff, 0xbc, 0xb4, 0xfe, 0xff, 0xc0, 0xb4, 0xfe, 0xff,
  0xc4, 0xb4, 0xfe, 0xff, 0x16, 0xec, 0xff, 0xff, 0x04, 0x00, 0x00, 0x00,
  0x50, 0x00, 0x00, 0x00, 0x00, 0x00, 0x00, 0x00, 0x00, 0x00, 0x00, 0x00,
  0x00, 0x00, 0x00, 0x00, 0x00, 0x00, 0x00, 0x00, 0x00, 0x00, 0x00, 0x00,
  0x00, 0x00, 0x00, 0x00, 0x00, 0x00, 0x00, 0x00, 0x00, 0x00, 0x00, 0x00,
  0x00, 0x00, 0x00, 0x00, 0x00, 0x00, 0x00, 0x00, 0x00, 0x00, 0x00, 0x00,
  0x00, 0x00, 0x00, 0x00, 0x00, 0x00, 0x00, 0x00, 0x00, 0x00, 0x00, 0x00,
  0x00, 0x00, 0x00, 0x00, 0x00, 0x00, 0x00, 0x00, 0x00, 0x00, 0x00, 0x00,
  0x00, 0x00, 0x00, 0x00, 0x00, 0x00, 0x00, 0x00, 0x00, 0x00, 0x00, 0x00,
  0x72, 0xec, 0xff, 0xff, 0x04, 0x00, 0x00, 0x00, 0x14, 0x00, 0x00, 0x00,
  0x65, 0x76, 0x6d, 0x5e, 0x7d, 0x71, 0x63, 0x3f, 0x54, 0x58, 0xf3, 0x7a,
  0x7f, 0x3f, 0x20, 0x56, 0x01, 0xf2, 0x71, 0xd9, 0x92, 0xec, 0xff, 0xff,
  0x04, 0x00, 0x00, 0x00, 0x14, 0x00, 0x00, 0x00, 0x00, 0x0a, 0x25, 0x21,
  0x44, 0xef, 0xf6, 0xf1, 0x38, 0x4b, 0x99, 0x3e, 0x7f, 0x33, 0x65, 0x46,
  0x80, 0xe5, 0xb0, 0x36, 0xb2, 0xec, 0xff, 0xff, 0x04, 0x00, 0x00, 0x00,
  0x90, 0x01, 0x00, 0x00, 0x1f, 0x7f, 0x25, 0x7d, 0xd9, 0xd5, 0xf9, 0x1c,
  0xb6, 0xa7, 0xc6, 0x5d, 0x22, 0x4b, 0x0c, 0xf6, 0xe6, 0x47, 0x2e, 0xce,
  0xd6, 0x4a, 0xf9, 0x56, 0x1c, 0xb0, 0x42, 0x31, 0xc2, 0x7f, 0xe6, 0x23,
  0xfc, 0x3e, 0x11, 0xe7, 0x58, 0x22, 0x3b, 0xc1, 0x81, 0xa4, 0xb2, 0x1c,
  0x02, 0x50, 0xe4, 0xd5, 0xd1, 0x22, 0x19, 0xc8, 0x05, 0xe2, 0xf1, 0x44,
  0x4d, 0xe3, 0x53, 0x19, 0x6d, 0xed, 0xd4, 0x15, 0x81, 0x22, 0x69, 0x2c,
  0x00, 0xdf, 0xb4, 0xc0, 0x19, 0x23, 0xf8, 0x21, 0x28, 0xe4, 0xf5, 0xcc,
  0x0d, 0x57, 0x17, 0xa7, 0xd0, 0x16, 0xb8, 0x08, 0x10, 0x2d, 0x7f, 0x00,
  0x91, 0xc8, 0xc2, 0x06, 0xf6, 0xb0, 0x22, 0xed, 0x38, 0xe0, 0x1c, 0xf7,
  0xd5, 0x57, 0xc8, 0x7f, 0xe1, 0xa9, 0x10, 0xd3, 0xe0, 0xd9, 0xa5, 0x47,
  0xfa, 0x11, 0x03, 0x20, 0xd8, 0x1c, 0x25, 0x2a, 0xd7, 0x7f, 0xec, 0x46,
  0x03, 0xd9, 0xbf, 0xdd, 0xfc, 0x1c, 0xbf, 0xed, 0xe3, 0xdd, 0xf4, 0xd2,
  0xa1, 0x5b, 0x0c, 0x55, 0xc7, 0x98, 0x27, 0x2f, 0x81, 0x16, 0x72, 0xc6,
  0x46, 0x39, 0xa0, 0xee, 0x1a, 0x07, 0x34, 0xb0, 0x99, 0x3c, 0xb4, 0x2d,
  0x37, 0x72, 0xbb, 0xca, 0x05, 0x2c, 0x79, 0x00, 0x05, 0xe7, 0xf2, 0x1b,
  0x3c, 0x81, 0xbd, 0xe3, 0x7f, 0xf2, 0xdc, 0x34, 0x29, 0xd3, 0x1b, 0xfd,
  0xe5, 0xb3, 0x17, 0x12, 0xd1, 0x74, 0x95, 0x2b, 0xf3, 0x28, 0x0f, 0x37,
  0x05, 0xac, 0x4d, 0xca, 0x0a, 0x28, 0x37, 0xf9, 0x03, 0x29, 0x52, 0xc8,
  0x81, 0xfc, 0xda, 0xf8, 0x3f, 0xd3, 0x14, 0xaf, 0xea, 0x98, 0xb4, 0x21,
  0x14, 0x5b, 0x11, 0x0f, 0x0d, 0x27, 0x27, 0xfe, 0xec, 0xf4, 0xe5, 0x81,
  0x45, 0x0b, 0xfa, 0x2c, 0x81, 0xf4, 0xd7, 0xc1, 0x55, 0x20, 0x12, 0x2a,
  0x15, 0x2b, 0xf3, 0xdf, 0xdf, 0xc7, 0x37, 0x39, 0x0a, 0xc8, 0x2d, 0x50,
  0x27, 0xbd, 0x2b, 0xc0, 0xbd, 0x0c, 0xf2, 0xab, 0x07, 0xdc, 0xd0, 0xe8,
  0x9a, 0xe4, 0x52, 0xe1, 0xe5, 0xef, 0x14, 0x7f, 0x8f, 0xcd, 0x56, 0x4b,
  0x34, 0x18, 0xf1, 0x70, 0x7f, 0x3f, 0x2d, 0xbb, 0x17, 0xc8, 0xfd, 0xc0,
  0x0c, 0x07, 0x62, 0x9d, 0xc3, 0x34, 0x5c, 0x1d, 0x81, 0xe3, 0x0a, 0xee,
  0x1d, 0x1a, 0xab, 0xa7, 0xd8, 0x11, 0xef, 0xfe, 0x30, 0x7a, 0x52, 0xe8,
  0xad, 0x18, 0x2f, 0xcd, 0xed, 0x1a, 0x86, 0xd6, 0x2f, 0x7f, 0xde, 0xef,
  0x2d, 0xd8, 0xac, 0x4f, 0x71, 0xd9, 0x22, 0x17, 0xd3, 0xc6, 0xd6, 0x3b,
  0x24, 0x12, 0x2b, 0x03, 0xcd, 0x35, 0x14, 0x41, 0x1d, 0xd4, 0xb7, 0xdf,
  0xb9, 0xed, 0x81, 0xfa, 0xce, 0x20, 0x32, 0x7f, 0x32, 0x63, 0x12, 0x20,
  0xef, 0xdf, 0xf7, 0x23, 0xea, 0x0e, 0xf0, 0xff, 0xda, 0x14, 0xac, 0xe0,
  0xb0, 0xe4, 0xf6, 0x7f, 0xe5, 0xcf, 0x12, 0x0e, 0x0b, 0x25, 0xf2, 0xf3,
  0xdb, 0xad, 0x3e, 0x2b, 0x18, 0xd8, 0x2d, 0xf8, 0x4e, 0xee, 0xff, 0xff,
  0x04, 0x00, 0x00, 0x00, 0x3c, 0x00, 0x00, 0x00, 0xaa, 0x81, 0x22, 0x81,
  0x94, 0x6f, 0x4e, 0xa5, 0x7f, 0x2c, 0x7f, 0x57, 0x7f, 0xc7, 0x3b, 0x81,
  0x89, 0xf8, 0x0b, 0x21, 0x7f, 0x7f, 0x18, 0xe3, 0x7f, 0xda, 0x34, 0xe5,
  0x38, 0x81, 0xb1, 0x7f, 0xf3, 0x7f, 0x77, 0xbd, 0x20, 0x41, 0x7f, 0x7f,
  0x41, 0xe6, 0x7f, 0xc1, 0x55, 0x7f, 0xf0, 0x38, 0x50, 0x05, 0x7f, 0xc3,
  0x3f, 0x81, 0x7f, 0x13, 0xb8, 0x81, 0x9d, 0xb0, 0x96, 0xee, 0xff, 0xff,
  0x04, 0x00, 0x00, 0x00, 0x50, 0x00, 0x00, 0x00, 0x2d, 0x03, 0x00, 0x00,
  0xf9, 0x02, 0x00, 0x00, 0x4a, 0xfd, 0xff, 0xff, 0xf9, 0xfc, 0xff, 0xff,
  0x10, 0xfe, 0xff, 0xff, 0xce, 0x02, 0x00, 0x00, 0xff, 0xfe, 0xff, 0xff,
  0x11, 0xff, 0xff, 0xff, 0xf6, 0xfe, 0xff, 0xff, 0x0c, 0x02, 0x00, 0x00,
  0x35, 0x00, 0x00, 0x00, 0x79, 0xfb, 0xff, 0xff, 0x54, 0xfc, 0xff, 0xff,
  0xce, 0xfd, 0xff, 0xff, 0x93, 0xfd, 0xff, 0xff, 0xc8, 0xfe, 0xff, 0xff,
  0x2f, 0xfb, 0xff, 0xff, 0xb6, 0x01, 0x00, 0x00, 0x9d, 0xfe, 0xff, 0xff,
  0x1b, 0x09, 0x00, 0x00, 0xf2, 0xee, 0xff, 0xff, 0x04, 0x00, 0x00, 0x00,
  0x3c, 0x00, 0x00, 0x00, 0x5c, 0x7f, 0x59, 0x81, 0xc4, 0xe1, 0xca, 0x7f,
  0x49, 0x69, 0xdd, 0x7f, 0xb7, 0x7f, 0xa5, 0x97, 0x81, 0x8d, 0x81, 0xe5,
  0xca, 0x86, 0xc5, 0x81, 0xb7, 0xe2, 0x7f, 0x82, 0x7f, 0x5d, 0x02, 0x18,
  0x81, 0xb6, 0x7f, 0x7d, 0x81, 0x86, 0xda, 0x3b, 0xae, 0x7f, 0xf6, 0x81,
  0x21, 0xcd, 0x20, 0x7f, 0xe8, 0xfd, 0x7f, 0xc2, 0xbf, 0x7f, 0x7f, 0x11,
  0x58, 0x7f, 0x11, 0x67, 0x3a, 0xef, 0xff, 0xff, 0x04, 0x00, 0x00, 0x00,
  0x14, 0x00, 0x00, 0x00, 0x41, 0x3f, 0x2b, 0x7f, 0x01, 0x35, 0x76, 0x3c,
  0x4e, 0x5d, 0x6b, 0x6d, 0x0e, 0xec, 0x34, 0x44, 0x56, 0xf6, 0x61, 0x63,
  0x5a, 0xef, 0xff, 0xff, 0x04, 0x00, 0x00, 0x00, 0x14, 0x00, 0x00, 0x00,
  0x68, 0x16, 0xfc, 0x59, 0x38, 0x80, 0x4c, 0x2f, 0x7f, 0x16, 0xf2, 0x58,
  0x9b, 0x4b, 0x0d, 0xe7, 0x24, 0xcf, 0x52, 0x18, 0x7a, 0xef, 0xff, 0xff,
  0x04, 0x00, 0x00, 0x00, 0x90, 0x01, 0x00, 0x00, 0xf5, 0xa6, 0x21, 0xb1,
  0x0c, 0xc6, 0x4b, 0xc9, 0x81, 0x12, 0xbd, 0x1f, 0xc5, 0x11, 0x4e, 0xf1,
  0x4a, 0x3f, 0xd1, 0xa3, 0x51, 0x28, 0x01, 0xf7, 0xed, 0x51, 0x42, 0x41,
  0xfa, 0x54, 0xd1, 0x3d, 0xad, 0xf9, 0x1b, 0x81, 0x3f, 0x22, 0xa7, 0xe8,
  0x3c, 0xa9, 0x41, 0x05, 0xfe, 0xba, 0xfb, 0x7f, 0xec, 0x10, 0xfb, 0x51,
  0x3c, 0xb8, 0xb7, 0xa7, 0x30, 0x9e, 0x63, 0xf5, 0xef, 0x4d, 0xf3, 0x05,
  0xcf, 0xfe, 0x81, 0x2b, 0xf3, 0xe8, 0xe6, 0x35, 0xd1, 0x67, 0xdf, 0xa0,
  0xed, 0x39, 0x17, 0xdd, 0x4d, 0xf1, 0xcf, 0x38, 0xa7, 0x42, 0x03, 0xc6,
  0xb8, 0x90, 0x2e, 0xcd, 0x7f, 0xf9, 0x96, 0xe8, 0xea, 0xa0, 0x60, 0x49,
  0x9f, 0x72, 0xaa, 0x0c, 0x7f, 0x6f, 0xb9, 0x18, 0x36, 0x4e, 0xb4, 0x9d,
  0xab, 0x18, 0xc6, 0xfb, 0x48, 0xea, 0xb0, 0xfd, 0xe4, 0x7f, 0x00, 0x0d,
  0x40, 0x35, 0xa6, 0x0e, 0x82, 0xb0, 0x12, 0x46, 0x4f, 0x5e, 0x92, 0xf6,
  0x1b, 0x40, 0x41, 0x1d, 0xc3, 0x67, 0x55, 0xc2, 0x07, 0xd9, 0x08, 0xca,
  0xc6, 0x11, 0xf9, 0xff, 0xcc, 0x14, 0xc1, 0x25, 0x08, 0x81, 0x4a, 0x2d,
  0x19, 0xf9, 0x03, 0xbf, 0x23, 0xe9, 0x61, 0x6b, 0xcf, 0x84, 0x33, 0x47,
  0x72, 0x27, 0x8d, 0x7f, 0xe7, 0x1c, 0x3d, 0x1f, 0xd1, 0x3b, 0xfe, 0x47,
  0xc8, 0xe4, 0x0a, 0xa4, 0xe2, 0xfc, 0x7f, 0xb3, 0xfc, 0x40, 0xb4, 0xee,
  0x0e, 0xfc, 0x0a, 0x0d, 0x7f, 0x32, 0x47, 0x0c, 0xe9, 0xf6, 0x02, 0xe7,
  0x04, 0xd1, 0xc7, 0x0d, 0xca, 0xb9, 0x79, 0x1d, 0x9c, 0xfe, 0xd8, 0x2b,
  0x0b, 0x8b, 0xec, 0x0c, 0x1e, 0x17, 0xeb, 0x7f, 0x6b, 0x9b, 0x8a, 0xee,
  0xd9, 0xb9, 0x29, 0xcb, 0x0f, 0x09, 0x05, 0xc7, 0x3f, 0x03, 0x06, 0x46,
  0x4e, 0xd7, 0x42, 0x7f, 0xfc, 0xe1, 0x33, 0x1b, 0xfa, 0x73, 0x1c, 0x77,
  0xb5, 0x2d, 0xb0, 0xff, 0xd8, 0xd6, 0x53, 0x4e, 0xd9, 0x3c, 0xcf, 0x5b,
  0x88, 0xe5, 0x12, 0x9e, 0x47, 0xb6, 0x02, 0x13, 0x25, 0x81, 0x3e, 0xb0,
  0x81, 0xd7, 0xfa, 0x1e, 0xf1, 0xf4, 0x2f, 0x20, 0xd2, 0xe4, 0x08, 0x06,
  0xf4, 0x07, 0xf1, 0xef, 0x24, 0x0c, 0x2e, 0x08, 0x03, 0xe0, 0x05, 0xfe,
  0x95, 0x81, 0x62, 0x3a, 0x5d, 0x1a, 0x0d, 0xea, 0x04, 0xed, 0x09, 0xef,
  0x10, 0x42, 0x54, 0xc6, 0x01, 0xe9, 0x42, 0x3a, 0x02, 0x3b, 0x97, 0xe7,
  0x27, 0xee, 0xe6, 0x40, 0x81, 0x05, 0x12, 0xfd, 0xe9, 0xc8, 0x07, 0x3d,
  0xad, 0x02, 0x1f, 0x7f, 0x1c, 0xee, 0xf9, 0x06, 0x0f, 0x17, 0x13, 0xb7,
  0x25, 0xb5, 0x2e, 0x19, 0xdf, 0xf8, 0xf2, 0xd0, 0xdf, 0x3b, 0xcb, 0x02,
  0xb5, 0xfc, 0x20, 0xcb, 0xc3, 0x7f, 0xf1, 0x0b, 0xc1, 0xfa, 0xbd, 0xf8,
  0x43, 0xf0, 0xfd, 0x27, 0xdc, 0x1c, 0xdf, 0x1e, 0x08, 0x30, 0xef, 0xc2,
  0xf3, 0x81, 0x2d, 0x2b, 0x43, 0xee, 0x24, 0xca, 0x38, 0xfb, 0x09, 0x0f,
  0x16, 0xf1, 0xff, 0xff, 0x04, 0x00, 0x00, 0x00, 0x3c, 0x00, 0x00, 0x00,
  0x7f, 0xa4, 0xa8, 0x81, 0x0f, 0x96, 0x95, 0x81, 0xe2, 0x03, 0x28, 0x81,
  0x7f, 0x10, 0x26, 0xdb, 0xd7, 0x81, 0x7f, 0x79, 0xdd, 0x7f, 0x72, 0xf5,
  0x28, 0x7f, 0x1a, 0x8e, 0xb3, 0x81, 0x7f, 0xcc, 0xe9, 0x81, 0xd5, 0xe6,
  0x20, 0x81, 0x1a, 0x5a, 0x61, 0x81, 0x7f, 0xd5, 0xf3, 0x78, 0x4d, 0x81,
  0x10, 0xe3, 0x81, 0xe1, 0x7f, 0x38, 0x00, 0x81, 0xf3, 0x6f, 0x51, 0x7f,
  0x5e, 0xf1, 0xff, 0xff, 0x04, 0x00, 0x00, 0x00, 0x50, 0x00, 0x00, 0x00,
  0x7e, 0x00, 0x00, 0x00, 0x90, 0x03, 0x00, 0x00, 0x2f, 0x07, 0x00, 0x00,
  0x4c, 0x02, 0x00, 0x00, 0x15, 0xfe, 0xff, 0xff, 0x2a, 0x01, 0x00, 0x00,
  0x65, 0xfb, 0xff, 0xff, 0x9d, 0xfb, 0xff, 0xff, 0x24, 0xfc, 0xff, 0xff,
  0xad, 0x03, 0x00, 0x00, 0x16, 0x01, 0x00, 0x00, 0x84, 0x04, 0x00, 0x00,
  0xe7, 0x00, 0x00, 0x00, 0x15, 0x01, 0x00, 0x00, 0x39, 0xff, 0xff, 0xff,
  0x02, 0x00, 0x00, 0x00, 0xa7, 0x02, 0x00, 0x00, 0x9a, 0xfb, 0xff, 0xff,
  0x07, 0x04, 0x00, 0x00, 0xb6, 0xf8, 0xff, 0xff, 0xba, 0xf1, 0xff, 0xff,
  0x04, 0x00, 0x00, 0x00, 0x3c, 0x00, 0x00, 0x00, 0x66, 0x98, 0x81, 0x90,
  0xd3, 0x7f, 0xff, 0x66, 0x7f, 0x7f, 0x29, 0xf8, 0x7f, 0xb1, 0xbf, 0x8c,
  0x2c, 0x7f, 0xb5, 0x81, 0x2a, 0x81, 0xd7, 0x77, 0x81, 0x52, 0x06, 0x81,
  0x93, 0x3c, 0xd5, 0x4e, 0x81, 0x7f, 0xe2, 0xf6, 0x7f, 0x27, 0xd7, 0xcc,
  0x0b, 0x7f, 0x8e, 0x5c, 0x81, 0x35, 0x29, 0x7f, 0x81, 0xdd, 0x9e, 0x81,
  0x31, 0xee, 0x81, 0xb7, 0x64, 0x9b, 0xde, 0x7f, 0x02, 0xf2, 0xff, 0xff,
  0x04, 0x00, 0x00, 0x00, 0x14, 0x00, 0x00, 0x00, 0xf1, 0x20, 0x01, 0x5c,
  0x3c, 0x3a, 0x17, 0x48, 0x49, 0x26, 0x43, 0x6b, 0x54, 0x41, 0x07, 0x4a,
  0x59, 0x1f, 0x12, 0x7f, 0x22, 0xf2, 0xff, 0xff, 0x04, 0x00, 0x00, 0x00,
  0x14, 0x00, 0x00, 0x00, 0x15, 0xff, 0x02, 0x3f, 0x52, 0x09, 0x1e, 0x7f,
  0xff, 0x80, 0x1c, 0x36, 0x4e, 0x20, 0x09, 0xc8, 0x26, 0x3a, 0x4e, 0x57,
  0x42, 0xf2, 0xff, 0xff, 0x04, 0x00, 0x00, 0x00, 0x90, 0x01, 0x00, 0x00,
  0x0c, 0x68, 0xe4, 0x65, 0x17, 0x9d, 0x07, 0xf4, 0x8b, 0xea, 0xce, 0x41,
  0xe2, 0x0d, 0xbb, 0xc9, 0x07, 0xf8, 0xc4, 0x7f, 0x15, 0x73, 0x12, 0x46,
  0x11, 0xc5, 0x44, 0xfa, 0xe5, 0x9e, 0xd5, 0xcb, 0xe2, 0x31, 0x3b, 0x5a,
  0xc3, 0xf8, 0x81, 0xdc, 0x2d, 0x0a, 0xdd, 0x16, 0x5e, 0xd7, 0x41, 0x94,
  0xaa, 0x02, 0x15, 0xba, 0xec, 0x2f, 0xeb, 0xd4, 0xf8, 0x2f, 0x81, 0xe1,
  0xe7, 0xff, 0x09, 0xdb, 0x7f, 0xb8, 0xb8, 0x2c, 0xc8, 0x55, 0x05, 0x0c,
  0xe6, 0x2a, 0xfe, 0xa4, 0xed, 0xb5, 0x4c, 0xbd, 0xc8, 0x19, 0xdc, 0x05,
  0xc0, 0x7f, 0xb9, 0x6b, 0xfb, 0xdf, 0x0a, 0xf9, 0x2d, 0xda, 0xb5, 0x82,
  0x17, 0x28, 0x20, 0x11, 0x30, 0x58, 0xaa, 0xef, 0xe3, 0xe4, 0x1b, 0x35,
  0x98, 0x81, 0x30, 0xdf, 0x5b, 0xe3, 0x83, 0x90, 0xe3, 0x03, 0xf0, 0xc8,
  0x05, 0xd3, 0xd2, 0xff, 0xeb, 0x7b, 0x0a, 0x4f, 0x3a, 0x19, 0xb6, 0x31,
  0x14, 0x02, 0x3e, 0x03, 0x7f, 0x0c, 0x18, 0xfa, 0x91, 0xa5, 0x90, 0x2a,
  0x9b, 0x0e, 0xae, 0xe2, 0x1b, 0x29, 0x1e, 0x7f, 0xd1, 0xdf, 0xd2, 0x1c,
  0x1e, 0x6b, 0xba, 0xd1, 0x14, 0x04, 0x22, 0xfe, 0xea, 0xd6, 0xa4, 0x7f,
  0xdf, 0xe9, 0x0f, 0x53, 0xdf, 0x66, 0xb9, 0xce, 0xae, 0xde, 0xff, 0x11,
  0x4b, 0x20, 0xde, 0xe0, 0x01, 0x06, 0x21, 0x01, 0xd9, 0xb0, 0x81, 0xf0,
  0x92, 0xbd, 0x06, 0xd9, 0xed, 0xdf, 0xfd, 0x18, 0xc8, 0x9f, 0xa4, 0xe3,
  0x81, 0xee, 0x65, 0xb8, 0x17, 0x96, 0x0a, 0xce, 0x25, 0x45, 0x88, 0x44,
  0x3b, 0xec, 0xd7, 0x07, 0xfc, 0x11, 0xe9, 0xec, 0x52, 0x39, 0x2e, 0xe6,
  0x1c, 0x2d, 0xec, 0x3f, 0x2d, 0xf0, 0x13, 0x99, 0x81, 0xe4, 0x02, 0xd6,
  0xc8, 0x04, 0x86, 0xba, 0x28, 0x53, 0xfa, 0x83, 0xef, 0x25, 0xba, 0x4d,
  0x7f, 0xd7, 0xbc, 0x2f, 0x20, 0x0a, 0x62, 0xce, 0xd0, 0xd0, 0xb1, 0x96,
  0x7d, 0x7f, 0xc1, 0x9d, 0x50, 0x3b, 0x08, 0xa0, 0xc0, 0x12, 0xc7, 0x2b,
  0xb8, 0xf0, 0x2f, 0xa6, 0xaf, 0xd6, 0x74, 0xbc, 0xdf, 0xb7, 0x1c, 0xf4,
  0xde, 0x08, 0xdc, 0x81, 0x88, 0xee, 0x50, 0xfc, 0x38, 0xdb, 0x12, 0x13,
  0xc3, 0x92, 0x33, 0x24, 0x1b, 0x34, 0x18, 0xc7, 0xac, 0x81, 0x1a, 0x41,
  0x13, 0xc4, 0x4e, 0x6b, 0x4c, 0x62, 0x8e, 0x02, 0x08, 0x3e, 0xc9, 0xf8,
  0x7d, 0x60, 0xe2, 0x08, 0x81, 0xce, 0x1d, 0xee, 0xa8, 0x1b, 0xe5, 0x3a,
  0xed, 0xc2, 0x04, 0xb8, 0x6a, 0x1e, 0xe3, 0x1b, 0xb6, 0x72, 0x16, 0x17,
  0xfb, 0x15, 0x00, 0x82, 0xd3, 0x01, 0x25, 0x5c, 0xec, 0x6f, 0x81, 0x21,
  0x2e, 0x1b, 0x81, 0x56, 0xff, 0xd3, 0x27, 0x45, 0xf6, 0xfc, 0xcd, 0xc0,
  0xda, 0xe2, 0xdb, 0x50, 0x29, 0xf5, 0xf9, 0x28, 0x2a, 0xc8, 0xfe, 0x0e,
  0x1a, 0x31, 0x94, 0x81, 0x24, 0x6b, 0xbb, 0x14, 0x4e, 0xdf, 0xc0, 0xb4,
  0x43, 0xae, 0xe1, 0xfe, 0xde, 0xf3, 0xff, 0xff, 0x04, 0x00, 0x00, 0x00,
  0x3c, 0x00, 0x00, 0x00, 0x81, 0xb2, 0xce, 0x81, 0x71, 0xbf, 0x7f, 0x19,
  0xff, 0x82, 0x7f, 0x40, 0xe7, 0x81, 0xb2, 0x09, 0x81, 0xcd, 0x47, 0x7f,
  0x54, 0xff, 0x7f, 0xed, 0xd1, 0xb6, 0x81, 0x81, 0xd4, 0x0e, 0x6c, 0xd3,
  0x81, 0x03, 0xfd, 0x7f, 0x0c, 0x1e, 0x81, 0x7f, 0xdb, 0x41, 0x81, 0x4a,
  0xe3, 0x46, 0x81, 0x74, 0x7f, 0xce, 0x41, 0x92, 0x81, 0xf7, 0xf3, 0x7f,
  0xf3, 0x56, 0xf2, 0x81, 0x26, 0xf4, 0xff, 0xff, 0x04, 0x00, 0x00, 0x00,
  0x50, 0x00, 0x00, 0x00, 0x02, 0x03, 0x00, 0x00, 0x03, 0x01, 0x00, 0x00,
  0x1e, 0xfd, 0xff, 0xff, 0xef, 0xfd, 0xff, 0xff, 0x13, 0x06, 0x00, 0x00,
  0xe4, 0x01, 0x00, 0x00, 0x1c, 0xfa, 0xff, 0xff, 0x3f, 0xfd, 0xff, 0xff,
  0x3e, 0x07, 0x00, 0x00, 0x23, 0x02, 0x00, 0x00, 0x40, 0x02, 0x00, 0x00,
  0x06, 0xfe, 0xff, 0xff, 0xc8, 0x00, 0x00, 0x00, 0x86, 0xfc, 0xff, 0xff,
  0xa8, 0x00, 0x00, 0x00, 0x49, 0xff, 0xff, 0xff, 0xee, 0xfc, 0xff, 0xff,
  0x32, 0x03, 0x00, 0x00, 0xb8, 0xfd, 0xff, 0xff, 0x7e, 0x00, 0x00, 0x00,
  0x82, 0xf4, 0xff, 0xff, 0x04, 0x00, 0x00, 0x00, 0x3c, 0x00, 0x00, 0x00,
  0x7f, 0x4c, 0x4b, 0x7f, 0xbf, 0x07, 0xa4, 0x08, 0x7f, 0x2e, 0x81, 0x53,
  0x23, 0xe2, 0x7f, 0x36, 0x81, 0x64, 0xd8, 0x20, 0x7f, 0x20, 0x9b, 0x7f,
  0xd8, 0x7f, 0xaa, 0x81, 0xb6, 0x3d, 0x5a, 0x7f, 0x6d, 0x05, 0x81, 0xee,
  0x02, 0x7f, 0xab, 0x2f, 0x81, 0x66, 0x7f, 0x9c, 0x8a, 0x1f, 0x81, 0xb4,
  0x3f, 0x32, 0x7f, 0x26, 0x7f, 0xcc, 0x85, 0x81, 0x36, 0xe5, 0xe2, 0x81,
  0xca, 0xf4, 0xff, 0xff, 0x04, 0x00, 0x00, 0x00, 0x14, 0x00, 0x00, 0x00,
  0x1c, 0x4a, 0x50, 0x48, 0x71, 0x00, 0x7f, 0x12, 0xe0, 0xf3, 0xd8, 0xd2,
  0xe7, 0x12, 0x46, 0xf3, 0x1a, 0xc1, 0xe3, 0x4a, 0xea, 0xf4, 0xff, 0xff,
  0x04, 0x00, 0x00, 0x00, 0x14, 0x00, 0x00, 0x00, 0xc7, 0x9f, 0xb9, 0xc9,
  0x3d, 0xe9, 0x17, 0x4f, 0xc0, 0xf0, 0xf2, 0xaf, 0xc8, 0x7f, 0x39, 0x99,
  0x86, 0xdd, 0x80, 0xcd, 0x0a, 0xf5, 0xff, 0xff, 0x04, 0x00, 0x00, 0x00,
  0x90, 0x01, 0x00, 0x00, 0xf0, 0xa2, 0xfa, 0xf5, 0x81, 0x0d, 0x81, 0x69,
  0xb0, 0x37, 0xf3, 0x03, 0xc1, 0xbc, 0xde, 0x28, 0xe3, 0xcb, 0x5e, 0xd9,
  0xb5, 0x3b, 0x29, 0xf5, 0xf3, 0xeb, 0xb7, 0x4b, 0x0c, 0xb1, 0x10, 0x7f,
  0x27, 0xcb, 0x94, 0xd7, 0x31, 0xf6, 0x09, 0x2f, 0xdc, 0x1b, 0xf6, 0x1a,
  0x81, 0x2c, 0xbf, 0x0a, 0x46, 0x2d, 0xaa, 0x0d, 0x37, 0xc8, 0x01, 0xe0,
  0x2d, 0xcd, 0x09, 0x40, 0xca, 0xd6, 0x1b, 0x7f, 0xa4, 0xc6, 0xf0, 0xf7,
  0x3a, 0xc0, 0xf5, 0xa5, 0xfc, 0x43, 0x22, 0xf9, 0xc7, 0x30, 0x17, 0xb5,
  0x5d, 0x69, 0xd6, 0xa6, 0x60, 0x7b, 0x94, 0x82, 0x7f, 0xfb, 0x81, 0xac,
  0x19, 0x2d, 0x53, 0xf8, 0x76, 0x43, 0xe1, 0xdb, 0xe7, 0x16, 0xcd, 0xf1,
  0x17, 0xca, 0xeb, 0xef, 0xdb, 0x81, 0xde, 0xd5, 0xe0, 0x10, 0x41, 0x4f,
  0xba, 0xc7, 0xf0, 0x40, 0x7a, 0x5c, 0x6b, 0x1c, 0x81, 0x3a, 0x56, 0xf4,
  0x2e, 0xcf, 0x34, 0xde, 0x15, 0x87, 0xbe, 0x71, 0x6c, 0x32, 0xab, 0x9f,
  0xb7, 0x19, 0x36, 0xe5, 0xa1, 0xd4, 0x5f, 0xff, 0x05, 0xd5, 0xbf, 0x81,
  0x30, 0x59, 0x41, 0x18, 0xe7, 0xe1, 0xd6, 0x1b, 0x3f, 0x50, 0x4c, 0xf0,
  0xca, 0x28, 0xb9, 0xc5, 0x81, 0xd9, 0x62, 0x6e, 0xf7, 0xea, 0xd9, 0x23,
  0x21, 0x76, 0x1c, 0x28, 0x9e, 0xd3, 0x40, 0x09, 0x21, 0x0b, 0x0e, 0x48,
  0xe4, 0xad, 0x50, 0x57, 0xd0, 0x95, 0x81, 0xdb, 0x3d, 0x1b, 0x1a, 0x20,
  0xac, 0xf1, 0x19, 0x50, 0x20, 0x12, 0x06, 0x0d, 0xcc, 0x0f, 0xd1, 0xd0,
  0x2f, 0x7f, 0x99, 0x05, 0x27, 0xed, 0x33, 0x42, 0xb8, 0x15, 0x21, 0x0c,
  0x1f, 0x10, 0xf2, 0x84, 0x38, 0x00, 0x10, 0x7a, 0x81, 0x05, 0xa7, 0xa1,
  0x18, 0x65, 0xaa, 0x29, 0x19, 0xa6, 0xd5, 0x4a, 0x05, 0x32, 0x40, 0xda,
  0x1d, 0xf6, 0xb2, 0x91, 0xbb, 0xf3, 0x4a, 0xbf, 0x64, 0x81, 0xdc, 0xbf,
  0xf4, 0xfa, 0x26, 0x81, 0xa7, 0x3b, 0xec, 0xe7, 0x76, 0xef, 0x17, 0x05,
  0xde, 0xb0, 0x09, 0x1b, 0xff, 0xf8, 0xde, 0x08, 0x03, 0x3b, 0x08, 0x2f,
  0x3d, 0xfd, 0xeb, 0xe3, 0x01, 0x15, 0xd7, 0xc5, 0xd5, 0x08, 0x2f, 0x19,
  0xe2, 0x81, 0xef, 0x33, 0xdd, 0xe1, 0x0c, 0x90, 0x52, 0xc6, 0x19, 0x2d,
  0x03, 0xf2, 0x30, 0x7f, 0x9a, 0xe2, 0x09, 0x15, 0x05, 0x26, 0xd8, 0xab,
  0xbe, 0x2e, 0xc4, 0xac, 0x17, 0xfd, 0x1c, 0xd0, 0xdc, 0x10, 0x54, 0x0d,
  0xae, 0x81, 0x07, 0xed, 0xec, 0x4d, 0x48, 0xf1, 0xa1, 0x61, 0xea, 0x43,
  0x2f, 0x56, 0xce, 0x37, 0xb6, 0x0e, 0x18, 0x2d, 0x30, 0xf2, 0xcf, 0x66,
  0x1e, 0x7f, 0x59, 0xc5, 0x34, 0x9e, 0xed, 0xa9, 0x5e, 0x3c, 0x45, 0xd0,
  0xde, 0xfc, 0x10, 0x9b, 0xe0, 0xef, 0x44, 0x17, 0x7f, 0x2b, 0xbe, 0x07,
  0x44, 0x81, 0x2c, 0x34, 0xae, 0xfa, 0x3e, 0x46, 0x84, 0xd9, 0xfc, 0xb0,
  0x56, 0x3c, 0xd6, 0x11, 0xcf, 0x94, 0x49, 0x9e, 0xa6, 0xf6, 0xff, 0xff,
  0x04, 0x00, 0x00, 0x00, 0xf4, 0x01, 0x00, 0x00, 0xc7, 0xb5, 0xf9, 0xe5,
  0x47, 0xca, 0x92, 0xdd, 0x1b, 0xe9, 0x0f, 0x99, 0x0f, 0xdb, 0x37, 0xc0,
  0xd2, 0xe6, 0xe2, 0x06, 0xa6, 0x81, 0xfe, 0xf8, 0x11, 0x8a, 0x8e, 0x97,
  0xe9, 0xd2, 0x96, 0x8f, 0xa3, 0xff, 0xff, 0x81, 0x81, 0x9d, 0xf8, 0xdd,
  0x9d, 0x83, 0x8f, 0x0b, 0x1b, 0xd8, 0xcf, 0xa5, 0xf4, 0xf2, 0x61, 0x58,
  0x30, 0x1b, 0x2a, 0x7f, 0x51, 0x18, 0x6d, 0x11, 0x3e, 0x25, 0x48, 0x00,
  0x3e, 0x6a, 0x2e, 0x06, 0x3a, 0x61, 0x34, 0x79, 0x49, 0x6e, 0x0a, 0xe2,
  0xcf, 0x81, 0xfa, 0xf9, 0xe4, 0xd3, 0xc0, 0xfa, 0x39, 0x01, 0xe1, 0xc0,
  0xf5, 0x44, 0xed, 0xc3, 0x8b, 0x22, 0xfc, 0xd5, 0xda, 0x9a, 0xe8, 0x2f,
  0x77, 0x6a, 0x1c, 0x50, 0x66, 0x76, 0x2d, 0x12, 0x1a, 0x70, 0x72, 0xfd,
  0x53, 0x4b, 0x74, 0x7f, 0xeb, 0xf6, 0x31, 0x62, 0x0c, 0x34, 0x44, 0x4a,
  0xfe, 0x68, 0x65, 0x1a, 0x44, 0x7f, 0x30, 0x4d, 0xe0, 0xf7, 0x6b, 0x60,
  0x49, 0x11, 0xe3, 0x5b, 0x03, 0x0a, 0x13, 0x4d, 0x30, 0x65, 0x2e, 0x28,
  0x22, 0x42, 0x7f, 0xf7, 0x68, 0x23, 0x14, 0x54, 0x22, 0x1c, 0x51, 0x0e,
  0x4e, 0x0e, 0x46, 0x2e, 0x01, 0x61, 0x19, 0xfc, 0x6e, 0xf7, 0x66, 0x12,
  0x31, 0x5a, 0x07, 0x51, 0x15, 0x48, 0x3f, 0x64, 0x51, 0x3b, 0x3b, 0x3f,
  0x4e, 0x52, 0x4d, 0x3b, 0x50, 0x5d, 0x7d, 0x3e, 0x45, 0x78, 0x31, 0x77,
  0x46, 0x53, 0x3c, 0x7f, 0xde, 0xf6, 0x08, 0xe1, 0xf0, 0xad, 0xd9, 0xec,
  0xda, 0xe4, 0xa3, 0xdf, 0xd8, 0xdb, 0xce, 0xd3, 0xa0, 0xdb, 0xf2, 0xfb,
  0x81, 0xb1, 0xef, 0xc9, 0xd1, 0xe8, 0x11, 0x45, 0x45, 0x41, 0x32, 0x49,
  0x34, 0x03, 0xfd, 0xf3, 0x4e, 0x54, 0x33, 0x51, 0x22, 0x3d, 0x7f, 0x4a,
  0xfd, 0xf3, 0x10, 0x60, 0x4a, 0xfc, 0xf1, 0x36, 0x34, 0x26, 0x6b, 0x16,
  0x3f, 0x34, 0x50, 0x1e, 0x10, 0x7f, 0x00, 0x60, 0x3a, 0x42, 0x33, 0x4a,
  0x12, 0x60, 0x2f, 0x1a, 0x34, 0x29, 0x6c, 0xb6, 0xa6, 0x87, 0xcf, 0xae,
  0xa3, 0x90, 0xb5, 0xae, 0xbd, 0xb6, 0xe2, 0x81, 0xe1, 0x85, 0xb6, 0x9c,
  0xd6, 0x00, 0xa8, 0xc7, 0xe5, 0xb1, 0xad, 0xe3, 0x43, 0x40, 0x5f, 0x3b,
  0x56, 0x6a, 0x6e, 0x0b, 0x22, 0x3a, 0x26, 0x7f, 0x7b, 0x7b, 0x3c, 0x49,
  0x59, 0x01, 0x07, 0x40, 0x43, 0x41, 0x17, 0x03, 0xe4, 0x8e, 0x14, 0xb9,
  0xcc, 0xcf, 0xb3, 0xc8, 0xe6, 0xbb, 0xa8, 0x99, 0xab, 0x10, 0xb2, 0xec,
  0x81, 0x92, 0x16, 0x85, 0xe8, 0xa0, 0xbe, 0xdc, 0xc0, 0x9e, 0x03, 0xef,
  0xde, 0xa6, 0xad, 0x05, 0xc8, 0xee, 0xee, 0xd4, 0x21, 0xd5, 0xc9, 0xb8,
  0xb1, 0xda, 0xb4, 0xae, 0xc6, 0xa0, 0xa5, 0xa9, 0xa4, 0x81, 0x9c, 0x52,
  0x50, 0x04, 0x2d, 0x2c, 0x46, 0x22, 0x20, 0x3a, 0x0c, 0x3d, 0x3d, 0xef,
  0x36, 0x3b, 0x46, 0x0e, 0x33, 0xda, 0x29, 0x7f, 0x2d, 0xf1, 0x59, 0x62,
  0x42, 0x15, 0xf8, 0x17, 0x0f, 0x31, 0x32, 0x0b, 0x06, 0x54, 0x5e, 0x1e,
  0x4c, 0x21, 0x52, 0x12, 0x2b, 0x47, 0x5a, 0x56, 0x6b, 0x7f, 0x1a, 0x26,
  0x4f, 0x3b, 0x58, 0xa8, 0xa1, 0xb7, 0x54, 0x6e, 0xc8, 0xaa, 0xb0, 0x2f,
  0x38, 0xbc, 0x81, 0x9d, 0x34, 0x33, 0x8d, 0xd1, 0xf3, 0xee, 0x24, 0xb0,
  0xa2, 0xa5, 0x96, 0xb2, 0x0b, 0xe6, 0x22, 0x8b, 0x02, 0xaa, 0xc7, 0x24,
  0xd7, 0xa9, 0x94, 0xb8, 0xd1, 0x81, 0xf7, 0xfc, 0xb4, 0xd1, 0xff, 0xd6,
  0xec, 0xe8, 0xff, 0x7f, 0x2c, 0x43, 0x4b, 0x4b, 0x64, 0x55, 0x2a, 0x25,
  0x45, 0x41, 0x57, 0x09, 0x06, 0x1b, 0x4e, 0x54, 0x17, 0x3e, 0x20, 0x5b,
  0x32, 0x65, 0x33, 0x46, 0xa6, 0xf8, 0xff, 0xff, 0x04, 0x00, 0x00, 0x00,
  0x80, 0x02, 0x00, 0x00, 0x01, 0x8a, 0x11, 0x35, 0x0c, 0xe4, 0xe4, 0x1b,
  0xef, 0xfb, 0xdd, 0xf2, 0xe3, 0x4c, 0x27, 0x6b, 0x33, 0xcf, 0x81, 0xee,
  0xd4, 0x14, 0x81, 0x05, 0x99, 0x5e, 0x77, 0x09, 0xef, 0x1e, 0x94, 0xe2,
  0xfa, 0x1d, 0xcb, 0x4a, 0xfa, 0xf9, 0xd3, 0xe6, 0x22, 0x0b, 0x00, 0xdb,
  0xa9, 0x18, 0x36, 0x4b, 0xfa, 0xbb, 0x1b, 0x5c, 0xb9, 0x2b, 0xa2, 0x20,
  0x23, 0x81, 0x1f, 0x4e, 0x4b, 0x81, 0x3a, 0x18, 0x1a, 0x39, 0xc1, 0xfc,
  0xdf, 0x54, 0xea, 0x00, 0xd2, 0x00, 0xf8, 0x4f, 0x1b, 0xfb, 0xe6, 0x99,
  0x40, 0xf0, 0x7f, 0xc4, 0x9a, 0x3d, 0x82, 0xc7, 0x78, 0xb9, 0xd8, 0xf1,
  0xd8, 0xc9, 0x8f, 0xee, 0xe9, 0x74, 0x10, 0xda, 0xef, 0x4e, 0xde, 0xf8,
  0x10, 0x7b, 0xff, 0x1f, 0xe8, 0x6a, 0x8d, 0x24, 0x6c, 0x16, 0x06, 0x7f,
  0xeb, 0x51, 0xb0, 0xb3, 0xee, 0x2e, 0x0c, 0xfa, 0x14, 0x7f, 0xf4, 0x40,
  0x4a, 0x04, 0xdd, 0x2f, 0x4b, 0xfa, 0xa6, 0x45, 0xe8, 0x53, 0x40, 0xf0,
  0xee, 0x31, 0x71, 0xe4, 0x54, 0xde, 0xdf, 0x4d, 0x7f, 0x8a, 0xc3, 0xbf,
  0x28, 0x25, 0xd0, 0xc4, 0xc9, 0x2b, 0x31, 0x28, 0xc2, 0xe8, 0x66, 0x58,
  0x13, 0x61, 0xcd, 0x46, 0x7f, 0x06, 0xf6, 0x25, 0x54, 0x9e, 0xaf, 0x08,
  0x41, 0x01, 0xe2, 0xd4, 0x23, 0x49, 0x10, 0x2e, 0x7f, 0xca, 0xb5, 0xee,
  0xc5, 0x35, 0xf9, 0xe3, 0xb6, 0xa2, 0xda, 0x94, 0x1c, 0xe9, 0xed, 0x24,
  0xc7, 0xfe, 0xf5, 0xfa, 0x35, 0xa7, 0x0a, 0x21, 0xdf, 0x0d, 0xfc, 0xdc,
  0xef, 0x49, 0x2a, 0xe4, 0xd1, 0xf7, 0x2b, 0x7f, 0xe7, 0xe7, 0xe3, 0x04,
  0x42, 0x11, 0xf7, 0x6b, 0x4b, 0x0c, 0x04, 0x61, 0x14, 0x23, 0x81, 0x27,
  0x51, 0xf4, 0xe8, 0xbc, 0x68, 0xe2, 0x45, 0xee, 0xf5, 0xfc, 0x30, 0x24,
  0xea, 0xdc, 0xfc, 0x81, 0x78, 0x4c, 0x15, 0xa6, 0x1b, 0x10, 0x41, 0x27,
  0x63, 0xef, 0xbe, 0xa4, 0x91, 0x68, 0x69, 0x2d, 0xd4, 0xf3, 0x9d, 0xbe,
  0x1c, 0x7f, 0x96, 0x3a, 0xba, 0x13, 0xe7, 0xe0, 0x25, 0x0d, 0xf9, 0xd7,
  0xd7, 0x3e, 0xfb, 0xaf, 0x2d, 0xff, 0xee, 0x53, 0x9c, 0x1e, 0x81, 0x40,
  0xd2, 0x19, 0x14, 0x40, 0xe2, 0x8a, 0x04, 0xf6, 0x05, 0xcf, 0x32, 0x00,
  0x37, 0x7f, 0x08, 0x09, 0x0c, 0x9b, 0xfe, 0x1a, 0x74, 0xf5, 0xca, 0xe9,
  0x4d, 0xfa, 0x2a, 0x81, 0xc1, 0x4a, 0x25, 0xc7, 0x31, 0xcd, 0xd4, 0x3f,
  0x3c, 0x1f, 0xd0, 0x0a, 0x1f, 0xf9, 0xbd, 0x50, 0x24, 0xc8, 0xbf, 0x08,
  0x81, 0x07, 0x11, 0xcf, 0xd3, 0x0e, 0xf4, 0xe1, 0x20, 0x7e, 0x95, 0x63,
  0x2c, 0x82, 0xee, 0x7a, 0x05, 0xdb, 0x3e, 0xa3, 0x18, 0x51, 0x16, 0xef,
  0x94, 0xc2, 0x1d, 0x65, 0xfc, 0xc2, 0x1a, 0x95, 0xeb, 0x81, 0xfd, 0x23,
  0x64, 0x05, 0x02, 0xc7, 0xe3, 0xeb, 0x20, 0xc2, 0xaa, 0xf4, 0xc7, 0x81,
  0xd7, 0x0c, 0x4d, 0x11, 0x58, 0xe6, 0x55, 0x19, 0xa9, 0x81, 0x4e, 0xef,
  0xe4, 0x07, 0xbb, 0xe0, 0x49, 0x74, 0xb0, 0x03, 0x46, 0x95, 0xcb, 0x0d,
  0xe1, 0x45, 0x01, 0xb6, 0xe9, 0xf7, 0xa0, 0x1e, 0x13, 0x12, 0xf3, 0x19,
  0x81, 0xd9, 0x3d, 0xd0, 0xdd, 0x2f, 0x14, 0xf4, 0x11, 0xa5, 0xd9, 0x1d,
  0x27, 0xa9, 0x58, 0xec, 0x01, 0xa3, 0x3c, 0x4c, 0x5a, 0x26, 0xeb, 0x32,
  0x0b, 0x37, 0x49, 0xf0, 0xe7, 0x81, 0xcd, 0x10, 0x5a, 0x35, 0xff, 0xed,
  0x59, 0xd5, 0x55, 0x5f, 0x7f, 0xcc, 0xaf, 0xe3, 0x2c, 0x44, 0xba, 0x04,
  0xbc, 0xfb, 0x7b, 0x64, 0xf7, 0xab, 0x20, 0x7f, 0xcb, 0xbb, 0xa8, 0x9d,
  0x47, 0x72, 0x18, 0xf8, 0x84, 0xe1, 0x8d, 0xcb, 0xd0, 0x8d, 0x51, 0x39,
  0x0b, 0xa4, 0x7f, 0x42, 0x70, 0xfd, 0xf7, 0x10, 0x3b, 0x2a, 0x2b, 0x45,
  0x2d, 0xee, 0xea, 0x05, 0xd7, 0xe6, 0xee, 0x2c, 0x4f, 0x7f, 0x8e, 0x0c,
  0x5e, 0x67, 0xfd, 0x1f, 0xda, 0xe6, 0xaf, 0x13, 0x0d, 0xb2, 0x02, 0xc7,
  0x4c, 0xf0, 0x16, 0x0f, 0xcb, 0x12, 0x27, 0xbb, 0x81, 0x3c, 0xe7, 0xa4,
  0x04, 0x52, 0xa2, 0x0f, 0xe9, 0xe1, 0xac, 0xda, 0x41, 0x3a, 0x11, 0x5c,
  0x49, 0x4e, 0x23, 0xc5, 0x26, 0x62, 0x7f, 0x18, 0x58, 0x2b, 0xa0, 0x88,
  0x6b, 0xc2, 0x1d, 0x9d, 0xc1, 0x55, 0x02, 0xd3, 0xdb, 0xe8, 0x24, 0x96,
  0x2b, 0xc8, 0xf4, 0xbc, 0x7c, 0x26, 0x81, 0x84, 0x40, 0xb2, 0xb8, 0x9e,
  0x32, 0x71, 0x03, 0xc9, 0x3c, 0x74, 0xd6, 0xeb, 0x58, 0xf9, 0x42, 0x0b,
  0xa0, 0x66, 0xf2, 0x2d, 0x81, 0xe5, 0xc2, 0x2b, 0x1e, 0xd1, 0x06, 0x46,
  0x53, 0x0d, 0x7f, 0x08, 0x2d, 0xfb, 0xb0, 0xbc, 0xf7, 0xb2, 0x82, 0xee,
  0xb7, 0x41, 0xb1, 0x17, 0x92, 0x26, 0x0b, 0x13, 0x32, 0xfb, 0xff, 0xff,
  0x04, 0x00, 0x00, 0x00, 0x80, 0x00, 0x00, 0x00, 0xcc, 0xfa, 0xff, 0xff,
  0x5b, 0x02, 0x00, 0x00, 0x51, 0xfc, 0xff, 0xff, 0x1b, 0xf8, 0xff, 0xff,
  0x64, 0x0c, 0x00, 0x00, 0xca, 0x01, 0x00, 0x00, 0x02, 0x00, 0x00, 0x00,
  0x26, 0x05, 0x00, 0x00, 0xea, 0xf2, 0xff, 0xff, 0xc6, 0xfc, 0xff, 0xff,
  0xf3, 0xff, 0xff, 0xff, 0x97, 0xfa, 0xff, 0xff, 0x87, 0xf9, 0xff, 0xff,
  0x26, 0x04, 0x00, 0x00, 0x68, 0x0b, 0x00, 0x00, 0xa6, 0xeb, 0xff, 0xff,
  0xbf, 0x03, 0x00, 0x00, 0x2c, 0xfd, 0xff, 0xff, 0x69, 0xf7, 0xff, 0xff,
  0x33, 0xff, 0xff, 0xff, 0xe0, 0xfb, 0xff, 0xff, 0x52, 0xfa, 0xff, 0xff,
  0xbe, 0xfe, 0xff, 0xff, 0x8b, 0x04, 0x00, 0x00, 0x32, 0x07, 0x00, 0x00,
  0x89, 0xf4, 0xff, 0xff, 0x81, 0x03, 0x00, 0x00, 0x86, 0x04, 0x00, 0x00,
  0x8a, 0x00, 0x00, 0x00, 0x02, 0x04, 0x00, 0x00, 0x0a, 0xf7, 0xff, 0xff,
  0x49, 0x12, 0x00, 0x00, 0xbe, 0xfb, 0xff, 0xff, 0x04, 0x00, 0x00, 0x00,
  0x00, 0x01, 0x00, 0x00, 0x92, 0xe0, 0xdc, 0x14, 0xac, 0xaf, 0xc5, 0xbc,
  0xbb, 0x40, 0x36, 0xbb, 0xdc, 0xaa, 0xff, 0xdc, 0x9b, 0xf6, 0x23, 0xcd,
  0xb0, 0x1c, 0xb6, 0xd8, 0x12, 0x44, 0x1c, 0x03, 0x95, 0x81, 0x2f, 0xe3,
  0x63, 0xf7, 0x7e, 0xcd, 0xe5, 0xe8, 0x02, 0xfa, 0x2a, 0x81, 0xf9, 0x5d,
  0xe5, 0x22, 0x2d, 0xd9, 0x3f, 0x30, 0x12, 0x46, 0xc6, 0xed, 0x2c, 0xc8,
  0xab, 0x03, 0xf7, 0x5a, 0xa3, 0xc1, 0x2a, 0x0c, 0x6d, 0x36, 0xa8, 0x49,
  0xc9, 0x4c, 0xcb, 0xae, 0x9e, 0xb9, 0x31, 0xbe, 0x41, 0x37, 0xf7, 0xdc,
  0x81, 0x2e, 0xa9, 0x6d, 0xe7, 0x33, 0x02, 0x99, 0x07, 0xf7, 0x9f, 0xd8,
  0xbb, 0xc7, 0x2a, 0x26, 0xd3, 0xcc, 0xf0, 0x81, 0xe5, 0xb0, 0xdf, 0x56,
  0xd9, 0xc9, 0x40, 0xd7, 0x70, 0x08, 0xd4, 0xbc, 0x4c, 0xff, 0x0b, 0xef,
  0xce, 0x06, 0x5e, 0x60, 0xc6, 0x30, 0xa4, 0xbd, 0x20, 0x02, 0xc6, 0xfd,
  0xdd, 0xce, 0x81, 0x1a, 0x45, 0xf1, 0x03, 0x1f, 0x35, 0xf5, 0xd6, 0xe6,
  0xf8, 0xd8, 0x35, 0xe6, 0x28, 0xba, 0xef, 0xd4, 0x33, 0xce, 0xe5, 0xbd,
  0x20, 0x37, 0xec, 0x13, 0x00, 0x29, 0x08, 0x4e, 0x4f, 0xc9, 0xe8, 0x34,
  0x06, 0x07, 0x1a, 0xdf, 0x56, 0xd9, 0xcc, 0x49, 0x81, 0xa1, 0x9e, 0x5f,
  0xa8, 0xe4, 0x2e, 0xf2, 0x3a, 0xd0, 0x52, 0xb3, 0x32, 0x53, 0xfc, 0xcb,
  0xe7, 0xcc, 0xcc, 0xc8, 0xb2, 0x5e, 0xf3, 0xbf, 0xb8, 0x4e, 0x42, 0x1f,
  0x06, 0xe0, 0xf6, 0x38, 0x23, 0x52, 0xe5, 0xdb, 0x01, 0xbb, 0xef, 0x94,
  0xee, 0xf3, 0x0b, 0x51, 0xd7, 0xdc, 0x34, 0x81, 0x28, 0xa1, 0x16, 0xc5,
  0xba, 0xec, 0xac, 0xcf, 0xf9, 0xa9, 0xa3, 0xbc, 0xfd, 0x2a, 0xdf, 0xf8,
  0x33, 0xee, 0xb3, 0x25, 0x41, 0x81, 0x05, 0x2b, 0x04, 0xc3, 0x18, 0xae,
  0x0f, 0xb9, 0x21, 0x34, 0x45, 0x57, 0x16, 0xe4, 0xca, 0xfc, 0xff, 0xff,
  0x04, 0x00, 0x00, 0x00, 0x20, 0x00, 0x00, 0x00, 0x46, 0xfd, 0xff, 0xff,
  0xcd, 0xfc, 0xff, 0xff, 0xdd, 0x00, 0x00, 0x00, 0xe1, 0x02, 0x00, 0x00,
  0x10, 0xff, 0xff, 0xff, 0xc6, 0x02, 0x00, 0x00, 0xc3, 0x00, 0x00, 0x00,
  0x00, 0x02, 0x00, 0x00, 0xf6, 0xfc, 0xff, 0xff, 0x04, 0x00, 0x00, 0x00,
  0x08, 0x00, 0x00, 0x00, 0xff, 0xff, 0xff, 0xff, 0x08, 0x00, 0x00, 0x00,
  0x0a, 0xfd, 0xff, 0xff, 0x04, 0x00, 0x00, 0x00, 0x08, 0x00, 0x00, 0x00,
  0x01, 0x00, 0x00, 0x00, 0x02, 0x00, 0x00, 0x00, 0x1e, 0xfd, 0xff, 0xff,
  0x04, 0x00, 0x00, 0x00, 0x04, 0x00, 0x00, 0x00, 0x01, 0x00, 0x00, 0x00,
  0xe0, 0xc5, 0xfe, 0xff, 0xe4, 0xc5, 0xfe, 0xff, 0x0f, 0x00, 0x00, 0x00,
  0x4d, 0x4c, 0x49, 0x52, 0x20, 0x43, 0x6f, 0x6e, 0x76, 0x65, 0x72, 0x74,
  0x65, 0x64, 0x2e, 0x00, 0x01, 0x00, 0x00, 0x00, 0x14, 0x00, 0x00, 0x00,
  0x00, 0x00, 0x0e, 0x00, 0x18, 0x00, 0x14, 0x00, 0x10, 0x00, 0x0c, 0x00,
  0x08, 0x00, 0x04, 0x00, 0x0e, 0x00, 0x00, 0x00, 0x14, 0x00, 0x00, 0x00,
  0x1c, 0x00, 0x00, 0x00, 0xcc, 0x1f, 0x00, 0x00, 0xd0, 0x1f, 0x00, 0x00,
  0xd4, 0x1f, 0x00, 0x00, 0x04, 0x00, 0x00, 0x00, 0x6d, 0x61, 0x69, 0x6e,
  0x00, 0x00, 0x00, 0x00, 0x97, 0x00, 0x00, 0x00, 0x68, 0x1f, 0x00, 0x00,
  0x08, 0x1f, 0x00, 0x00, 0xc0, 0x1e, 0x00, 0x00, 0x80, 0x1e, 0x00, 0x00,
  0x34, 0x1e, 0x00, 0x00, 0x10, 0x1e, 0x00, 0x00, 0xd0, 0x1d, 0x00, 0x00,
  0x9c, 0x1d, 0x00, 0x00, 0x68, 0x1d, 0x00, 0x00, 0x44, 0x1d, 0x00, 0x00,
  0x10, 0x1d, 0x00, 0x00, 0xc4, 0x1c, 0x00, 0x00, 0x8c, 0x1c, 0x00, 0x00,
  0x50, 0x1c, 0x00, 0x00, 0x18, 0x1c, 0x00, 0x00, 0xdc, 0x1b, 0x00, 0x00,
  0xb8, 0x1b, 0x00, 0x00, 0x84, 0x1b, 0x00, 0x00, 0x50, 0x1b, 0x00, 0x00,
  0x1c, 0x1b, 0x00, 0x00, 0xf8, 0x1a, 0x00, 0x00, 0xc4, 0x1a, 0x00, 0x00,
  0x84, 0x1a, 0x00, 0x00, 0x50, 0x1a, 0x00, 0x00, 0x18, 0x1a, 0x00, 0x00,
  0xd4, 0x19, 0x00, 0x00, 0x98, 0x19, 0x00, 0x00, 0x60, 0x19, 0x00, 0x00,
  0x24, 0x19, 0x00, 0x00, 0x00, 0x19, 0x00, 0x00, 0xcc, 0x18, 0x00, 0x00,
  0x98, 0x18, 0x00, 0x00, 0x64, 0x18, 0x00, 0x00, 0x40, 0x18, 0x00, 0x00,
  0x0c, 0x18, 0x00, 0x00, 0xcc, 0x17, 0x00, 0x00, 0x94, 0x17, 0x00, 0x00,
  0x58, 0x17, 0x00, 0x00, 0x20, 0x17, 0x00, 0x00, 0xe4, 0x16, 0x00, 0x00,
  0xc0, 0x16, 0x00, 0x00, 0x8c, 0x16, 0x00, 0x00, 0x58, 0x16, 0x00, 0x00,
  0x24, 0x16, 0x00, 0x00, 0x00, 0x16, 0x00, 0x00, 0xcc, 0x15, 0x00, 0x00,
  0x8c, 0x15, 0x00, 0x00, 0x58, 0x15, 0x00, 0x00, 0x20, 0x15, 0x00, 0x00,
  0xdc, 0x14, 0x00, 0x00, 0xa0, 0x14, 0x00, 0x00, 0x68, 0x14, 0x00, 0x00,
  0x2c, 0x14, 0x00, 0x00, 0x08, 0x14, 0x00, 0x00, 0xd4, 0x13, 0x00, 0x00,
  0xa0, 0x13, 0x00, 0x00, 0x6c, 0x13, 0x00, 0x00, 0x48, 0x13, 0x00, 0x00,
  0x14, 0x13, 0x00, 0x00, 0xd4, 0x12, 0x00, 0x00, 0x9c, 0x12, 0x00, 0x00,
  0x60, 0x12, 0x00, 0x00, 0x28, 0x12, 0x00, 0x00, 0xec, 0x11, 0x00, 0x00,
  0xc8, 0x11, 0x00, 0x00, 0x94, 0x11, 0x00, 0x00, 0x60, 0x11, 0x00, 0x00,
  0x2c, 0x11, 0x00, 0x00, 0x08, 0x11, 0x00, 0x00, 0xd4, 0x10, 0x00, 0x00,
  0x94, 0x10, 0x00, 0x00, 0x60, 0x10, 0x00, 0x00, 0x28, 0x10, 0x00, 0x00,
  0xec, 0x0f, 0x00, 0x00, 0xb4, 0x0f, 0x00, 0x00, 0x78, 0x0f, 0x00, 0x00,
  0x54, 0x0f, 0x00, 0x00, 0x20, 0x0f, 0x00, 0x00, 0xec, 0x0e, 0x00, 0x00,
  0xb8, 0x0e, 0x00, 0x00, 0x94, 0x0e, 0x00, 0x00, 0x60, 0x0e, 0x00, 0x00,
  0x20, 0x0e, 0x00, 0x00, 0xec, 0x0d, 0x00, 0x00, 0xb4, 0x0d, 0x00, 0x00,
  0x78, 0x0d, 0x00, 0x00, 0x40, 0x0d, 0x00, 0x00, 0x04, 0x0d, 0x00, 0x00,
  0xe0, 0x0c, 0x00, 0x00, 0xac, 0x0c, 0x00, 0x00, 0x78, 0x0c, 0x00, 0x00,
  0x44, 0x0c, 0x00, 0x00, 0x20, 0x0c, 0x00, 0x00, 0xec, 0x0b, 0x00, 0x00,
  0xac, 0x0b, 0x00, 0x00, 0x78, 0x0b, 0x00, 0x00, 0x40, 0x0b, 0x00, 0x00,
  0xfc, 0x0a, 0x00, 0x00, 0xc0, 0x0a, 0x00, 0x00, 0x88, 0x0a, 0x00, 0x00,
  0x4c, 0x0a, 0x00, 0x00, 0x28, 0x0a, 0x00, 0x00, 0xf4, 0x09, 0x00, 0x00,
  0xc0, 0x09, 0x00, 0x00, 0x8c, 0x09, 0x00, 0x00, 0x68, 0x09, 0x00, 0x00,
  0x34, 0x09, 0x00, 0x00, 0xf4, 0x08, 0x00, 0x00, 0xbc, 0x08, 0x00, 0x00,
  0x80, 0x08, 0x00, 0x00, 0x48, 0x08, 0x00, 0x00, 0x0c, 0x08, 0x00, 0x00,
  0xe8, 0x07, 0x00, 0x00, 0xb4, 0x07, 0x00, 0x00, 0x80, 0x07, 0x00, 0x00,
  0x4c, 0x07, 0x00, 0x00, 0x28, 0x07, 0x00, 0x00, 0xf4, 0x06, 0x00, 0x00,
  0xb4, 0x06, 0x00, 0x00, 0x80, 0x06, 0x00, 0x00, 0x48, 0x06, 0x00, 0x00,
  0x0c, 0x06, 0x00, 0x00, 0xd4, 0x05, 0x00, 0x00, 0x98, 0x05, 0x00, 0x00,
  0x74, 0x05, 0x00, 0x00, 0x40, 0x05, 0x00, 0x00, 0x0c, 0x05, 0x00, 0x00,
  0xd8, 0x04, 0x00, 0x00, 0xb4, 0x04, 0x00, 0x00, 0x80, 0x04, 0x00, 0x00,
  0x40, 0x04, 0x00, 0x00, 0x0c, 0x04, 0x00, 0x00, 0xd4, 0x03, 0x00, 0x00,
  0x98, 0x03, 0x00, 0x00, 0x60, 0x03, 0x00, 0x00, 0x24, 0x03, 0x00, 0x00,
  0x00, 0x03, 0x00, 0x00, 0xcc, 0x02, 0x00, 0x00, 0x98, 0x02, 0x00, 0x00,
  0x64, 0x02, 0x00, 0x00, 0x40, 0x02, 0x00, 0x00, 0x0c, 0x02, 0x00, 0x00,
  0xcc, 0x01, 0x00, 0x00, 0x98, 0x01, 0x00, 0x00, 0x60, 0x01, 0x00, 0x00,
  0x24, 0x01, 0x00, 0x00, 0xe0, 0x00, 0x00, 0x00, 0xa8, 0x00, 0x00, 0x00,
  0x68, 0x00, 0x00, 0x00, 0x40, 0x00, 0x00, 0x00, 0x04, 0x00, 0x00, 0x00,
  0xde, 0xe3, 0xff, 0xff, 0x1c, 0x00, 0x00, 0x00, 0x00, 0x00, 0x00, 0x09,
  0x1c, 0x00, 0x00, 0x00, 0x20, 0x00, 0x00, 0x00, 0x06, 0x00, 0x00, 0x00,
  0x00, 0x00, 0x06, 0x00, 0x08, 0x00, 0x04, 0x00, 0x06, 0x00, 0x00, 0x00,
  0x00, 0x00, 0x80, 0x3f, 0x01, 0x00, 0x00, 0x00, 0x0a, 0x01, 0x00, 0x00,
  0x01, 0x00, 0x00, 0x00, 0x09, 0x01, 0x00, 0x00, 0x7a, 0xe4, 0xff, 0xff,
  0x0c, 0x00, 0x00, 0x00, 0x10, 0x00, 0x00, 0x00, 0x05, 0x00, 0x00, 0x00,
  0x01, 0x00, 0x00, 0x00, 0x09, 0x01, 0x00, 0x00, 0x02, 0x00, 0x00, 0x00,
  0x08, 0x01, 0x00, 0x00, 0x03, 0x00, 0x00, 0x00, 0x5e, 0xe3, 0xff, 0xff,
  0x10, 0x00, 0x00, 0x00, 0x00, 0x00, 0x00, 0x01, 0x18, 0x00, 0x00, 0x00,
  0x1c, 0x00, 0x00, 0x00, 0xc6, 0xe5, 0xff, 0xff, 0x01, 0x00, 0x00, 0x00,
  0x01, 0x00, 0x00, 0x00, 0x00, 0x00, 0x00, 0x01, 0x01, 0x00, 0x00, 0x00,
  0x08, 0x01, 0x00, 0x00, 0x03, 0x00, 0x00, 0x00, 0x07, 0x01, 0x00, 0x00,
  0x05, 0x00, 0x00, 0x00, 0x04, 0x00, 0x00, 0x00, 0x76, 0xe4, 0xff, 0xff,
  0x14, 0x00, 0x00, 0x00, 0x00, 0x00, 0x00, 0x1b, 0x14, 0x00, 0x00, 0x00,
  0x18, 0x00, 0x00, 0x00, 0x01, 0x00, 0x00, 0x00, 0x66, 0xe4, 0xff, 0xff,
  0x00, 0x00, 0x00, 0x01, 0x01, 0x00, 0x00, 0x00, 0x07, 0x01, 0x00, 0x00,
  0x02, 0x00, 0x00, 0x00, 0x06, 0x01, 0x00, 0x00, 0x02, 0x00, 0x00, 0x00,
  0xce, 0xe3, 0xff, 0xff, 0x10, 0x00, 0x00, 0x00, 0x00, 0x00, 0x00, 0x01,
  0x1c, 0x00, 0x00, 0x00, 0x20, 0x00, 0x00, 0x00, 0x1c, 0xe4, 0xff, 0xff,
  0x00, 0x00, 0x00, 0x01, 0x01, 0x00, 0x00, 0x00, 0x01, 0x00, 0x00, 0x00,
  0x00, 0x00, 0x00, 0x01, 0x01, 0x00, 0x00, 0x00, 0x06, 0x01, 0x00, 0x00,
  0x03, 0x00, 0x00, 0x00, 0x05, 0x01, 0x00, 0x00, 0x07, 0x00, 0x00, 0x00,
  0x06, 0x00, 0x00, 0x00, 0x0e, 0xe4, 0xff, 0xff, 0x10, 0x00, 0x00, 0x00,
  0x00, 0x00, 0x00, 0x01, 0x14, 0x00, 0x00, 0x00, 0x18, 0x00, 0x00, 0x00,
  0x9e, 0xe4, 0xff, 0xff, 0x01, 0x00, 0x00, 0x00, 0x01, 0x00, 0x00, 0x00,
  0x01, 0x00, 0x00, 0x00, 0x05, 0x01, 0x00, 0x00, 0x03, 0x00, 0x00, 0x00,
  0x04, 0x01, 0x00, 0x00, 0x08, 0x00, 0x00, 0x00, 0x26, 0x00, 0x00, 0x00,
  0x22, 0xe5, 0xff, 0xff, 0x14, 0x00, 0x00, 0x00, 0x00, 0x00, 0x00, 0x0b,
  0x14, 0x00, 0x00, 0x00, 0x18, 0x00, 0x00, 0x00, 0x04, 0x00, 0x00, 0x00,
  0x12, 0xe5, 0xff, 0xff, 0x00, 0x00, 0x00, 0x01, 0x01, 0x00, 0x00, 0x00,
  0x04, 0x01, 0x00, 0x00, 0x02, 0x00, 0x00, 0x00, 0x03, 0x01, 0x00, 0x00,
  0xf8, 0x00, 0x00, 0x00, 0x56, 0xe5, 0xff, 0xff, 0x14, 0x00, 0x00, 0x00,
  0x00, 0x00, 0x00, 0x0b, 0x10, 0x00, 0x00, 0x00, 0x14, 0x00, 0x00, 0x00,
  0x04, 0x00, 0x00, 0x00, 0x28, 0xca, 0xfe, 0xff, 0x01, 0x00, 0x00, 0x00,
  0x03, 0x01, 0x00, 0x00, 0x02, 0x00, 0x00, 0x00, 0x02, 0x01, 0x00, 0x00,
  0xf9, 0x00, 0x00, 0x00, 0xaa, 0xe4, 0xff, 0xff, 0x10, 0x00, 0x00, 0x00,
  0x00, 0x00, 0x00, 0x01, 0x18, 0x00, 0x00, 0x00, 0x1c, 0x00, 0x00, 0x00,
  0x12, 0xe7, 0xff, 0xff, 0x01, 0x00, 0x00, 0x00, 0x01, 0x00, 0x00, 0x00,
  0x00, 0x00, 0x00, 0x01, 0x01, 0x00, 0x00, 0x00, 0x02, 0x01, 0x00, 0x00,
  0x03, 0x00, 0x00, 0x00, 0x01, 0x01, 0x00, 0x00, 0x09, 0x00, 0x00, 0x00,
  0x25, 0x00, 0x00, 0x00, 0xc2, 0xe5, 0xff, 0xff, 0x14, 0x00, 0x00, 0x00,
  0x00, 0x00, 0x00, 0x15, 0x10, 0x00, 0x00, 0x00, 0x14, 0x00, 0x00, 0x00,
  0x03, 0x00, 0x00, 0x00, 0x94, 0xca, 0xfe, 0xff, 0x01, 0x00, 0x00, 0x00,
  0x01, 0x01, 0x00, 0x00, 0x02, 0x00, 0x00, 0x00, 0xff, 0x00, 0x00, 0x00,
  0x00, 0x01, 0x00, 0x00, 0x56, 0xe6, 0xff, 0xff, 0x0c, 0x00, 0x00, 0x00,
  0x10, 0x00, 0x00, 0x00, 0x02, 0x00, 0x00, 0x00, 0x01, 0x00, 0x00, 0x00,
  0x00, 0x01, 0x00, 0x00, 0x01, 0x00, 0x00, 0x00, 0xff, 0x00, 0x00, 0x00,
  0x12, 0xe6, 0xff, 0xff, 0x14, 0x00, 0x00, 0x00, 0x00, 0x00, 0x00, 0x0b,
  0x10, 0x00, 0x00, 0x00, 0x14, 0x00, 0x00, 0x00, 0x04, 0x00, 0x00, 0x00,
  0xe4, 0xca, 0xfe, 0xff, 0x01, 0x00, 0x00, 0x00, 0xff, 0x00, 0x00, 0x00,
  0x02, 0x00, 0x00, 0x00, 0xfe, 0x00, 0x00, 0x00, 0x0a, 0x00, 0x00, 0x00,
  0x42, 0xe6, 0xff, 0xff, 0x14, 0x00, 0x00, 0x00, 0x00, 0x00, 0x00, 0x15,
  0x10, 0x00, 0x00, 0x00, 0x14, 0x00, 0x00, 0x00, 0x03, 0x00, 0x00, 0x00,
  0x14, 0xcb, 0xfe, 0xff, 0x01, 0x00, 0x00, 0x00, 0xfe, 0x00, 0x00, 0x00,
  0x02, 0x00, 0x00, 0x00, 0xfd, 0x00, 0x00, 0x00, 0x0b, 0x00, 0x00, 0x00,
  0x72, 0xe6, 0xff, 0xff, 0x14, 0x00, 0x00, 0x00, 0x00, 0x00, 0x00, 0x15,
  0x10, 0x00, 0x00, 0x00, 0x14, 0x00, 0x00, 0x00, 0x03, 0x00, 0x00, 0x00,
  0x44, 0xcb, 0xfe, 0xff, 0x01, 0x00, 0x00, 0x00, 0xfd, 0x00, 0x00, 0x00,
  0x02, 0x00, 0x00, 0x00, 0xfb, 0x00, 0x00, 0x00, 0xfc, 0x00, 0x00, 0x00,
  0x06, 0xe7, 0xff, 0xff, 0x0c, 0x00, 0x00, 0x00, 0x10, 0x00, 0x00, 0x00,
  0x02, 0x00, 0x00, 0x00, 0x01, 0x00, 0x00, 0x00, 0xfc, 0x00, 0x00, 0x00,
  0x01, 0x00, 0x00, 0x00, 0xfb, 0x00, 0x00, 0x00, 0xe6, 0xe5, 0xff, 0xff,
  0x10, 0x00, 0x00, 0x00, 0x00, 0x00, 0x00, 0x01, 0x14, 0x00, 0x00, 0x00,
  0x18, 0x00, 0x00, 0x00, 0x76, 0xe6, 0xff, 0xff, 0x01, 0x00, 0x00, 0x00,
  0x01, 0x00, 0x00, 0x00, 0x01, 0x00, 0x00, 0x00, 0xfb, 0x00, 0x00, 0x00,
  0x03, 0x00, 0x00, 0x00, 0xfa, 0x00, 0x00, 0x00, 0x0c, 0x00, 0x00, 0x00,
  0x24, 0x00, 0x00, 0x00, 0xfa, 0xe6, 0xff, 0xff, 0x14, 0x00, 0x00, 0x00,
  0x00, 0x00, 0x00, 0x1b, 0x14, 0x00, 0x00, 0x00, 0x18, 0x00, 0x00, 0x00,
  0x01, 0x00, 0x00, 0x00, 0xea, 0xe6, 0xff, 0xff, 0x00, 0x00, 0x00, 0x01,
  0x01, 0x00, 0x00, 0x00, 0xfa, 0x00, 0x00, 0x00, 0x02, 0x00, 0x00, 0x00,
  0xf9, 0x00, 0x00, 0x00, 0x01, 0x00, 0x00, 0x00, 0x52, 0xe6, 0xff, 0xff,
  0x10, 0x00, 0x00, 0x00, 0x00, 0x00, 0x00, 0x01, 0x14, 0x00, 0x00, 0x00,
  0x18, 0x00, 0x00, 0x00, 0xe2, 0xe6, 0xff, 0xff, 0x01, 0x00, 0x00, 0x00,
  0x01, 0x00, 0x00, 0x00, 0x01, 0x00, 0x00, 0x00, 0xf9, 0x00, 0x00, 0x00,
  0x03, 0x00, 0x00, 0x00, 0xf8, 0x00, 0x00, 0x00, 0x0e, 0x00, 0x00, 0x00,
  0x0d, 0x00, 0x00, 0x00, 0x66, 0xe7, 0xff, 0xff, 0x14, 0x00, 0x00, 0x00,
  0x00, 0x00, 0x00, 0x0b, 0x14, 0x00, 0x00, 0x00, 0x18, 0x00, 0x00, 0x00,
  0x04, 0x00, 0x00, 0x00, 0x56, 0xe7, 0xff, 0xff, 0x00, 0x00, 0x00, 0x01,
  0x01, 0x00, 0x00, 0x00, 0xf8, 0x00, 0x00, 0x00, 0x02, 0x00, 0x00, 0x00,
  0xf7, 0x00, 0x00, 0x00, 0xec, 0x00, 0x00, 0x00, 0x9a, 0xe7, 0xff, 0xff,
  0x14, 0x00, 0x00, 0x00, 0x00, 0x00, 0x00, 0x0b, 0x10, 0x00, 0x00, 0x00,
  0x14, 0x00, 0x00, 0x00, 0x04, 0x00, 0x00, 0x00, 0x6c, 0xcc, 0xfe, 0xff,
  0x01, 0x00, 0x00, 0x00, 0xf7, 0x00, 0x00, 0x00, 0x02, 0x00, 0x00, 0x00,
  0xf6, 0x00, 0x00, 0x00, 0xed, 0x00, 0x00, 0x00, 0xee, 0xe6, 0xff, 0xff,
  0x10, 0x00, 0x00, 0x00, 0x00, 0x00, 0x00, 0x01, 0x18, 0x00, 0x00, 0x00,
  0x1c, 0x00, 0x00, 0x00, 0x56, 0xe9, 0xff, 0xff, 0x01, 0x00, 0x00, 0x00,
  0x01, 0x00, 0x00, 0x00, 0x00, 0x00, 0x00, 0x01, 0x01, 0x00, 0x00, 0x00,
  0xf6, 0x00, 0x00, 0x00, 0x03, 0x00, 0x00, 0x00, 0xf5, 0x00, 0x00, 0x00,
  0x0f, 0x00, 0x00, 0x00, 0x23, 0x00, 0x00, 0x00, 0x06, 0xe8, 0xff, 0xff,
  0x14, 0x00, 0x00, 0x00, 0x00, 0x00, 0x00, 0x15, 0x10, 0x00, 0x00, 0x00,
  0x14, 0x00, 0x00, 0x00, 0x03, 0x00, 0x00, 0x00, 0xd8, 0xcc, 0xfe, 0xff,
  0x01, 0x00, 0x00, 0x00, 0xf5, 0x00, 0x00, 0x00, 0x02, 0x00, 0x00, 0x00,
  0xf3, 0x00, 0x00, 0x00, 0xf4, 0x00, 0x00, 0x00, 0x9a, 0xe8, 0xff, 0xff,
  0x0c, 0x00, 0x00, 0x00, 0x10, 0x00, 0x00, 0x00, 0x02, 0x00, 0x00, 0x00,
  0x01, 0x00, 0x00, 0x00, 0xf4, 0x00, 0x00, 0x00, 0x01, 0x00, 0x00, 0x00,
  0xf3, 0x00, 0x00, 0x00, 0x56, 0xe8, 0xff, 0xff, 0x14, 0x00, 0x00, 0x00,
  0x00, 0x00, 0x00, 0x0b, 0x10, 0x00, 0x00, 0x00, 0x14, 0x00, 0x00, 0x00,
  0x04, 0x00, 0x00, 0x00, 0x28, 0xcd, 0xfe, 0xff, 0x01, 0x00, 0x00, 0x00,
  0xf3, 0x00, 0x00, 0x00, 0x02, 0x00, 0x00, 0x00, 0xf2, 0x00, 0x00, 0x00,
  0x10, 0x00, 0x00, 0x00, 0x86, 0xe8, 0xff, 0xff, 0x14, 0x00, 0x00, 0x00,
  0x00, 0x00, 0x00, 0x15, 0x10, 0x00, 0x00, 0x00, 0x14, 0x00, 0x00, 0x00,
  0x03, 0x00, 0x00, 0x00, 0x58, 0xcd, 0xfe, 0xff, 0x01, 0x00, 0x00, 0x00,
  0xf2, 0x00, 0x00, 0x00, 0x02, 0x00, 0x00, 0x00, 0xf1, 0x00, 0x00, 0x00,
  0x11, 0x00, 0x00, 0x00, 0xb6, 0xe8, 0xff, 0xff, 0x14, 0x00, 0x00, 0x00,
  0x00, 0x00, 0x00, 0x15, 0x10, 0x00, 0x00, 0x00, 0x14, 0x00, 0x00, 0x00,
  0x03, 0x00, 0x00, 0x00, 0x88, 0xcd, 0xfe, 0xff, 0x01, 0x00, 0x00, 0x00,
  0xf1, 0x00, 0x00, 0x00, 0x02, 0x00, 0x00, 0x00, 0xef, 0x00, 0x00, 0x00,
  0xf0, 0x00, 0x00, 0x00, 0x4a, 0xe9, 0xff, 0xff, 0x0c, 0x00, 0x00, 0x00,
  0x10, 0x00, 0x00, 0x00, 0x02, 0x00, 0x00, 0x00, 0x01, 0x00, 0x00, 0x00,
  0xf0, 0x00, 0x00, 0x00, 0x01, 0x00, 0x00, 0x00, 0xef, 0x00, 0x00, 0x00,
  0x2a, 0xe8, 0xff, 0xff, 0x10, 0x00, 0x00, 0x00, 0x00, 0x00, 0x00, 0x01,
  0x14, 0x00, 0x00, 0x00, 0x18, 0x00, 0x00, 0x00, 0xba, 0xe8, 0xff, 0xff,
  0x01, 0x00, 0x00, 0x00, 0x01, 0x00, 0x00, 0x00, 0x01, 0x00, 0x00, 0x00,
  0xef, 0x00, 0x00, 0x00, 0x03, 0x00, 0x00, 0x00, 0xee, 0x00, 0x00, 0x00,
  0x12, 0x00, 0x00, 0x00, 0x22, 0x00, 0x00, 0x00, 0x3e, 0xe9, 0xff, 0xff,
  0x14, 0x00, 0x00, 0x00, 0x00, 0x00, 0x00, 0x1b, 0x14, 0x00, 0x00, 0x00,
  0x18, 0x00, 0x00, 0x00, 0x01, 0x00, 0x00, 0x00, 0x2e, 0xe9, 0xff, 0xff,
  0x00, 0x00, 0x00, 0x01, 0x01, 0x00, 0x00, 0x00, 0xee, 0x00, 0x00, 0x00,
  0x02, 0x00, 0x00, 0x00, 0xed, 0x00, 0x00, 0x00, 0x01, 0x00, 0x00, 0x00,
  0x96, 0xe8, 0xff, 0xff, 0x10, 0x00, 0x00, 0x00, 0x00, 0x00, 0x00, 0x01,
  0x14, 0x00, 0x00, 0x00, 0x18, 0x00, 0x00, 0x00, 0x26, 0xe9, 0xff, 0xff,
  0x01, 0x00, 0x00, 0x00, 0x01, 0x00, 0x00, 0x00, 0x01, 0x00, 0x00, 0x00,
  0xed, 0x00, 0x00, 0x00, 0x03, 0x00, 0x00, 0x00, 0xec, 0x00, 0x00, 0x00,
  0x14, 0x00, 0x00, 0x00, 0x13, 0x00, 0x00, 0x00, 0xaa, 0xe9, 0xff, 0xff,
  0x14, 0x00, 0x00, 0x00, 0x00, 0x00, 0x00, 0x0b, 0x14, 0x00, 0x00, 0x00,
  0x18, 0x00, 0x00, 0x00, 0x04, 0x00, 0x00, 0x00, 0x9a, 0xe9, 0xff, 0xff,
  0x00, 0x00, 0x00, 0x01, 0x01, 0x00, 0x00, 0x00, 0xec, 0x00, 0x00, 0x00,
  0x02, 0x00, 0x00, 0x00, 0xeb, 0x00, 0x00, 0x00, 0xe0, 0x00, 0x00, 0x00,
  0xde, 0xe9, 0xff, 0xff, 0x14, 0x00, 0x00, 0x00, 0x00, 0x00, 0x00, 0x0b,
  0x10, 0x00, 0x00, 0x00, 0x14, 0x00, 0x00, 0x00, 0x04, 0x00, 0x00, 0x00,
  0xb0, 0xce, 0xfe, 0xff, 0x01, 0x00, 0x00, 0x00, 0xeb, 0x00, 0x00, 0x00,
  0x02, 0x00, 0x00, 0x00, 0xea, 0x00, 0x00, 0x00, 0xe1, 0x00, 0x00, 0x00,
  0x32, 0xe9, 0xff, 0xff, 0x10, 0x00, 0x00, 0x00, 0x00, 0x00, 0x00, 0x01,
  0x18, 0x00, 0x00, 0x00, 0x1c, 0x00, 0x00, 0x00, 0x9a, 0xeb, 0xff, 0xff,
  0x01, 0x00, 0x00, 0x00, 0x01, 0x00, 0x00, 0x00, 0x00, 0x00, 0x00, 0x01,
  0x01, 0x00, 0x00, 0x00, 0xea, 0x00, 0x00, 0x00, 0x03, 0x00, 0x00, 0x00,
  0xe9, 0x00, 0x00, 0x00, 0x15, 0x00, 0x00, 0x00, 0x21, 0x00, 0x00, 0x00,
  0x4a, 0xea, 0xff, 0xff, 0x14, 0x00, 0x00, 0x00, 0x00, 0x00, 0x00, 0x15,
  0x10, 0x00, 0x00, 0x00, 0x14, 0x00, 0x00, 0x00, 0x03, 0x00, 0x00, 0x00,
  0x1c, 0xcf, 0xfe, 0xff, 0x01, 0x00, 0x00, 0x00, 0xe9, 0x00, 0x00, 0x00,
  0x02, 0x00, 0x00, 0x00, 0xe7, 0x00, 0x00, 0x00, 0xe8, 0x00, 0x00, 0x00,
  0xde, 0xea, 0xff, 0xff, 0x0c, 0x00, 0x00, 0x00, 0x10, 0x00, 0x00, 0x00,
  0x02, 0x00, 0x00, 0x00, 0x01, 0x00, 0x00, 0x00, 0xe8, 0x00, 0x00, 0x00,
  0x01, 0x00, 0x00, 0x00, 0xe7, 0x00, 0x00, 0x00, 0x9a, 0xea, 0xff, 0xff,
  0x14, 0x00, 0x00, 0x00, 0x00, 0x00, 0x00, 0x0b, 0x10, 0x00, 0x00, 0x00,
  0x14, 0x00, 0x00, 0x00, 0x04, 0x00, 0x00, 0x00, 0x6c, 0xcf, 0xfe, 0xff,
  0x01, 0x00, 0x00, 0x00, 0xe7, 0x00, 0x00, 0x00, 0x02, 0x00, 0x00, 0x00,
  0xe6, 0x00, 0x00, 0x00, 0x16, 0x00, 0x00, 0x00, 0xca, 0xea, 0xff, 0xff,
  0x14, 0x00, 0x00, 0x00, 0x00, 0x00, 0x00, 0x15, 0x10, 0x00, 0x00, 0x00,
  0x14, 0x00, 0x00, 0x00, 0x03, 0x00, 0x00, 0x00, 0x9c, 0xcf, 0xfe, 0xff,
  0x01, 0x00, 0x00, 0x00, 0xe6, 0x00, 0x00, 0x00, 0x02, 0x00, 0x00, 0x00,
  0xe5, 0x00, 0x00, 0x00, 0x17, 0x00, 0x00, 0x00, 0xfa, 0xea, 0xff, 0xff,
  0x14, 0x00, 0x00, 0x00, 0x00, 0x00, 0x00, 0x15, 0x10, 0x00, 0x00, 0x00,
  0x14, 0x00, 0x00, 0x00, 0x03, 0x00, 0x00, 0x00, 0xcc, 0xcf, 0xfe, 0xff,
  0x01, 0x00, 0x00, 0x00, 0xe5, 0x00, 0x00, 0x00, 0x02, 0x00, 0x00, 0x00,
  0xe3, 0x00, 0x00, 0x00, 0xe4, 0x00, 0x00, 0x00, 0x8e, 0xeb, 0xff, 0xff,
  0x0c, 0x00, 0x00, 0x00, 0x10, 0x00, 0x00, 0x00, 0x02, 0x00, 0x00, 0x00,
  0x01, 0x00, 0x00, 0x00, 0xe4, 0x00, 0x00, 0x00, 0x01, 0x00, 0x00, 0x00,
  0xe3, 0x00, 0x00, 0x00, 0x6e, 0xea, 0xff, 0xff, 0x10, 0x00, 0x00, 0x00,
  0x00, 0x00, 0x00, 0x01, 0x14, 0x00, 0x00, 0x00, 0x18, 0x00, 0x00, 0x00,
  0xfe, 0xea, 0xff, 0xff, 0x01, 0x00, 0x00, 0x00, 0x01, 0x00, 0x00, 0x00,
  0x01, 0x00, 0x00, 0x00, 0xe3, 0x00, 0x00, 0x00, 0x03, 0x00, 0x00, 0x00,
  0xe2, 0x00, 0x00, 0x00, 0x18, 0x00, 0x00, 0x00, 0x20, 0x00, 0x00, 0x00,
  0x82, 0xeb, 0xff, 0xff, 0x14, 0x00, 0x00, 0x00, 0x00, 0x00, 0x00, 0x1b,
  0x14, 0x00, 0x00, 0x00, 0x18, 0x00, 0x00, 0x00, 0x01, 0x00, 0x00, 0x00,
  0x72, 0xeb, 0xff, 0xff, 0x00, 0x00, 0x00, 0x01, 0x01, 0x00, 0x00, 0x00,
  0xe2, 0x00, 0x00, 0x00, 0x02, 0x00, 0x00, 0x00, 0xe1, 0x00, 0x00, 0x00,
  0x01, 0x00, 0x00, 0x00, 0xda, 0xea, 0xff, 0xff, 0x10, 0x00, 0x00, 0x00,
  0x00, 0x00, 0x00, 0x01, 0x14, 0x00, 0x00, 0x00, 0x18, 0x00, 0x00, 0x00,
  0x6a, 0xeb, 0xff, 0xff, 0x01, 0x00, 0x00, 0x00, 0x01, 0x00, 0x00, 0x00,
  0x01, 0x00, 0x00, 0x00, 0xe1, 0x00, 0x00, 0x00, 0x03, 0x00, 0x00, 0x00,
  0xe0, 0x00, 0x00, 0x00, 0x1a, 0x00, 0x00, 0x00, 0x19, 0x00, 0x00, 0x00,
  0xee, 0xeb, 0xff, 0xff, 0x14, 0x00, 0x00, 0x00, 0x00, 0x00, 0x00, 0x0b,
  0x14, 0x00, 0x00, 0x00, 0x18, 0x00, 0x00, 0x00, 0x04, 0x00, 0x00, 0x00,
  0xde, 0xeb, 0xff, 0xff, 0x00, 0x00, 0x00, 0x01, 0x01, 0x00, 0x00, 0x00,
  0xe0, 0x00, 0x00, 0x00, 0x02, 0x00, 0x00, 0x00, 0xdf, 0x00, 0x00, 0x00,
  0xd6, 0x00, 0x00, 0x00, 0x46, 0xeb, 0xff, 0xff, 0x10, 0x00, 0x00, 0x00,
  0x00, 0x00, 0x00, 0x01, 0x18, 0x00, 0x00, 0x00, 0x1c, 0x00, 0x00, 0x00,
  0xae, 0xed, 0xff, 0xff, 0x01, 0x00, 0x00, 0x00, 0x01, 0x00, 0x00, 0x00,
  0x00, 0x00, 0x00, 0x01, 0x01, 0x00, 0x00, 0x00, 0xdf, 0x00, 0x00, 0x00,
  0x03, 0x00, 0x00, 0x00, 0xde, 0x00, 0x00, 0x00, 0x1b, 0x00, 0x00, 0x00,
  0x1f, 0x00, 0x00, 0x00, 0x5e, 0xec, 0xff, 0xff, 0x14, 0x00, 0x00, 0x00,
  0x00, 0x00, 0x00, 0x15, 0x10, 0x00, 0x00, 0x00, 0x14, 0x00, 0x00, 0x00,
  0x03, 0x00, 0x00, 0x00, 0x30, 0xd1, 0xfe, 0xff, 0x01, 0x00, 0x00, 0x00,
  0xde, 0x00, 0x00, 0x00, 0x02, 0x00, 0x00, 0x00, 0xdc, 0x00, 0x00, 0x00,
  0xdd, 0x00, 0x00, 0x00, 0xf2, 0xec, 0xff, 0xff, 0x0c, 0x00, 0x00, 0x00,
  0x10, 0x00, 0x00, 0x00, 0x02, 0x00, 0x00, 0x00, 0x01, 0x00, 0x00, 0x00,
  0xdd, 0x00, 0x00, 0x00, 0x01, 0x00, 0x00, 0x00, 0xdc, 0x00, 0x00, 0x00,
  0xae, 0xec, 0xff, 0xff, 0x14, 0x00, 0x00, 0x00, 0x00, 0x00, 0x00, 0x0b,
  0x10, 0x00, 0x00, 0x00, 0x14, 0x00, 0x00, 0x00, 0x04, 0x00, 0x00, 0x00,
  0x80, 0xd1, 0xfe, 0xff, 0x01, 0x00, 0x00, 0x00, 0xdc, 0x00, 0x00, 0x00,
  0x02, 0x00, 0x00, 0x00, 0xdb, 0x00, 0x00, 0x00, 0x1c, 0x00, 0x00, 0x00,
  0xde, 0xec, 0xff, 0xff, 0x14, 0x00, 0x00, 0x00, 0x00, 0x00, 0x00, 0x15,
  0x10, 0x00, 0x00, 0x00, 0x14, 0x00, 0x00, 0x00, 0x03, 0x00, 0x00, 0x00,
  0xb0, 0xd1, 0xfe, 0xff, 0x01, 0x00, 0x00, 0x00, 0xdb, 0x00, 0x00, 0x00,
  0x02, 0x00, 0x00, 0x00, 0xda, 0x00, 0x00, 0x00, 0x1d, 0x00, 0x00, 0x00,
  0x0e, 0xed, 0xff, 0xff, 0x14, 0x00, 0x00, 0x00, 0x00, 0x00, 0x00, 0x15,
  0x10, 0x00, 0x00, 0x00, 0x14, 0x00, 0x00, 0x00, 0x03, 0x00, 0x00, 0x00,
  0xe0, 0xd1, 0xfe, 0xff, 0x01, 0x00, 0x00, 0x00, 0xda, 0x00, 0x00, 0x00,
  0x02, 0x00, 0x00, 0x00, 0xd8, 0x00, 0x00, 0x00, 0xd9, 0x00, 0x00, 0x00,
  0xa2, 0xed, 0xff, 0xff, 0x0c, 0x00, 0x00, 0x00, 0x10, 0x00, 0x00, 0x00,
  0x02, 0x00, 0x00, 0x00, 0x01, 0x00, 0x00, 0x00, 0xd9, 0x00, 0x00, 0x00,
  0x01, 0x00, 0x00, 0x00, 0xd8, 0x00, 0x00, 0x00, 0x82, 0xec, 0xff, 0xff,
  0x10, 0x00, 0x00, 0x00, 0x00, 0x00, 0x00, 0x01, 0x14, 0x00, 0x00, 0x00,
  0x18, 0x00, 0x00, 0x00, 0x12, 0xed, 0xff, 0xff, 0x01, 0x00, 0x00, 0x00,
  0x01, 0x00, 0x00, 0x00, 0x01, 0x00, 0x00, 0x00, 0xd8, 0x00, 0x00, 0x00,
  0x03, 0x00, 0x00, 0x00, 0xd7, 0x00, 0x00, 0x00, 0x27, 0x00, 0x00, 0x00,
  0x1e, 0x00, 0x00, 0x00, 0x96, 0xed, 0xff, 0xff, 0x14, 0x00, 0x00, 0x00,
  0x00, 0x00, 0x00, 0x1b, 0x14, 0x00, 0x00, 0x00, 0x18, 0x00, 0x00, 0x00,
  0x01, 0x00, 0x00, 0x00, 0x86, 0xed, 0xff, 0xff, 0x00, 0x00, 0x00, 0x01,
  0x01, 0x00, 0x00, 0x00, 0xd7, 0x00, 0x00, 0x00, 0x02, 0x00, 0x00, 0x00,
  0xd6, 0x00, 0x00, 0x00, 0x01, 0x00, 0x00, 0x00, 0xee, 0xec, 0xff, 0xff,
  0x10, 0x00, 0x00, 0x00, 0x00, 0x00, 0x00, 0x01, 0x14, 0x00, 0x00, 0x00,
  0x18, 0x00, 0x00, 0x00, 0x7e, 0xed, 0xff, 0xff, 0x01, 0x00, 0x00, 0x00,
  0x01, 0x00, 0x00, 0x00, 0x01, 0x00, 0x00, 0x00, 0xd6, 0x00, 0x00, 0x00,
  0x03, 0x00, 0x00, 0x00, 0xd5, 0x00, 0x00, 0x00, 0x29, 0x00, 0x00, 0x00,
  0x28, 0x00, 0x00, 0x00, 0x26, 0xed, 0xff, 0xff, 0x10, 0x00, 0x00, 0x00,
  0x00, 0x00, 0x00, 0x01, 0x1c, 0x00, 0x00, 0x00, 0x20, 0x00, 0x00, 0x00,
  0x74, 0xed, 0xff, 0xff, 0x00, 0x00, 0x00, 0x01, 0x01, 0x00, 0x00, 0x00,
  0x01, 0x00, 0x00, 0x00, 0x00, 0x00, 0x00, 0x01, 0x01, 0x00, 0x00, 0x00,
  0xd5, 0x00, 0x00, 0x00, 0x03, 0x00, 0x00, 0x00, 0xd4, 0x00, 0x00, 0x00,
  0x2b, 0x00, 0x00, 0x00, 0x2a, 0x00, 0x00, 0x00, 0x42, 0xee, 0xff, 0xff,
  0x14, 0x00, 0x00, 0x00, 0x00, 0x00, 0x00, 0x0b, 0x14, 0x00, 0x00, 0x00,
  0x18, 0x00, 0x00, 0x00, 0x04, 0x00, 0x00, 0x00, 0x32, 0xee, 0xff, 0xff,
  0x00, 0x00, 0x00, 0x01, 0x01, 0x00, 0x00, 0x00, 0xd4, 0x00, 0x00, 0x00,
  0x02, 0x00, 0x00, 0x00, 0xd3, 0x00, 0x00, 0x00, 0xc8, 0x00, 0x00, 0x00,
  0x76, 0xee, 0xff, 0xff, 0x14, 0x00, 0x00, 0x00, 0x00, 0x00, 0x00, 0x0b,
  0x10, 0x00, 0x00, 0x00, 0x14, 0x00, 0x00, 0x00, 0x04, 0x00, 0x00, 0x00,
  0x48, 0xd3, 0xfe, 0xff, 0x01, 0x00, 0x00, 0x00, 0xd3, 0x00, 0x00, 0x00,
  0x02, 0x00, 0x00, 0x00, 0xd2, 0x00, 0x00, 0x00, 0xc9, 0x00, 0x00, 0x00,
  0xca, 0xed, 0xff, 0xff, 0x10, 0x00, 0x00, 0x00, 0x00, 0x00, 0x00, 0x01,
  0x18, 0x00, 0x00, 0x00, 0x1c, 0x00, 0x00, 0x00, 0x32, 0xf0, 0xff, 0xff,
  0x01, 0x00, 0x00, 0x00, 0x01, 0x00, 0x00, 0x00, 0x00, 0x00, 0x00, 0x01,
  0x01, 0x00, 0x00, 0x00, 0xd2, 0x00, 0x00, 0x00, 0x03, 0x00, 0x00, 0x00,
  0xd1, 0x00, 0x00, 0x00, 0x2c, 0x00, 0x00, 0x00, 0x48, 0x00, 0x00, 0x00,
  0xe2, 0xee, 0xff, 0xff, 0x14, 0x00, 0x00, 0x00, 0x00, 0x00, 0x00, 0x15,
  0x10, 0x00, 0x00, 0x00, 0x14, 0x00, 0x00, 0x00, 0x03, 0x00, 0x00, 0x00,
  0xb4, 0xd3, 0xfe, 0xff, 0x01, 0x00, 0x00, 0x00, 0xd1, 0x00, 0x00, 0x00,
  0x02, 0x00, 0x00, 0x00, 0xcf, 0x00, 0x00, 0x00, 0xd0, 0x00, 0x00, 0x00,
  0x76, 0xef, 0xff, 0xff, 0x0c, 0x00, 0x00, 0x00, 0x10, 0x00, 0x00, 0x00,
  0x02, 0x00, 0x00, 0x00, 0x01, 0x00, 0x00, 0x00, 0xd0, 0x00, 0x00, 0x00,
  0x01, 0x00, 0x00, 0x00, 0xcf, 0x00, 0x00, 0x00, 0x32, 0xef, 0xff, 0xff,
  0x14, 0x00, 0x00, 0x00, 0x00, 0x00, 0x00, 0x0b, 0x10, 0x00, 0x00, 0x00,
  0x14, 0x00, 0x00, 0x00, 0x04, 0x00, 0x00, 0x00, 0x04, 0xd4, 0xfe, 0xff,
  0x01, 0x00, 0x00, 0x00, 0xcf, 0x00, 0x00, 0x00, 0x02, 0x00, 0x00, 0x00,
  0xce, 0x00, 0x00, 0x00, 0x2d, 0x00, 0x00, 0x00, 0x62, 0xef, 0xff, 0xff,
  0x14, 0x00, 0x00, 0x00, 0x00, 0x00, 0x00, 0x15, 0x10, 0x00, 0x00, 0x00,
  0x14, 0x00, 0x00, 0x00, 0x03, 0x00, 0x00, 0x00, 0x34, 0xd4, 0xfe, 0xff,
  0x01, 0x00, 0x00, 0x00, 0xce, 0x00, 0x00, 0x00, 0x02, 0x00, 0x00, 0x00,
  0xcd, 0x00, 0x00, 0x00, 0x2e, 0x00, 0x00, 0x00, 0x92, 0xef, 0xff, 0xff,
  0x14, 0x00, 0x00, 0x00, 0x00, 0x00, 0x00, 0x15, 0x10, 0x00, 0x00, 0x00,
  0x14, 0x00, 0x00, 0x00, 0x03, 0x00, 0x00, 0x00, 0x64, 0xd4, 0xfe, 0xff,
  0x01, 0x00, 0x00, 0x00, 0xcd, 0x00, 0x00, 0x00, 0x02, 0x00, 0x00, 0x00,
  0xcb, 0x00, 0x00, 0x00, 0xcc, 0x00, 0x00, 0x00, 0x26, 0xf0, 0xff, 0xff,
  0x0c, 0x00, 0x00, 0x00, 0x10, 0x00, 0x00, 0x00, 0x02, 0x00, 0x00, 0x00,
  0x01, 0x00, 0x00, 0x00, 0xcc, 0x00, 0x00, 0x00, 0x01, 0x00, 0x00, 0x00,
  0xcb, 0x00, 0x00, 0x00, 0x06, 0xef, 0xff, 0xff, 0x10, 0x00, 0x00, 0x00,
  0x00, 0x00, 0x00, 0x01, 0x14, 0x00, 0x00, 0x00, 0x18, 0x00, 0x00, 0x00,
  0x96, 0xef, 0xff, 0xff, 0x01, 0x00, 0x00, 0x00, 0x01, 0x00, 0x00, 0x00,
  0x01, 0x00, 0x00, 0x00, 0xcb, 0x00, 0x00, 0x00, 0x03, 0x00, 0x00, 0x00,
  0xca, 0x00, 0x00, 0x00, 0x2f, 0x00, 0x00, 0x00, 0x47, 0x00, 0x00, 0x00,
  0x1a, 0xf0, 0xff, 0xff, 0x14, 0x00, 0x00, 0x00, 0x00, 0x00, 0x00, 0x1b,
  0x14, 0x00, 0x00, 0x00, 0x18, 0x00, 0x00, 0x00, 0x01, 0x00, 0x00, 0x00,
  0x0a, 0xf0, 0xff, 0xff, 0x00, 0x00, 0x00, 0x01, 0x01, 0x00, 0x00, 0x00,
  0xca, 0x00, 0x00, 0x00, 0x02, 0x00, 0x00, 0x00, 0xc9, 0x00, 0x00, 0x00,
  0x01, 0x00, 0x00, 0x00, 0x72, 0xef, 0xff, 0xff, 0x10, 0x00, 0x00, 0x00,
  0x00, 0x00, 0x00, 0x01, 0x14, 0x00, 0x00, 0x00, 0x18, 0x00, 0x00, 0x00,
  0x02, 0xf0, 0xff, 0xff, 0x01, 0x00, 0x00, 0x00, 0x01, 0x00, 0x00, 0x00,
  0x01, 0x00, 0x00, 0x00, 0xc9, 0x00, 0x00, 0x00, 0x03, 0x00, 0x00, 0x00,
  0xc8, 0x00, 0x00, 0x00, 0x31, 0x00, 0x00, 0x00, 0x30, 0x00, 0x00, 0x00,
  0x86, 0xf0, 0xff, 0xff, 0x14, 0x00, 0x00, 0x00, 0x00, 0x00, 0x00, 0x0b,
  0x14, 0x00, 0x00, 0x00, 0x18, 0x00, 0x00, 0x00, 0x04, 0x00, 0x00, 0x00,
  0x76, 0xf0, 0xff, 0xff, 0x00, 0x00, 0x00, 0x01, 0x01, 0x00, 0x00, 0x00,
  0xc8, 0x00, 0x00, 0x00, 0x02, 0x00, 0x00, 0x00, 0xc7, 0x00, 0x00, 0x00,
  0xbc, 0x00, 0x00, 0x00, 0xba, 0xf0, 0xff, 0xff, 0x14, 0x00, 0x00, 0x00,
  0x00, 0x00, 0x00, 0x0b, 0x10, 0x00, 0x00, 0x00, 0x14, 0x00, 0x00, 0x00,
  0x04, 0x00, 0x00, 0x00, 0x8c, 0xd5, 0xfe, 0xff, 0x01, 0x00, 0x00, 0x00,
  0xc7, 0x00, 0x00, 0x00, 0x02, 0x00, 0x00, 0x00, 0xc6, 0x00, 0x00, 0x00,
  0xbd, 0x00, 0x00, 0x00, 0x0e, 0xf0, 0xff, 0xff, 0x10, 0x00, 0x00, 0x00,
  0x00, 0x00, 0x00, 0x01, 0x18, 0x00, 0x00, 0x00, 0x1c, 0x00, 0x00, 0x00,
  0x76, 0xf2, 0xff, 0xff, 0x01, 0x00, 0x00, 0x00, 0x01, 0x00, 0x00, 0x00,
  0x00, 0x00, 0x00, 0x01, 0x01, 0x00, 0x00, 0x00, 0xc6, 0x00, 0x00, 0x00,
  0x03, 0x00, 0x00, 0x00, 0xc5, 0x00, 0x00, 0x00, 0x32, 0x00, 0x00, 0x00,
  0x46, 0x00, 0x00, 0x00, 0x26, 0xf1, 0xff, 0xff, 0x14, 0x00, 0x00, 0x00,
  0x00, 0x00, 0x00, 0x15, 0x10, 0x00, 0x00, 0x00, 0x14, 0x00, 0x00, 0x00,
  0x03, 0x00, 0x00, 0x00, 0xf8, 0xd5, 0xfe, 0xff, 0x01, 0x00, 0x00, 0x00,
  0xc5, 0x00, 0x00, 0x00, 0x02, 0x00, 0x00, 0x00, 0xc3, 0x00, 0x00, 0x00,
  0xc4, 0x00, 0x00, 0x00, 0xba, 0xf1, 0xff, 0xff, 0x0c, 0x00, 0x00, 0x00,
  0x10, 0x00, 0x00, 0x00, 0x02, 0x00, 0x00, 0x00, 0x01, 0x00, 0x00, 0x00,
  0xc4, 0x00, 0x00, 0x00, 0x01, 0x00, 0x00, 0x00, 0xc3, 0x00, 0x00, 0x00,
  0x76, 0xf1, 0xff, 0xff, 0x14, 0x00, 0x00, 0x00, 0x00, 0x00, 0x00, 0x0b,
  0x10, 0x00, 0x00, 0x00, 0x14, 0x00, 0x00, 0x00, 0x04, 0x00, 0x00, 0x00,
  0x48, 0xd6, 0xfe, 0xff, 0x01, 0x00, 0x00, 0x00, 0xc3, 0x00, 0x00, 0x00,
  0x02, 0x00, 0x00, 0x00, 0xc2, 0x00, 0x00, 0x00, 0x33, 0x00, 0x00, 0x00,
  0xa6, 0xf1, 0xff, 0xff, 0x14, 0x00, 0x00, 0x00, 0x00, 0x00, 0x00, 0x15,
  0x10, 0x00, 0x00, 0x00, 0x14, 0x00, 0x00, 0x00, 0x03, 0x00, 0x00, 0x00,
  0x78, 0xd6, 0xfe, 0xff, 0x01, 0x00, 0x00, 0x00, 0xc2, 0x00, 0x00, 0x00,
  0x02, 0x00, 0x00, 0x00, 0xc1, 0x00, 0x00, 0x00, 0x34, 0x00, 0x00, 0x00,
  0xd6, 0xf1, 0xff, 0xff, 0x14, 0x00, 0x00, 0x00, 0x00, 0x00, 0x00, 0x15,
  0x10, 0x00, 0x00, 0x00, 0x14, 0x00, 0x00, 0x00, 0x03, 0x00, 0x00, 0x00,
  0xa8, 0xd6, 0xfe, 0xff, 0x01, 0x00, 0x00, 0x00, 0xc1, 0x00, 0x00, 0x00,
  0x02, 0x00, 0x00, 0x00, 0xbf, 0x00, 0x00, 0x00, 0xc0, 0x00, 0x00, 0x00,
  0x6a, 0xf2, 0xff, 0xff, 0x0c, 0x00, 0x00, 0x00, 0x10, 0x00, 0x00, 0x00,
  0x02, 0x00, 0x00, 0x00, 0x01, 0x00, 0x00, 0x00, 0xc0, 0x00, 0x00, 0x00,
  0x01, 0x00, 0x00, 0x00, 0xbf, 0x00, 0x00, 0x00, 0x4a, 0xf1, 0xff, 0xff,
  0x10, 0x00, 0x00, 0x00, 0x00, 0x00, 0x00, 0x01, 0x14, 0x00, 0x00, 0x00,
  0x18, 0x00, 0x00, 0x00, 0xda, 0xf1, 0xff, 0xff, 0x01, 0x00, 0x00, 0x00,
  0x01, 0x00, 0x00, 0x00, 0x01, 0x00, 0x00, 0x00, 0xbf, 0x00, 0x00, 0x00,
  0x03, 0x00, 0x00, 0x00, 0xbe, 0x00, 0x00, 0x00, 0x35, 0x00, 0x00, 0x00,
  0x45, 0x00, 0x00, 0x00, 0x5e, 0xf2, 0xff, 0xff, 0x14, 0x00, 0x00, 0x00,
  0x00, 0x00, 0x00, 0x1b, 0x14, 0x00, 0x00, 0x00, 0x18, 0x00, 0x00, 0x00,
  0x01, 0x00, 0x00, 0x00, 0x4e, 0xf2, 0xff, 0xff, 0x00, 0x00, 0x00, 0x01,
