unsigned char _content_gsc_tflite_backup_quant_cluster_tflite[] = {
  0x20, 0x00, 0x00, 0x00, 0x54, 0x46, 0x4c, 0x33, 0x00, 0x00, 0x00, 0x00,
  0x14, 0x00, 0x20, 0x00, 0x1c, 0x00, 0x18, 0x00, 0x14, 0x00, 0x10, 0x00,
  0x0c, 0x00, 0x00, 0x00, 0x08, 0x00, 0x04, 0x00, 0x14, 0x00, 0x00, 0x00,
  0x1c, 0x00, 0x00, 0x00, 0x84, 0x00, 0x00, 0x00, 0xdc, 0x00, 0x00, 0x00,
  0x20, 0x74, 0x00, 0x00, 0x30, 0x74, 0x00, 0x00, 0xe0, 0xc7, 0x00, 0x00,
  0x03, 0x00, 0x00, 0x00, 0x01, 0x00, 0x00, 0x00, 0x04, 0x00, 0x00, 0x00,
  0xae, 0x8a, 0xff, 0xff, 0x0c, 0x00, 0x00, 0x00, 0x1c, 0x00, 0x00, 0x00,
  0x3c, 0x00, 0x00, 0x00, 0x0f, 0x00, 0x00, 0x00, 0x73, 0x65, 0x72, 0x76,
  0x69, 0x6e, 0x67, 0x5f, 0x64, 0x65, 0x66, 0x61, 0x75, 0x6c, 0x74, 0x00,
  0x01, 0x00, 0x00, 0x00, 0x04, 0x00, 0x00, 0x00, 0x98, 0xff, 0xff, 0xff,
  0x34, 0x00, 0x00, 0x00, 0x04, 0x00, 0x00, 0x00, 0x09, 0x00, 0x00, 0x00,
  0x73, 0x6f, 0x66, 0x74, 0x6d, 0x61, 0x78, 0x5f, 0x33, 0x00, 0x00, 0x00,
  0x01, 0x00, 0x00, 0x00, 0x04, 0x00, 0x00, 0x00, 0x8a, 0x8b, 0xff, 0xff,
  0x04, 0x00, 0x00, 0x00, 0x07, 0x00, 0x00, 0x00, 0x69, 0x6e, 0x70, 0x75,
  0x74, 0x5f, 0x34, 0x00, 0x02, 0x00, 0x00, 0x00, 0x34, 0x00, 0x00, 0x00,
  0x04, 0x00, 0x00, 0x00, 0xdc, 0xff, 0xff, 0xff, 0x37, 0x00, 0x00, 0x00,
  0x04, 0x00, 0x00, 0x00, 0x13, 0x00, 0x00, 0x00, 0x43, 0x4f, 0x4e, 0x56,
  0x45, 0x52, 0x53, 0x49, 0x4f, 0x4e, 0x5f, 0x4d, 0x45, 0x54, 0x41, 0x44,
  0x41, 0x54, 0x41, 0x00, 0x08, 0x00, 0x0c, 0x00, 0x08, 0x00, 0x04, 0x00,
  0x08, 0x00, 0x00, 0x00, 0x36, 0x00, 0x00, 0x00, 0x04, 0x00, 0x00, 0x00,
  0x13, 0x00, 0x00, 0x00, 0x6d, 0x69, 0x6e, 0x5f, 0x72, 0x75, 0x6e, 0x74,
  0x69, 0x6d, 0x65, 0x5f, 0x76, 0x65, 0x72, 0x73, 0x69, 0x6f, 0x6e, 0x00,
  0x38, 0x00, 0x00, 0x00, 0x40, 0x73, 0x00, 0x00, 0x38, 0x73, 0x00, 0x00,
  0x20, 0x73, 0x00, 0x00, 0x08, 0x73, 0x00, 0x00, 0xd8, 0x72, 0x00, 0x00,
  0xc8, 0x70, 0x00, 0x00, 0xb8, 0x6f, 0x00, 0x00, 0xa8, 0x4f, 0x00, 0x00,
  0x98, 0x4d, 0x00, 0x00, 0x88, 0x2d, 0x00, 0x00, 0x38, 0x2b, 0x00, 0x00,
  0x28, 0x2a, 0x00, 0x00, 0x18, 0x1a, 0x00, 0x00, 0x08, 0x19, 0x00, 0x00,
  0x00, 0x19, 0x00, 0x00, 0xb0, 0x16, 0x00, 0x00, 0xa0, 0x15, 0x00, 0x00,
  0x90, 0x0d, 0x00, 0x00, 0x60, 0x0c, 0x00, 0x00, 0xd0, 0x0b, 0x00, 0x00,
  0xc0, 0x07, 0x00, 0x00, 0x30, 0x07, 0x00, 0x00, 0x28, 0x07, 0x00, 0x00,
  0xf8, 0x05, 0x00, 0x00, 0x68, 0x05, 0x00, 0x00, 0x58, 0x03, 0x00, 0x00,
  0x08, 0x03, 0x00, 0x00, 0x68, 0x02, 0x00, 0x00, 0x18, 0x02, 0x00, 0x00,
  0xd8, 0x01, 0x00, 0x00, 0xac, 0x01, 0x00, 0x00, 0x90, 0x01, 0x00, 0x00,
  0x88, 0x01, 0x00, 0x00, 0x2c, 0x01, 0x00, 0x00, 0x24, 0x01, 0x00, 0x00,
  0x1c, 0x01, 0x00, 0x00, 0x14, 0x01, 0x00, 0x00, 0x0c, 0x01, 0x00, 0x00,
  0x04, 0x01, 0x00, 0x00, 0xfc, 0x00, 0x00, 0x00, 0xf4, 0x00, 0x00, 0x00,
  0xec, 0x00, 0x00, 0x00, 0xe4, 0x00, 0x00, 0x00, 0xdc, 0x00, 0x00, 0x00,
  0xd4, 0x00, 0x00, 0x00, 0xcc, 0x00, 0x00, 0x00, 0xc4, 0x00, 0x00, 0x00,
  0xbc, 0x00, 0x00, 0x00, 0xb4, 0x00, 0x00, 0x00, 0xac, 0x00, 0x00, 0x00,
  0xa4, 0x00, 0x00, 0x00, 0x9c, 0x00, 0x00, 0x00, 0x94, 0x00, 0x00, 0x00,
  0x8c, 0x00, 0x00, 0x00, 0x6c, 0x00, 0x00, 0x00, 0x04, 0x00, 0x00, 0x00,
  0xde, 0x8c, 0xff, 0xff, 0x04, 0x00, 0x00, 0x00, 0x58, 0x00, 0x00, 0x00,
  0x0c, 0x00, 0x00, 0x00, 0x08, 0x00, 0x0e, 0x00, 0x08, 0x00, 0x04, 0x00,
  0x08, 0x00, 0x00, 0x00, 0x10, 0x00, 0x00, 0x00, 0x28, 0x00, 0x00, 0x00,
  0x00, 0x00, 0x06, 0x00, 0x08, 0x00, 0x04, 0x00, 0x06, 0x00, 0x00, 0x00,
  0x04, 0x00, 0x00, 0x00, 0x01, 0x00, 0x00, 0x00, 0xeb, 0x03, 0x00, 0x00,
  0x00, 0x00, 0x0a, 0x00, 0x10, 0x00, 0x0c, 0x00, 0x08, 0x00, 0x04, 0x00,
  0x0a, 0x00, 0x00, 0x00, 0x02, 0x00, 0x00, 0x00, 0x02, 0x00, 0x00, 0x00,
  0x04, 0x00, 0x00, 0x00, 0x06, 0x00, 0x00, 0x00, 0x32, 0x2e, 0x31, 0x35,
  0x2e, 0x30, 0x00, 0x00, 0x42, 0x8d, 0xff, 0xff, 0x04, 0x00, 0x00, 0x00,
  0x10, 0x00, 0x00, 0x00, 0x32, 0x2e, 0x39, 0x2e, 0x30, 0x00, 0x00, 0x00,
  0x00, 0x00, 0x00, 0x00, 0x00, 0x00, 0x00, 0x00, 0x58, 0x3b, 0xff, 0xff,
  0x5c, 0x3b, 0xff, 0xff, 0x60, 0x3b, 0xff, 0xff, 0x64, 0x3b, 0xff, 0xff,
  0x68, 0x3b, 0xff, 0xff, 0x6c, 0x3b, 0xff, 0xff, 0x70, 0x3b, 0xff, 0xff,
  0x74, 0x3b, 0xff, 0xff, 0x78, 0x3b, 0xff, 0xff, 0x7c, 0x3b, 0xff, 0xff,
  0x80, 0x3b, 0xff, 0xff, 0x84, 0x3b, 0xff, 0xff, 0x88, 0x3b, 0xff, 0xff,
  0x8c, 0x3b, 0xff, 0xff, 0x90, 0x3b, 0xff, 0xff, 0x94, 0x3b, 0xff, 0xff,
  0x98, 0x3b, 0xff, 0xff, 0x9c, 0x3b, 0xff, 0xff, 0xa0, 0x3b, 0xff, 0xff,
  0xa4, 0x3b, 0xff, 0xff, 0xae, 0x8d, 0xff, 0xff, 0x04, 0x00, 0x00, 0x00,
  0x4b, 0x00, 0x00, 0x00, 0x2f, 0xdf, 0x1b, 0x43, 0x2f, 0x57, 0x07, 0x07,
  0x6b, 0x6b, 0x6b, 0xf3, 0x6b, 0x1b, 0x57, 0x2f, 0x1b, 0x7f, 0x07, 0x1b,
  0xf3, 0x1b, 0x2f, 0x57, 0xdf, 0x4b, 0x06, 0xd2, 0xd2, 0x4b, 0x4b, 0xd2,
  0x7f, 0xd2, 0x6e, 0x8d, 0x4b, 0xc1, 0x5c, 0xe4, 0x8d, 0xd2, 0xc1, 0x6e,
  0x5c, 0xc1, 0xb0, 0x06, 0x17, 0xc1, 0x05, 0xba, 0x14, 0xe7, 0x51, 0xc9,
  0x14, 0x24, 0xf6, 0x70, 0xe7, 0xab, 0xe7, 0x60, 0x7f, 0x24, 0xba, 0xf6,
  0x24, 0x33, 0x05, 0xe7, 0xf6, 0x14, 0xe7, 0x00, 0x00, 0x3c, 0xff, 0xff,
  0x0a, 0x8e, 0xff, 0xff, 0x04, 0x00, 0x00, 0x00, 0x0c, 0x00, 0x00, 0x00,
  0x00, 0x00, 0x00, 0x00, 0x00, 0x00, 0x00, 0x00, 0x00, 0x00, 0x00, 0x00,
  0x22, 0x8e, 0xff, 0xff, 0x04, 0x00, 0x00, 0x00, 0x1b, 0x00, 0x00, 0x00,
  0x7f, 0x49, 0x5b, 0x5b, 0x6d, 0xba, 0x84, 0x84, 0xa8, 0x14, 0x7f, 0x6d,
  0x49, 0x24, 0x24, 0x5b, 0xef, 0x84, 0x21, 0x62, 0x11, 0x11, 0xd1, 0x51,
  0xa1, 0x81, 0xd1, 0x00, 0x4a, 0x8e, 0xff, 0xff, 0x04, 0x00, 0x00, 0x00,
  0x30, 0x00, 0x00, 0x00, 0x7f, 0xc0, 0xf7, 0x74, 0x81, 0x50, 0xa4, 0x81,
  0xfa, 0x92, 0x81, 0x1c, 0x3c, 0x7f, 0xb5, 0x1c, 0x2e, 0x81, 0xae, 0x7f,
  0xf4, 0x9b, 0x7f, 0x7f, 0x7f, 0x4d, 0x5e, 0xf9, 0xd1, 0x81, 0x52, 0x25,
  0x7f, 0x7f, 0x49, 0x64, 0xb0, 0x99, 0x81, 0x7f, 0x31, 0x9b, 0x81, 0xd9,
  0x30, 0x7f, 0x52, 0x0e, 0x86, 0x8e, 0xff, 0xff, 0x04, 0x00, 0x00, 0x00,
  0x40, 0x00, 0x00, 0x00, 0xea, 0xfa, 0xff, 0xff, 0x0e, 0xfd, 0xff, 0xff,
  0x0a, 0x0a, 0x00, 0x00, 0xcd, 0x0d, 0x00, 0x00, 0x5e, 0xf6, 0xff, 0xff,
  0xcb, 0xfa, 0xff, 0xff, 0xc1, 0x03, 0x00, 0x00, 0x3c, 0x06, 0x00, 0x00,
  0xae, 0xf6, 0xff, 0xff, 0x88, 0xff, 0xff, 0xff, 0xb4, 0xfc, 0xff, 0xff,
  0x43, 0xf7, 0xff, 0xff, 0x16, 0x06, 0x00, 0x00, 0x11, 0xf7, 0xff, 0xff,
  0x60, 0x09, 0x00, 0x00, 0x22, 0xf5, 0xff, 0xff, 0xd2, 0x8e, 0xff, 0xff,
  0x04, 0x00, 0x00, 0x00, 0x90, 0x00, 0x00, 0x00, 0x15, 0x54, 0x96, 0x81,
  0xd4, 0x2a, 0x96, 0xeb, 0x15, 0x6c, 0x36, 0x93, 0x7f, 0xee, 0xee, 0x00,
  0x36, 0x36, 0x7f, 0xee, 0x36, 0x24, 0xee, 0x36, 0xdb, 0xee, 0xb7, 0x00,
  0xeb, 0xc0, 0xc0, 0xd4, 0xab, 0x2a, 0x15, 0x81, 0xa1, 0xbf, 0xe0, 0xe0,
  0xbf, 0x7e, 0x81, 0x00, 0x3f, 0x7f, 0x2b, 0xaa, 0x6b, 0x7f, 0xea, 0x6b,
  0x16, 0x40, 0xcc, 0xcc, 0xe6, 0x7f, 0x33, 0x00, 0x66, 0x33, 0xb3, 0x00,
  0x2a, 0xc0, 0x15, 0x96, 0x81, 0x40, 0xc0, 0xeb, 0x55, 0xbf, 0x95, 0xaa,
  0xd4, 0xd4, 0xea, 0xbf, 0x7f, 0x36, 0x00, 0xa5, 0x24, 0x00, 0x36, 0x00,
  0x7f, 0x5a, 0x36, 0x00, 0x81, 0x00, 0x48, 0xb7, 0xb7, 0x12, 0x36, 0xbe,
  0x20, 0x20, 0x00, 0x00, 0x7f, 0xe0, 0xe0, 0x60, 0x81, 0x40, 0x54, 0x00,
  0xc0, 0xeb, 0x2a, 0xc0, 0xc0, 0x54, 0x2a, 0x96, 0x40, 0xeb, 0x40, 0xc0,
  0xab, 0x81, 0x6a, 0x54, 0xab, 0xc0, 0x2a, 0x81, 0xab, 0x54, 0x2a, 0x3f,
  0x3f, 0x5e, 0x81, 0xf0, 0x10, 0xa1, 0xf0, 0xd0, 0x6e, 0x8f, 0xff, 0xff,
  0x04, 0x00, 0x00, 0x00, 0x40, 0x00, 0x00, 0x00, 0x00, 0x00, 0x00, 0x00,
  0x00, 0x00, 0x00, 0x00, 0x00, 0x00, 0x00, 0x00, 0x00, 0x00, 0x00, 0x00,
  0x00, 0x00, 0x00, 0x00, 0x00, 0x00, 0x00, 0x00, 0x00, 0x00, 0x00, 0x00,
  0x00, 0x00, 0x00, 0x00, 0x00, 0x00, 0x00, 0x00, 0x00, 0x00, 0x00, 0x00,
  0x00, 0x00, 0x00, 0x00, 0x00, 0x00, 0x00, 0x00, 0x00, 0x00, 0x00, 0x00,
  0x00, 0x00, 0x00, 0x00, 0x00, 0x00, 0x00, 0x00, 0x00, 0x00, 0x00, 0x00,
  0xba, 0x8f, 0xff, 0xff, 0x04, 0x00, 0x00, 0x00, 0x00, 0x02, 0x00, 0x00,
  0xba, 0x18, 0xf2, 0x3f, 0x81, 0x51, 0xf2, 0x94, 0x94, 0xba, 0x18, 0x3f,
  0x94, 0xf2, 0xf2, 0xba, 0x60, 0x32, 0xc8, 0xe6, 0x13, 0xd6, 0x13, 0x42,
  0x7f, 0x23, 0x6f, 0x05, 0xb8, 0x05, 0xe6, 0xf5, 0x06, 0x06, 0x2e, 0x7f,
  0xf2, 0xf2, 0x19, 0xb6, 0xa2, 0x8e, 0xf2, 0x42, 0x2e, 0x19, 0x6b, 0x6b,
  0x1e, 0xd7, 0xd7, 0xef, 0x07, 0x90, 0x7f, 0xef, 0x90, 0x37, 0xef, 0xd7,
  0x07, 0x37, 0xd7, 0xef, 0x18, 0xba, 0x3f, 0xdf, 0x51, 0xcc, 0xba, 0xdf,
  0xa7, 0xf2, 0x81, 0xba, 0x18, 0x3f, 0x2c, 0x2c, 0x3e, 0x81, 0x22, 0x9c,
  0x59, 0x81, 0x9c, 0xd1, 0x74, 0x9c, 0x74, 0x08, 0xed, 0x3e, 0x08, 0x3e,
  0x4f, 0xef, 0xa8, 0x1e, 0x4f, 0x1e, 0xbf, 0xbf, 0x07, 0x37, 0xa8, 0x37,
  0x7f, 0xa8, 0x37, 0xef, 0x2c, 0x81, 0x3f, 0x3f, 0x3f, 0x51, 0x3f, 0x06,
  0x3f, 0xdf, 0x3f, 0xba, 0xcc, 0xf2, 0x2c, 0xa7, 0x44, 0x25, 0x93, 0xcd,
  0xeb, 0x09, 0x62, 0x09, 0x44, 0x62, 0xb0, 0x7f, 0xb0, 0x62, 0x7f, 0x7f,
  0x42, 0x7f, 0xdd, 0x19, 0x19, 0xf2, 0xf2, 0x2e, 0x19, 0xdd, 0x06, 0xa2,
  0x6b, 0x7f, 0xf2, 0x19, 0xda, 0x4a, 0x33, 0x33, 0x60, 0x60, 0xf0, 0x97,
  0x33, 0x77, 0xad, 0x1c, 0x81, 0xad, 0x81, 0x97, 0x07, 0x1c, 0xad, 0x4a,
  0xda, 0xc3, 0x07, 0x4a, 0xc3, 0x60, 0x1c, 0x33, 0xad, 0x60, 0x81, 0x97,
  0xc3, 0xf0, 0x4a, 0x97, 0x1c, 0x81, 0x97, 0x77, 0x07, 0x77, 0x07, 0x07,
  0x33, 0x77, 0x60, 0x07, 0xc3, 0xf0, 0x81, 0xf0, 0xf0, 0x60, 0xc3, 0xda,
  0x97, 0x77, 0x60, 0x60, 0x60, 0xf0, 0x4a, 0x97, 0x19, 0x7f, 0x19, 0x8e,
  0x19, 0x6b, 0x42, 0xc9, 0x06, 0x06, 0x19, 0xb6, 0xdd, 0x42, 0xdd, 0x8e,
  0x2c, 0xdf, 0xdf, 0x2c, 0x06, 0xa7, 0xa7, 0x78, 0x3f, 0xf2, 0x2c, 0x78,
  0x65, 0x81, 0xf2, 0xf2, 0x97, 0x60, 0x81, 0xad, 0xc3, 0x81, 0xda, 0xc3,
  0xda, 0x4a, 0x4a, 0x07, 0x07, 0x77, 0x81, 0x97, 0x81, 0xdf, 0xf2, 0xcc,
  0x18, 0x06, 0xdf, 0x65, 0x81, 0xcc, 0x06, 0x2c, 0xa7, 0x06, 0x06, 0x06,
  0xa7, 0x94, 0xa7, 0x2c, 0x3f, 0xa7, 0xdf, 0x06, 0xf2, 0x06, 0x81, 0x2c,
  0xa7, 0xcc, 0x51, 0x06, 0x8e, 0x19, 0x2e, 0x42, 0x7f, 0xdd, 0xdd, 0x2e,
  0x6b, 0x19, 0x8e, 0x42, 0xc9, 0x06, 0x2e, 0x56, 0xad, 0xad, 0xc3, 0x33,
  0x60, 0x4a, 0xda, 0xad, 0x60, 0x77, 0x1c, 0x81, 0x07, 0x97, 0x33, 0x81,
  0x19, 0x19, 0x42, 0x42, 0xdd, 0x2e, 0xb6, 0x42, 0x7f, 0x6b, 0x42, 0x2e,
  0x42, 0x06, 0x42, 0xb6, 0x06, 0x06, 0xcc, 0xdf, 0x3f, 0xf2, 0x51, 0x2c,
  0xcc, 0xa7, 0x06, 0x2c, 0x3f, 0xf2, 0x18, 0x81, 0xa9, 0x7f, 0xf5, 0xd6,
  0x23, 0xc8, 0xb8, 0xc8, 0x13, 0x13, 0x23, 0x42, 0xb8, 0x13, 0xb8, 0xe6,
  0x19, 0x56, 0x06, 0xc9, 0x7f, 0xc9, 0x06, 0xc9, 0x42, 0xb6, 0x19, 0x06,
  0x56, 0x2e, 0x06, 0x19, 0x19, 0x56, 0xc9, 0xc9, 0x2e, 0x2e, 0xdd, 0xf2,
  0xb6, 0x56, 0x06, 0x7f, 0x56, 0x2e, 0x19, 0x6b, 0x19, 0xdd, 0xc9, 0x6b,
  0x06, 0x06, 0xf2, 0x42, 0x8e, 0x19, 0x7f, 0x7f, 0x06, 0xf2, 0x19, 0x8e,
  0x07, 0xd7, 0x37, 0x7f, 0xbf, 0xd7, 0x4f, 0x1e, 0xa8, 0xbf, 0xd7, 0x07,
  0xa8, 0x90, 0xef, 0x4f, 0x1e, 0xd7, 0xd7, 0xbf, 0xa8, 0x7f, 0x1e, 0xef,
  0x37, 0x67, 0x4f, 0x07, 0x1e, 0xd7, 0x67, 0x37, 0x81, 0x33, 0xda, 0x60,
  0xf0, 0x33, 0x81, 0x97, 0x33, 0x77, 0x33, 0x07, 0x33, 0x07, 0x77, 0xc3,
  0x56, 0xc9, 0x42, 0x19, 0x2e, 0x42, 0x8e, 0x2e, 0x19, 0xdd, 0x7f, 0x19,
  0x6b, 0x8e, 0x2e, 0xb6, 0xd7, 0x7f, 0x07, 0x67, 0xd7, 0x67, 0xbf, 0x37,
  0x90, 0xbf, 0xef, 0x90, 0xbf, 0xa8, 0x1e, 0xbf, 0xc6, 0x91, 0xff, 0xff,
  0x04, 0x00, 0x00, 0x00, 0x80, 0x00, 0x00, 0x00, 0xd7, 0xea, 0xff, 0xff,
  0xab, 0x0c, 0x00, 0x00, 0xba, 0x04, 0x00, 0x00, 0xf4, 0x08, 0x00, 0x00,
  0x78, 0x07, 0x00, 0x00, 0xd8, 0x1c, 0x00, 0x00, 0x99, 0xfe, 0xff, 0xff,
  0x59, 0x06, 0x00, 0x00, 0xd7, 0xfc, 0xff, 0xff, 0x9f, 0x0e, 0x00, 0x00,
  0x6c, 0xe5, 0xff, 0xff, 0xfd, 0x07, 0x00, 0x00, 0xdf, 0x0d, 0x00, 0x00,
  0x95, 0xeb, 0xff, 0xff, 0x8f, 0xea, 0xff, 0xff, 0x74, 0x12, 0x00, 0x00,
  0x02, 0xff, 0xff, 0xff, 0x5b, 0xfb, 0xff, 0xff, 0x71, 0x09, 0x00, 0x00,
  0x06, 0x06, 0x00, 0x00, 0x8e, 0xf7, 0xff, 0xff, 0x65, 0x00, 0x00, 0x00,
  0x49, 0x04, 0x00, 0x00, 0x6e, 0xf8, 0xff, 0xff, 0xd7, 0x08, 0x00, 0x00,
  0x69, 0xf2, 0xff, 0xff, 0xa2, 0x06, 0x00, 0x00, 0x78, 0x06, 0x00, 0x00,
  0x9d, 0xef, 0xff, 0xff, 0x1c, 0xf7, 0xff, 0xff, 0x79, 0x04, 0x00, 0x00,
  0xc6, 0xf3, 0xff, 0xff, 0x52, 0x92, 0xff, 0xff, 0x04, 0x00, 0x00, 0x00,
  0x20, 0x01, 0x00, 0x00, 0x7f, 0x7f, 0x39, 0x28, 0x16, 0x16, 0xe1, 0xbe,
  0xf3, 0x05, 0x4b, 0x05, 0x4b, 0x28, 0x5c, 0x7f, 0x28, 0x4b, 0xae, 0x81,
  0x07, 0x1c, 0xf0, 0xae, 0x73, 0x07, 0x48, 0x7f, 0x08, 0xee, 0xbf, 0x68,
  0x4f, 0x37, 0x1f, 0x1f, 0x9b, 0x73, 0x08, 0x9b, 0xd1, 0x58, 0xd1, 0x9b,
  0x81, 0x81, 0x81, 0x81, 0xd1, 0xec, 0x22, 0x3d, 0xec, 0x22, 0x1f, 0x7f,
  0x37, 0xa5, 0x1f, 0x4f, 0xd5, 0x1f, 0xd5, 0xd5, 0x4f, 0x4f, 0x1f, 0x4f,
  0xee, 0xee, 0x7f, 0x8d, 0x68, 0x1f, 0x68, 0x7f, 0x37, 0xbf, 0x4f, 0xee,
  0x4f, 0x09, 0x43, 0x61, 0x7f, 0x61, 0x09, 0xea, 0x26, 0xea, 0xa5, 0x2b,
  0xc4, 0xe7, 0x0b, 0x4d, 0x81, 0xc4, 0x4d, 0x1f, 0xee, 0x7f, 0xee, 0x68,
  0x4f, 0xee, 0x08, 0xd5, 0x9b, 0xd1, 0xb8, 0x22, 0xec, 0x22, 0xec, 0x81,
  0xb8, 0xec, 0x9b, 0xb8, 0xb8, 0x08, 0x81, 0x9b, 0x73, 0x22, 0x07, 0x5e,
  0x81, 0x73, 0xf0, 0xd9, 0x07, 0xf0, 0xae, 0x05, 0xb2, 0xd4, 0x25, 0xc2,
  0xe3, 0x36, 0xd4, 0x81, 0x26, 0x43, 0x7f, 0xcc, 0x7f, 0x61, 0x61, 0xea,
  0xea, 0x08, 0xb8, 0xb8, 0x3d, 0xec, 0x81, 0xb8, 0x73, 0x9b, 0x08, 0x9b,
  0x9b, 0xd1, 0xb8, 0x08, 0xec, 0xd1, 0x81, 0x08, 0x81, 0xb8, 0x9b, 0x08,
  0x3d, 0x81, 0xec, 0xb8, 0x37, 0x4f, 0xbf, 0x7f, 0x4f, 0x4f, 0xa5, 0x4f,
  0x68, 0x37, 0xee, 0x1f, 0xee, 0x7f, 0x68, 0xd5, 0x1f, 0x37, 0xb8, 0x08,
  0x3d, 0x81, 0x22, 0x58, 0x58, 0xd1, 0x3d, 0x48, 0xc5, 0x1c, 0x07, 0x81,
  0x32, 0xf0, 0xd9, 0xc5, 0xcc, 0x26, 0xcc, 0x7f, 0xea, 0xcc, 0xb1, 0xb1,
  0xcc, 0x08, 0xd1, 0xd1, 0xd1, 0xb8, 0x08, 0x81, 0x3d, 0xec, 0xc5, 0x07,
  0x48, 0x5e, 0x81, 0xae, 0x5e, 0xd9, 0xae, 0xca, 0x06, 0x1a, 0xb5, 0x1a,
  0x69, 0xdd, 0x06, 0x7f, 0x09, 0x43, 0x7f, 0xcc, 0x43, 0x91, 0x91, 0x43,
  0xcc, 0xa5, 0xd5, 0xd5, 0xd5, 0x4f, 0xd5, 0x7f, 0x08, 0x37, 0x7f, 0xee,
  0xd5, 0xd5, 0x68, 0xbf, 0x37, 0xee, 0x8d, 0xe1, 0x4b, 0x28, 0x39, 0x28,
  0xbe, 0x4b, 0x7f, 0x39, 0x78, 0x41, 0xff, 0xff, 0x82, 0x93, 0xff, 0xff,
  0x04, 0x00, 0x00, 0x00, 0x80, 0x00, 0x00, 0x00, 0x00, 0x00, 0x00, 0x00,
  0x00, 0x00, 0x00, 0x00, 0x00, 0x00, 0x00, 0x00, 0x00, 0x00, 0x00, 0x00,
  0x00, 0x00, 0x00, 0x00, 0x00, 0x00, 0x00, 0x00, 0x00, 0x00, 0x00, 0x00,
  0x00, 0x00, 0x00, 0x00, 0x00, 0x00, 0x00, 0x00, 0x00, 0x00, 0x00, 0x00,
  0x00, 0x00, 0x00, 0x00, 0x00, 0x00, 0x00, 0x00, 0x00, 0x00, 0x00, 0x00,
  0x00, 0x00, 0x00, 0x00, 0x00, 0x00, 0x00, 0x00, 0x00, 0x00, 0x00, 0x00,
  0x00, 0x00, 0x00, 0x00, 0x00, 0x00, 0x00, 0x00, 0x00, 0x00, 0x00, 0x00,
  0x00, 0x00, 0x00, 0x00, 0x00, 0x00, 0x00, 0x00, 0x00, 0x00, 0x00, 0x00,
  0x00, 0x00, 0x00, 0x00, 0x00, 0x00, 0x00, 0x00, 0x00, 0x00, 0x00, 0x00,
  0x00, 0x00, 0x00, 0x00, 0x00, 0x00, 0x00, 0x00, 0x00, 0x00, 0x00, 0x00,
  0x00, 0x00, 0x00, 0x00, 0x00, 0x00, 0x00, 0x00, 0x00, 0x00, 0x00, 0x00,
  0x00, 0x00, 0x00, 0x00, 0x0e, 0x94, 0xff, 0xff, 0x04, 0x00, 0x00, 0x00,
  0x00, 0x04, 0x00, 0x00, 0xda, 0xed, 0xc7, 0x11, 0x00, 0x48, 0x5b, 0x7f,
  0xed, 0x23, 0x23, 0xed, 0x00, 0x23, 0x00, 0xb5, 0x23, 0xb5, 0x35, 0xed,
  0xc7, 0x23, 0x00, 0xc7, 0xa3, 0x48, 0xc7, 0xda, 0x35, 0x7f, 0xc7, 0x35,
  0x35, 0x23, 0x23, 0xda, 0x11, 0xb5, 0x00, 0x5b, 0xc7, 0x7f, 0xa3, 0xb5,
  0xed, 0xed, 0x5b, 0x00, 0x48, 0x11, 0xed, 0x90, 0x35, 0x11, 0x23, 0x35,
  0xda, 0xed, 0xa3, 0xc7, 0x48, 0x11, 0xa3, 0xa3, 0x14, 0x14, 0x7f, 0x6a,
  0xd4, 0xea, 0x14, 0xea, 0xea, 0xea, 0x00, 0x54, 0xbe, 0xd4, 0xd4, 0xbe,
  0x00, 0x94, 0x94, 0xea, 0xea, 0x54, 0x54, 0xd4, 0x6a, 0x54, 0xea, 0x14,
  0xbe, 0x14, 0x29, 0xd4, 0x13, 0xaa, 0x96, 0x68, 0xea, 0x28, 0x96, 0x7c,
  0xea, 0xea, 0x00, 0x96, 0x00, 0x00, 0x3d, 0x13, 0x00, 0x68, 0x68, 0x28,
  0xc0, 0xc0, 0x81, 0x13, 0x13, 0xaa, 0x13, 0x28, 0xea, 0x13, 0x13, 0xaa,
  0xda, 0x00, 0x48, 0x5b, 0xa3, 0xda, 0x23, 0x35, 0x23, 0xb5, 0x48, 0xc7,
  0x23, 0x23, 0xed, 0x7f, 0x00, 0x48, 0xa3, 0x35, 0x5b, 0x00, 0xed, 0x48,
  0x11, 0xda, 0x11, 0x5b, 0xc7, 0xed, 0xda, 0x11, 0xea, 0xaa, 0x13, 0xc0,
  0xd5, 0xea, 0x28, 0xea, 0x3d, 0x68, 0x52, 0xaa, 0x81, 0xd5, 0x3d, 0x28,
  0xaa, 0xc0, 0x3d, 0x81, 0xd5, 0x28, 0x96, 0x3d, 0x3d, 0x00, 0x52, 0x00,
  0xea, 0x00, 0x00, 0xd5, 0xd5, 0xc0, 0x3d, 0x13, 0x7c, 0xea, 0x7c, 0xea,
  0x81, 0x28, 0x28, 0x3d, 0xd5, 0xaa, 0x00, 0xd5, 0xea, 0x3d, 0xc0, 0xea,
  0xea, 0xc0, 0x13, 0xaa, 0xea, 0x52, 0xc0, 0x96, 0x28, 0xea, 0xea, 0x13,
  0xea, 0xc0, 0xc0, 0x52, 0x3d, 0xd5, 0x96, 0x96, 0x13, 0x13, 0xea, 0x28,
  0x28, 0x13, 0x28, 0x00, 0x28, 0x13, 0x96, 0x52, 0x81, 0x81, 0x28, 0xc0,
  0xaa, 0xd5, 0x13, 0x00, 0x28, 0x00, 0xd5, 0x52, 0x7c, 0xc0, 0x52, 0x52,
  0x00, 0xea, 0xc0, 0xea, 0xc0, 0x68, 0x96, 0x13, 0x3d, 0xea, 0xc0, 0x13,
  0x13, 0xd5, 0x00, 0xd5, 0xd5, 0x68, 0x52, 0xd5, 0xd5, 0x7c, 0x13, 0x81,
  0x28, 0x3d, 0x3d, 0xea, 0x7c, 0x47, 0x23, 0x47, 0x00, 0x59, 0x23, 0xb6,
  0xed, 0x7c, 0x11, 0xc9, 0x59, 0x59, 0x34, 0x34, 0x23, 0xc9, 0x59, 0xed,
  0xdb, 0x47, 0x11, 0x81, 0xdb, 0x00, 0x6b, 0x23, 0xa5, 0xed, 0x6b, 0x47,
  0x00, 0x81, 0x68, 0x13, 0xd5, 0x96, 0xaa, 0x96, 0x00, 0x3d, 0x28, 0xd5,
  0x96, 0xea, 0xea, 0x3d, 0x81, 0x52, 0xd5, 0x3d, 0x52, 0x13, 0xea, 0x28,
  0xaa, 0xc0, 0x00, 0x00, 0x96, 0xaa, 0xd5, 0x52, 0xa3, 0x48, 0x23, 0xed,
  0x11, 0x11, 0x23, 0xed, 0x5b, 0x00, 0x90, 0x48, 0xb5, 0x90, 0xed, 0xda,
  0x23, 0x11, 0x48, 0x48, 0xda, 0x11, 0x48, 0x11, 0x23, 0xb5, 0x48, 0xed,
  0x11, 0x00, 0xed, 0x7f, 0x3f, 0xef, 0x3f, 0xdf, 0x0f, 0x00, 0x0f, 0x00,
  0xdf, 0xef, 0x2e, 0xdf, 0xcf, 0x00, 0x7f, 0x0f, 0xef, 0x2e, 0x1f, 0x2e,
  0xef, 0x0f, 0xdf, 0xcf, 0x0f, 0xef, 0x2e, 0x3f, 0x3f, 0x2e, 0x4f, 0x0f,
  0x48, 0xed, 0x11, 0xed, 0x00, 0xc7, 0x11, 0x23, 0x5b, 0xb5, 0xa3, 0x48,
  0x00, 0xed, 0x23, 0x5b, 0x90, 0xed, 0x7f, 0xed, 0x6d, 0x35, 0x35, 0xed,
  0x48, 0x11, 0x23, 0x00, 0xda, 0x35, 0xc7, 0x00, 0x00, 0x3d, 0xd5, 0xea,
  0xea, 0x28, 0xea, 0x00, 0x52, 0x28, 0x7c, 0x52, 0x52, 0xaa, 0x28, 0x13,
  0xea, 0xea, 0x00, 0xaa, 0x52, 0x68, 0x28, 0xd5, 0xd5, 0xd5, 0xc0, 0x13,
  0x13, 0xea, 0xaa, 0x81, 0xbe, 0xa8, 0xbe, 0x3e, 0x94, 0xa8, 0x29, 0xd4,
  0xbe, 0x94, 0xea, 0x3e, 0x94, 0xbe, 0xea, 0x00, 0x14, 0x00, 0x00, 0x14,
  0x6a, 0x7f, 0xa8, 0xd4, 0xea, 0x14, 0x14, 0xea, 0xea, 0x6a, 0xea, 0xd4,
  0xaa, 0x52, 0xc0, 0x28, 0x52, 0x52, 0x3d, 0xaa, 0x3d, 0xc0, 0x28, 0x3d,
  0x81, 0x52, 0x00, 0xea, 0x28, 0x68, 0x3d, 0x28, 0xc0, 0x28, 0x3d, 0xd5,
  0x28, 0x28, 0xaa, 0x13, 0xea, 0xea, 0x52, 0x00, 0x13, 0x96, 0xea, 0xd5,
  0xc0, 0x52, 0xea, 0xc0, 0x52, 0x13, 0x13, 0x00, 0x68, 0x28, 0xd5, 0x28,
  0x13, 0x13, 0x96, 0xaa, 0xea, 0x13, 0x28, 0xc0, 0x3d, 0x96, 0x3d, 0x96,
  0xc0, 0xaa, 0x13, 0x81, 0x00, 0x96, 0xc0, 0x3d, 0x3d, 0x68, 0xc0, 0xc0,
  0x00, 0xd5, 0xd5, 0x3d, 0xd5, 0xaa, 0x81, 0x13, 0x13, 0xaa, 0x28, 0x7c,
  0x3d, 0xd5, 0xaa, 0x68, 0xd5, 0x3d, 0x13, 0xea, 0xc0, 0x13, 0x28, 0x52,
  0x00, 0xc0, 0xc0, 0x3d, 0xaa, 0xaa, 0xea, 0xea, 0xea, 0x3d, 0x52, 0x13,
  0x13, 0x81, 0xc0, 0x13, 0xc0, 0x68, 0xd5, 0x00, 0x13, 0x68, 0xc0, 0x28,
  0xea, 0x3d, 0x96, 0xd5, 0x13, 0xea, 0x96, 0x00, 0x00, 0xb5, 0x23, 0xb5,
  0xed, 0xda, 0x00, 0xb5, 0x48, 0x90, 0x00, 0xa3, 0xda, 0x35, 0x00, 0xc7,
  0xed, 0x35, 0xed, 0xed, 0x11, 0xda, 0xda, 0x48, 0x23, 0xed, 0x90, 0x35,
  0x11, 0x7f, 0x90, 0xa3, 0xe6, 0x49, 0xb3, 0xff, 0xb3, 0x17, 0x7c, 0x17,
  0x63, 0x63, 0x30, 0xcd, 0x30, 0x99, 0xcd, 0x63, 0x99, 0x30, 0xe6, 0x49,
  0x7c, 0x30, 0x49, 0x49, 0x17, 0x63, 0xff, 0xff, 0x49, 0x81, 0x81, 0x17,
  0x28, 0x00, 0xc0, 0x7c, 0x28, 0x28, 0xd5, 0x28, 0x68, 0x00, 0x52, 0xc0,
  0x96, 0x3d, 0x28, 0x13, 0x81, 0x68, 0xd5, 0x3d, 0x00, 0x13, 0x13, 0x28,
  0x52, 0xea, 0xc0, 0xea, 0x7c, 0x28, 0x7c, 0xea, 0xed, 0xc7, 0xc7, 0xda,
  0xed, 0x6d, 0x5b, 0x00, 0x23, 0xda, 0x48, 0x00, 0xc7, 0xb5, 0xc7, 0x00,
  0x35, 0xda, 0xc7, 0xb5, 0xed, 0x48, 0x5b, 0xda, 0x23, 0x00, 0xc7, 0x7f,
  0xed, 0xc7, 0xc7, 0xc7, 0x90, 0x48, 0xc7, 0x5b, 0xa3, 0xb5, 0x00, 0xda,
  0x48, 0xb5, 0xed, 0x90, 0xed, 0xda, 0xc7, 0xda, 0x00, 0x48, 0xed, 0x35,
  0x7f, 0xb5, 0x23, 0x48, 0xda, 0x00, 0xed, 0x23, 0xb5, 0x23, 0x00, 0x35,
  0x11, 0x00, 0xed, 0xb5, 0x35, 0x11, 0x5b, 0xed, 0xb5, 0x23, 0x23, 0x00,
  0x35, 0x5b, 0x90, 0x00, 0x7f, 0xed, 0x35, 0xc7, 0x00, 0x35, 0xda, 0x48,
  0x48, 0x6d, 0x35, 0x35, 0xb5, 0x23, 0xb5, 0xb5, 0x48, 0xda, 0x11, 0xa3,
  0x48, 0xa3, 0xed, 0x6d, 0xc7, 0xed, 0x11, 0x23, 0x00, 0x35, 0x00, 0xda,
  0x11, 0x23, 0x00, 0x7f, 0x5b, 0x48, 0x11, 0x23, 0xed, 0x00, 0x11, 0x35,
  0x00, 0xda, 0x35, 0x00, 0x5b, 0xb5, 0xda, 0x00, 0x6d, 0x5b, 0xed, 0x00,
  0x48, 0x5b, 0xb5, 0xa3, 0x23, 0xc7, 0xed, 0x5b, 0x7f, 0x23, 0x48, 0xb5,
  0x35, 0x00, 0xed, 0xed, 0x23, 0x35, 0x23, 0x35, 0x90, 0x11, 0xa3, 0x11,
  0x28, 0x68, 0xaa, 0xea, 0xaa, 0xea, 0x52, 0x00, 0x96, 0x52, 0xea, 0x28,
  0x28, 0x96, 0x13, 0x00, 0xc0, 0x96, 0xd5, 0x00, 0x13, 0x13, 0x96, 0xd5,
  0x68, 0x68, 0x00, 0x81, 0x52, 0x28, 0x68, 0x7c, 0x00, 0xd5, 0x81, 0x81,
  0x68, 0x52, 0xc0, 0xea, 0x00, 0xc0, 0x28, 0xd5, 0x68, 0x00, 0xea, 0xaa,
  0x00, 0xd5, 0x28, 0x96, 0xd5, 0xea, 0x13, 0x96, 0x00, 0x00, 0xaa, 0x96,
  0xea, 0xd5, 0x3d, 0xea, 0x00, 0x94, 0xbe, 0x6a, 0x6a, 0x6a, 0x29, 0xbe,
  0xbe, 0x00, 0xea, 0x00, 0xd4, 0x54, 0x29, 0x54, 0xa8, 0x7f, 0x00, 0x3e,
  0x6a, 0x3e, 0x3e, 0x29, 0x29, 0x6a, 0x7f, 0x14, 0x94, 0x00, 0x00, 0xd4,
  0x00, 0x00, 0x47, 0x92, 0x11, 0xdb, 0x59, 0x00, 0x81, 0x00, 0x34, 0xb6,
  0xdb, 0xc9, 0xdb, 0x59, 0xed, 0xed, 0x59, 0x34, 0xa5, 0x23, 0xed, 0x11,
  0x00, 0xb6, 0x34, 0x11, 0xdb, 0x47, 0xc9, 0x59, 0x1a, 0x98, 0xff, 0xff,
  0x04, 0x00, 0x00, 0x00, 0x80, 0x00, 0x00, 0x00, 0x05, 0xfb, 0xff, 0xff,
  0x4a, 0xf2, 0xff, 0xff, 0xd6, 0xee, 0xff, 0xff, 0x63, 0x14, 0x00, 0x00,
  0x9b, 0xfd, 0xff, 0xff, 0x1f, 0x07, 0x00, 0x00, 0xa5, 0x05, 0x00, 0x00,
  0x42, 0x06, 0x00, 0x00, 0x5b, 0xfc, 0xff, 0xff, 0xba, 0xf8, 0xff, 0xff,
  0x1d, 0x02, 0x00, 0x00, 0x70, 0xef, 0xff, 0xff, 0x98, 0x05, 0x00, 0x00,
  0x9e, 0xff, 0xff, 0xff, 0x7f, 0xf2, 0xff, 0xff, 0xd7, 0xf8, 0xff, 0xff,
  0x2a, 0x04, 0x00, 0x00, 0xe9, 0x08, 0x00, 0x00, 0xc7, 0x05, 0x00, 0x00,
  0xa2, 0xfa, 0xff, 0xff, 0x63, 0x0d, 0x00, 0x00, 0xfa, 0xf5, 0xff, 0xff,
  0x92, 0x01, 0x00, 0x00, 0x12, 0xf9, 0xff, 0xff, 0xc0, 0xf0, 0xff, 0xff,
  0xff, 0x0f, 0x00, 0x00, 0x4e, 0x01, 0x00, 0x00, 0x32, 0x02, 0x00, 0x00,
  0xea, 0xea, 0xff, 0xff, 0x58, 0x10, 0x00, 0x00, 0x24, 0x17, 0x00, 0x00,
  0xfa, 0x09, 0x00, 0x00, 0xa6, 0x98, 0xff, 0xff, 0x04, 0x00, 0x00, 0x00,
  0x20, 0x01, 0x00, 0x00, 0x6a, 0xee, 0xee, 0xd9, 0x56, 0xee, 0x6a, 0x2c,
  0x7f, 0x2c, 0x9b, 0x9b, 0x18, 0x6a, 0x7f, 0x6a, 0x6a, 0xaf, 0x67, 0x7f,
  0xb7, 0xd1, 0xea, 0xea, 0x9e, 0xd1, 0x34, 0x2d, 0xed, 0x19, 0xc1, 0xc1,
  0xac, 0x2d, 0xc1, 0x81, 0xd1, 0x34, 0x7f, 0x03, 0x87, 0x7f, 0x9e, 0x03,
  0xea, 0x43, 0x2d, 0x81, 0x02, 0x19, 0xed, 0x2d, 0x43, 0xd7, 0x56, 0x41,
  0x02, 0x56, 0x18, 0x41, 0xd9, 0xd9, 0x7f, 0xc1, 0xed, 0xed, 0x19, 0x81,
  0xed, 0x43, 0x02, 0x2d, 0xc1, 0x32, 0x42, 0x81, 0x02, 0xc1, 0x22, 0x63,
  0x52, 0x7f, 0x02, 0x41, 0x6a, 0x41, 0x2c, 0x9b, 0x18, 0xee, 0xed, 0x43,
  0x19, 0x81, 0xac, 0xed, 0x59, 0xac, 0x6e, 0xac, 0x19, 0x43, 0xed, 0xc1,
  0x43, 0x59, 0x81, 0x81, 0xd1, 0xd1, 0x67, 0xea, 0x34, 0x03, 0x7f, 0x03,
  0x03, 0x6e, 0xed, 0xc1, 0x6e, 0xd7, 0x81, 0x02, 0x2d, 0x6e, 0x7f, 0xe5,
  0x23, 0x7f, 0x23, 0x04, 0x23, 0x23, 0xe5, 0x81, 0x19, 0x02, 0x98, 0x6e,
  0x6e, 0x43, 0xd7, 0xc1, 0xb3, 0xb3, 0x1e, 0x03, 0xe9, 0xe9, 0x9a, 0x81,
  0x81, 0x4e, 0xb7, 0x4e, 0x67, 0x7f, 0x7f, 0xea, 0xb7, 0xb7, 0xaf, 0x56,
  0x85, 0x7f, 0x6a, 0xee, 0xee, 0x41, 0x9b, 0xea, 0xd1, 0x67, 0x03, 0x87,
  0x7f, 0xea, 0x34, 0x4e, 0x9e, 0xd1, 0x67, 0xea, 0x67, 0x1c, 0xd1, 0x7f,
  0xea, 0x87, 0xc6, 0x23, 0x04, 0x41, 0x7f, 0xe5, 0x60, 0x7f, 0x34, 0x9e,
  0xea, 0x7f, 0xb7, 0x67, 0x9e, 0xb7, 0x1c, 0x02, 0x3a, 0x93, 0x02, 0xf0,
  0x81, 0x3a, 0xf0, 0x81, 0x26, 0xa9, 0x02, 0x7f, 0x5b, 0x02, 0xcc, 0x38,
  0xde, 0x7f, 0x02, 0x18, 0x56, 0xc3, 0xc3, 0x02, 0xaf, 0x41, 0xea, 0x9e,
  0x9e, 0x7f, 0xd1, 0x34, 0x1c, 0x34, 0xb7, 0xac, 0x59, 0x43, 0x81, 0x19,
  0xed, 0xd7, 0xed, 0xac, 0x41, 0x41, 0x9b, 0x02, 0x02, 0x7f, 0x56, 0x7f,
  0x02, 0x56, 0x9b, 0x41, 0x9b, 0x7f, 0x56, 0xee, 0x56, 0x56, 0x56, 0xc3,
  0xc3, 0x02, 0x41, 0xd9, 0xee, 0x7f, 0x9b, 0x9a, 0xcf, 0xe9, 0xb3, 0xe9,
  0xcf, 0x03, 0x37, 0x81, 0xd2, 0x99, 0xff, 0xff, 0x04, 0x00, 0x00, 0x00,
  0x00, 0x08, 0x00, 0x00, 0x3e, 0x13, 0x13, 0x3e, 0x7f, 0x54, 0xfd, 0x29,
  0x13, 0x54, 0x3e, 0xfd, 0x3e, 0xe8, 0x29, 0x54, 0xe8, 0x54, 0x29, 0x54,
  0xd2, 0xd2, 0x54, 0xfd, 0x54, 0x54, 0x54, 0x13, 0xbe, 0x29, 0x13, 0xbe,
  0xe8, 0xd2, 0x7f, 0xd2, 0xbe, 0xd2, 0xbe, 0x3e, 0xfd, 0x29, 0xfd, 0x54,
  0xd2, 0x3e, 0x6a, 0x6a, 0xfd, 0x13, 0x13, 0x13, 0x6a, 0xe8, 0x3e, 0xbe,
  0x29, 0xa7, 0xa7, 0x29, 0xfd, 0x6a, 0x3e, 0x54, 0xd2, 0xe8, 0x3e, 0xa7,
  0x13, 0x13, 0xe8, 0x54, 0x7f, 0x54, 0x3e, 0x7f, 0x54, 0xfd, 0xe8, 0xe8,
  0xd2, 0xbe, 0x29, 0xbe, 0xfd, 0x13, 0x3e, 0x54, 0x3e, 0x54, 0x13, 0xbe,
  0x3e, 0x7f, 0xe8, 0x54, 0xb3, 0x16, 0x2f, 0xcb, 0x48, 0xfd, 0x7a, 0x16,
  0x48, 0xcb, 0x61, 0xfd, 0xcb, 0x81, 0xfd, 0x2f, 0xe4, 0xfd, 0xfd, 0xe4,
  0x16, 0x99, 0x48, 0xfd, 0x2f, 0x81, 0xb3, 0xcb, 0x61, 0x2f, 0x61, 0xb3,
  0xa7, 0x54, 0x29, 0x13, 0xa7, 0xfd, 0xa7, 0x7f, 0x29, 0xa7, 0xbe, 0x13,
  0xfd, 0x92, 0x13, 0xa7, 0xe8, 0xe8, 0xe8, 0x29, 0x3e, 0x54, 0xfd, 0xd2,
  0x29, 0x54, 0xfd, 0x13, 0x29, 0xbe, 0xe8, 0x3e, 0x13, 0x3e, 0x92, 0xd2,
  0xd2, 0xa7, 0x29, 0xa7, 0x29, 0xe8, 0x92, 0xd2, 0x54, 0xbe, 0xd2, 0x13,
  0x7f, 0x13, 0x13, 0xd2, 0xd2, 0xa7, 0x3e, 0xe8, 0xbe, 0xd2, 0xd2, 0x29,
  0x3e, 0x13, 0x13, 0x7f, 0xe8, 0xd2, 0xd2, 0xfd, 0x3e, 0xfd, 0x3e, 0xa7,
  0x54, 0x6a, 0xa7, 0xa7, 0xfd, 0xfd, 0x54, 0xfd, 0x29, 0x13, 0x54, 0x7f,
  0x13, 0x54, 0x13, 0x3e, 0xa7, 0x54, 0xe8, 0x13, 0xd2, 0xd2, 0x29, 0xd2,
  0x3e, 0xfd, 0xfd, 0x29, 0x6a, 0xd2, 0x13, 0xe8, 0xa7, 0x54, 0x13, 0xfd,
  0x29, 0x7f, 0x3e, 0x54, 0x29, 0xa7, 0x7f, 0xbe, 0x6a, 0xbe, 0x54, 0xe8,
  0x6a, 0xd2, 0xfd, 0xfd, 0x7f, 0x54, 0xd2, 0x13, 0x48, 0xc8, 0xc8, 0x7f,
  0xd9, 0xb4, 0x10, 0x6c, 0x5a, 0x23, 0xc8, 0x8f, 0xd9, 0xd9, 0xc8, 0xfd,
  0xfd, 0x35, 0xd9, 0xc8, 0xfd, 0xb4, 0x48, 0xfd, 0xec, 0xc8, 0x23, 0x23,
  0xd9, 0x5a, 0xfd, 0x6c, 0x31, 0xb0, 0x65, 0x7f, 0xe3, 0x17, 0xe3, 0x65,
  0xfc, 0xfc, 0xfc, 0x31, 0xfc, 0xe3, 0xb0, 0x31, 0xb0, 0x17, 0x7f, 0x17,
  0x31, 0x95, 0x95, 0x17, 0xe3, 0xb0, 0x4b, 0x65, 0xb0, 0x31, 0x31, 0x65,
  0x48, 0x10, 0xfd, 0xb4, 0xd9, 0xd9, 0xd9, 0x23, 0xfd, 0x8f, 0x10, 0xfd,
  0x7f, 0x8f, 0x23, 0xec, 0x10, 0xa2, 0x8f, 0x48, 0xfd, 0x48, 0x23, 0x35,
  0xd9, 0x6c, 0xd9, 0xec, 0xb4, 0xa2, 0xc8, 0xb4, 0xd2, 0x29, 0xd2, 0x7f,
  0xd2, 0x13, 0x54, 0xbe, 0x13, 0xfd, 0x54, 0x29, 0x92, 0xbe, 0x54, 0xbe,
  0x54, 0xfd, 0x29, 0x92, 0x29, 0xe8, 0x3e, 0x29, 0xbe, 0x54, 0x29, 0x7f,
  0x6a, 0x54, 0xe8, 0x6a, 0xa2, 0xa2, 0xc8, 0xec, 0x35, 0xc8, 0x23, 0xec,
  0xfd, 0x6c, 0x23, 0x5a, 0xb4, 0xd9, 0x23, 0xb4, 0x7f, 0xfd, 0xd9, 0x10,
  0xb4, 0x35, 0xc8, 0x23, 0xfd, 0xec, 0xd9, 0x10, 0xd9, 0x35, 0xd9, 0x10,
  0x1e, 0x0e, 0x0e, 0xde, 0xee, 0x3f, 0xbe, 0x1e, 0x9d, 0xee, 0x3f, 0xcf,
  0xee, 0x7f, 0x1e, 0xae, 0x2f, 0x1e, 0x2f, 0x1e, 0xde, 0xfe, 0xee, 0x2f,
  0xee, 0x1e, 0xee, 0x1e, 0xee, 0xcf, 0xde, 0x1e, 0x92, 0x3e, 0xd2, 0xfd,
  0x7f, 0x29, 0xa7, 0xa7, 0xfd, 0x54, 0x54, 0xfd, 0x3e, 0xa7, 0x3e, 0xd2,
  0xd2, 0x3e, 0x3e, 0xfd, 0x6a, 0x7f, 0xd2, 0xa7, 0x6a, 0xd2, 0x29, 0x54,
  0xe8, 0xbe, 0xa7, 0x3e, 0xfc, 0xb0, 0x17, 0xb0, 0x7f, 0xe3, 0x31, 0xfc,
  0xe3, 0x65, 0x95, 0xe3, 0xfc, 0x17, 0x4b, 0x31, 0x31, 0xe3, 0x95, 0x7f,
  0x65, 0x95, 0xfc, 0xfc, 0x31, 0xfc, 0x17, 0xb0, 0x65, 0x31, 0x17, 0x95,
  0x29, 0xd2, 0xe8, 0x7f, 0xfd, 0x13, 0xe8, 0xd2, 0x13, 0xfd, 0x54, 0xfd,
  0x3e, 0xd2, 0x6a, 0x29, 0xd2, 0x29, 0xe8, 0x13, 0x3e, 0xbe, 0x6a, 0x13,
  0xe8, 0x92, 0xe8, 0x7f, 0xa7, 0x3e, 0xe8, 0xe8, 0x27, 0x12, 0x3c, 0xe9,
  0xd4, 0x3c, 0x65, 0x27, 0xd4, 0x65, 0xab, 0x27, 0x3c, 0x27, 0xfd, 0xab,
  0x81, 0xab, 0xd4, 0xab, 0x27, 0xe9, 0xfd, 0xd4, 0x27, 0xd4, 0xd4, 0x3c,
  0xfd, 0xe9, 0xe9, 0x7a, 0xfd, 0x27, 0x65, 0xc0, 0x96, 0x65, 0x96, 0x12,
  0xfd, 0x51, 0xd4, 0xe9, 0xe9, 0x51, 0xfd, 0x81, 0xab, 0x96, 0x3c, 0xfd,
  0xd4, 0xd4, 0xe9, 0x27, 0xab, 0x3c, 0xd4, 0xe9, 0xab, 0x65, 0x3c, 0xd4,
  0xd4, 0xab, 0xc0, 0x51, 0xd4, 0xe9, 0x81, 0x3c, 0x51, 0xfd, 0x12, 0x3c,
  0xc0, 0x65, 0x65, 0x12, 0xc0, 0xe9, 0x51, 0x51, 0xfd, 0x96, 0x27, 0x12,
  0x96, 0xc0, 0x51, 0x3c, 0x51, 0x3c, 0xd4, 0x12, 0x29, 0x92, 0x92, 0xbe,
  0xbe, 0x3e, 0x92, 0x7f, 0x6a, 0x3e, 0x13, 0x3e, 0x54, 0x13, 0x6a, 0xe8,
  0x92, 0xfd, 0xfd, 0xe8, 0x3e, 0x3e, 0x54, 0x3e, 0xfd, 0xe8, 0xfd, 0x3e,
  0x6a, 0x13, 0x29, 0x6a, 0xe4, 0x61, 0x61, 0xb3, 0x81, 0xe4, 0x7a, 0xb3,
  0xcb, 0xb3, 0xe4, 0x48, 0x81, 0xcb, 0x16, 0x48, 0x16, 0x16, 0xfd, 0x48,
  0xcb, 0x7a, 0x48, 0xfd, 0x99, 0xe4, 0x99, 0x7a, 0x48, 0xfd, 0xcb, 0x99,
  0x3f, 0xbe, 0xbe, 0xae, 0x1e, 0x2f, 0x0e, 0x4f, 0xde, 0xcf, 0xae, 0xee,
  0x4f, 0xfe, 0x6f, 0xcf, 0x1e, 0x1e, 0xcf, 0xfe, 0x1e, 0xfe, 0xde, 0xfe,
  0x1e, 0xfe, 0x7f, 0xcf, 0x3f, 0x2f, 0x5f, 0xde, 0x2f, 0xfd, 0xfd, 0xfd,
  0x48, 0xfd, 0x2f, 0xcb, 0x48, 0x81, 0xfd, 0xb3, 0x16, 0x48, 0xe4, 0x16,
  0x7a, 0xe4, 0xfd, 0x2f, 0x16, 0x61, 0xb3, 0x2f, 0xfd, 0x61, 0x99, 0xfd,
  0x99, 0xcb, 0xe4, 0x48, 0xfd, 0xab, 0xd4, 0x27, 0x3c, 0xab, 0x3c, 0xd4,
  0x12, 0xc0, 0x81, 0xe9, 0xab, 0x51, 0x12, 0x12, 0x65, 0x3c, 0x7a, 0xc0,
  0xab, 0xc0, 0x27, 0x7a, 0x51, 0xc0, 0x27, 0xd4, 0x3c, 0x3c, 0x12, 0x27,
  0xc0, 0xe9, 0xd4, 0x27, 0xfd, 0x12, 0x12, 0x51, 0x7a, 0x65, 0x27, 0x12,
  0xfd, 0xe9, 0xe9, 0x81, 0x3c, 0x12, 0xc0, 0xe9, 0xe9, 0xe9, 0x27, 0x51,
  0xfd, 0x65, 0x3c, 0xe9, 0x65, 0xab, 0x3c, 0xc0, 0xe9, 0x12, 0x51, 0xd4,
  0x12, 0x27, 0x51, 0x12, 0x3c, 0x12, 0xc0, 0x12, 0x27, 0xe9, 0x3c, 0xe9,
  0xab, 0xe9, 0xfd, 0xd4, 0xab, 0xe9, 0xfd, 0x96, 0xd4, 0xc0, 0x3c, 0x81,
  0x27, 0x3c, 0x27, 0x65, 0xe9, 0x51, 0x12, 0x81, 0x51, 0x65, 0xe9, 0xab,
  0x96, 0xab, 0x12, 0xc0, 0xd4, 0xc0, 0xd4, 0x27, 0xd4, 0xab, 0xe9, 0x3c,
  0x12, 0x51, 0x96, 0xfd, 0x27, 0x12, 0x96, 0xd4, 0x3c, 0xab, 0x81, 0xab,
  0x51, 0xc0, 0xab, 0x27, 0xfd, 0x3c, 0xe9, 0x12, 0x96, 0x96, 0xfd, 0x96,
  0x27, 0xc0, 0x51, 0xc0, 0xe9, 0xe9, 0xfd, 0xd4, 0xe9, 0x27, 0x81, 0xd4,
  0xc0, 0x27, 0xe9, 0x27, 0xab, 0xc0, 0x27, 0xab, 0xc8, 0x5a, 0x7f, 0xec,
  0xec, 0xb4, 0xfd, 0x8f, 0xfd, 0x23, 0xd9, 0xd9, 0x23, 0xfd, 0xec, 0xa2,
  0x48, 0xd9, 0xfd, 0x10, 0xd9, 0xd9, 0x10, 0xfd, 0x5a, 0x48, 0x10, 0xfd,
  0xa2, 0xd9, 0xfd, 0x48, 0xe9, 0xc0, 0xd4, 0xd4, 0xd4, 0xfd, 0xc0, 0xc0,
  0x65, 0x27, 0x81, 0x51, 0xe9, 0xd4, 0xc0, 0x96, 0xe9, 0x27, 0xfd, 0x3c,
  0x12, 0x51, 0x12, 0x27, 0x3c, 0xab, 0x3c, 0x51, 0xd4, 0x3c, 0x7a, 0x12,
  0x46, 0xec, 0x46, 0xec, 0x58, 0xda, 0x46, 0x34, 0x22, 0x22, 0x46, 0x10,
  0xc9, 0xb6, 0xa5, 0x10, 0xc9, 0xec, 0x22, 0x10, 0x81, 0xc9, 0xb6, 0xc9,
  0x34, 0x34, 0x58, 0xfe, 0xfe, 0xa5, 0x69, 0x10, 0x3c, 0xab, 0x51, 0xab,
  0xe9, 0xfd, 0xfd, 0x51, 0x81, 0x12, 0x3c, 0x51, 0x7a, 0xc0, 0x12, 0xd4,
  0x51, 0x3c, 0xfd, 0x51, 0xe9, 0x65, 0xe9, 0xe9, 0x3c, 0x12, 0xd4, 0xe9,
  0x12, 0xfd, 0x7a, 0xc0, 0x31, 0xe3, 0x4b, 0xc9, 0x31, 0xc9, 0x31, 0x65,
  0x4b, 0xc9, 0xb0, 0x7f, 0x95, 0x65, 0xfc, 0x95, 0x4b, 0x4b, 0xfc, 0x17,
  0x17, 0x7f, 0xfc, 0xb0, 0x65, 0xfc, 0x65, 0x65, 0x17, 0xfc, 0x31, 0x7f,
  0x29, 0xbe, 0xd2, 0xfd, 0x7f, 0x92, 0x54, 0xe8, 0x92, 0x3e, 0xe8, 0xe8,
  0xe8, 0xbe, 0xe8, 0x92, 0xa7, 0x54, 0xfd, 0x3e, 0xa7, 0x29, 0x29, 0xfd,
  0x13, 0xbe, 0x13, 0x29, 0xfd, 0x29, 0x6a, 0xbe, 0x51, 0xd4, 0x7a, 0x12,
  0x12, 0x3c, 0x51, 0x65, 0x65, 0xe9, 0x12, 0x65, 0xe9, 0x81, 0x51, 0x12,
  0xfd, 0xc0, 0x96, 0x3c, 0x27, 0xab, 0xe9, 0x12, 0x12, 0x27, 0xfd, 0x7a,
  0xe9, 0xd4, 0xd4, 0xc0, 0xab, 0x27, 0xd4, 0x96, 0xe9, 0xfd, 0x12, 0xab,
  0xc0, 0x3c, 0x27, 0xfd, 0xfd, 0x65, 0x65, 0xd4, 0xd4, 0x27, 0xab, 0x81,
  0xc0, 0xab, 0x3c, 0xc0, 0x96, 0xd4, 0x51, 0xd4, 0xc0, 0xc0, 0xc0, 0xab,
  0xfd, 0x29, 0xbe, 0xd2, 0xa7, 0x13, 0xfd, 0x29, 0xbe, 0x92, 0xd2, 0xfd,
  0x7f, 0x13, 0x92, 0xd2, 0x7f, 0xfd, 0xbe, 0xd2, 0xd2, 0xd2, 0xe8, 0xa7,
  0xfd, 0xfd, 0x92, 0x6a, 0x92, 0xfd, 0xbe, 0x29, 0xd4, 0xe9, 0x27, 0x3c,
  0x3c, 0xe9, 0x3c, 0x65, 0x3c, 0xe9, 0xd4, 0x12, 0x27, 0x3c, 0x51, 0x96,
  0x3c, 0xc0, 0x27, 0x12, 0x3c, 0xfd, 0xd4, 0xfd, 0x81, 0x3c, 0xe9, 0xd4,
  0xc0, 0x12, 0x27, 0x65, 0xfd, 0xe4, 0xb3, 0xe4, 0x2f, 0x81, 0xe4, 0x16,
  0x48, 0x61, 0xfd, 0xcb, 0x81, 0xe4, 0xfd, 0xcb, 0xe4, 0x61, 0x61, 0x61,
  0x2f, 0x2f, 0xe4, 0xb3, 0xe4, 0x99, 0x99, 0xfd, 0x2f, 0x48, 0xb3, 0xe4,
  0xb4, 0x10, 0x35, 0x5a, 0x10, 0x48, 0xd9, 0x23, 0xb4, 0x48, 0xc8, 0x35,
  0xfd, 0x23, 0x10, 0x48, 0x35, 0xec, 0x5a, 0x10, 0xc8, 0xa2, 0x7f, 0xfd,
  0xa2, 0x23, 0xc8, 0x10, 0xa2, 0x23, 0x35, 0xd9, 0xe9, 0x96, 0x51, 0x81,
  0xfd, 0xfd, 0xfd, 0x7a, 0x3c, 0x65, 0x7a, 0x51, 0xd4, 0x3c, 0x51, 0xfd,
  0xab, 0x27, 0x12, 0x27, 0x12, 0x12, 0x3c, 0x27, 0x12, 0xe9, 0xfd, 0xfd,
  0x96, 0x12, 0xd4, 0xe9, 0x2f, 0xb3, 0xb3, 0xfd, 0x16, 0x48, 0x99, 0xfd,
  0xb3, 0xfd, 0x61, 0x7a, 0xe4, 0x81, 0xe4, 0x48, 0x61, 0x81, 0xb3, 0xfd,
  0xb3, 0x61, 0x48, 0x48, 0xcb, 0x7a, 0xfd, 0x61, 0x7a, 0xfd, 0x99, 0x61,
  0xd9, 0x48, 0x10, 0x7f, 0xc8, 0x35, 0xc8, 0xec, 0xc8, 0xfd, 0x10, 0xc8,
  0x48, 0x48, 0xd9, 0x5a, 0xd9, 0xd9, 0xec, 0x10, 0xc8, 0x48, 0xb4, 0xec,
  0xc8, 0xfd, 0x48, 0xb4, 0x10, 0x23, 0xc8, 0xa2, 0xfe, 0x3f, 0x1e, 0x2f,
  0x1e, 0x2f, 0xde, 0xcf, 0xbe, 0x0e, 0x2f, 0xfe, 0xcf, 0x7f, 0xae, 0x2f,
  0x1e, 0xde, 0xee, 0x1e, 0x2f, 0x0e, 0x2f, 0x1e, 0x0e, 0xfe, 0xde, 0x1e,
  0x0e, 0x2f, 0xde, 0x1e, 0xcb, 0x7a, 0xcb, 0x16, 0x2f, 0x61, 0xe4, 0x61,
  0xcb, 0x2f, 0x2f, 0xe4, 0x81, 0x81, 0x61, 0x61, 0x48, 0x48, 0x81, 0x2f,
  0xfd, 0x7a, 0xe4, 0x2f, 0x48, 0x61, 0x7a, 0x61, 0x7a, 0xb3, 0xb3, 0xb3,
  0xc0, 0x27, 0xab, 0xe9, 0x51, 0xc0, 0xd4, 0x27, 0x12, 0x81, 0xd4, 0x27,
  0x12, 0x7a, 0x27, 0x51, 0x27, 0xab, 0xd4, 0x7a, 0x27, 0x27, 0xd4, 0x3c,
  0xc0, 0xc0, 0x12, 0x65, 0x7a, 0x27, 0x27, 0x12, 0xe9, 0xe9, 0xe9, 0xab,
  0xd4, 0xd4, 0x12, 0x51, 0x12, 0x3c, 0xc0, 0xe9, 0xfd, 0xd4, 0x81, 0x96,
  0x12, 0xd4, 0xc0, 0xd4, 0xc0, 0x27, 0x12, 0x96, 0x12, 0xab, 0x65, 0x51,
  0xfd, 0x81, 0x7a, 0xfd, 0x13, 0xfd, 0xe8, 0xbe, 0x7f, 0xfd, 0x3e, 0x3e,
  0xfd, 0x7f, 0xa7, 0xbe, 0xd2, 0xe8, 0xe8, 0x13, 0x29, 0x3e, 0xd2, 0x6a,
  0xfd, 0xfd, 0xd2, 0x3e, 0xfd, 0xa7, 0x29, 0x13, 0x29, 0x29, 0x92, 0x29,
  0xe4, 0x2f, 0x2f, 0xfd, 0x16, 0xe4, 0x7a, 0x48, 0xb3, 0xcb, 0xfd, 0xfd,
  0xcb, 0xcb, 0x48, 0x2f, 0x2f, 0x48, 0x81, 0xe4, 0xb3, 0xe4, 0xb3, 0x16,
  0x61, 0xcb, 0x16, 0xe4, 0x2f, 0xb3, 0xcb, 0x99, 0xd2, 0x6a, 0x13, 0xbe,
  0xa7, 0x7f, 0x7f, 0x3e, 0xd2, 0x6a, 0xa7, 0x92, 0x7f, 0x3e, 0x13, 0x29,
  0x13, 0xe8, 0x3e, 0xe8, 0xe8, 0xe8, 0x3e, 0x29, 0xd2, 0x54, 0x13, 0xfd,
  0x29, 0x3e, 0x3e, 0x6a, 0x13, 0xfd, 0x13, 0x13, 0x92, 0x29, 0x54, 0x6a,
  0x13, 0x6a, 0x13, 0x29, 0x3e, 0xbe, 0x29, 0x3e, 0x29, 0x13, 0xbe, 0xbe,
  0xd2, 0xe8, 0xd2, 0x7f, 0xa7, 0x3e, 0xe8, 0xe8, 0xe8, 0x6a, 0x3e, 0xe8,
  0x3e, 0x92, 0xd2, 0x13, 0x54, 0xd2, 0xfd, 0x3e, 0x3e, 0xd2, 0x92, 0x13,
  0xe8, 0x54, 0xa7, 0x54, 0xd2, 0xa7, 0x54, 0x7f, 0xbe, 0xe8, 0xfd, 0x92,
  0x92, 0x13, 0xe8, 0xa7, 0xa7, 0xbe, 0xbe, 0xd2, 0x3e, 0x29, 0x29, 0x3e,
  0x29, 0x3e, 0x6a, 0xbe, 0xd2, 0x3e, 0x3e, 0xbe, 0x29, 0x92, 0x29, 0xfd,
  0xfd, 0xa7, 0xfd, 0x3e, 0x54, 0xfd, 0xe8, 0x7f, 0xd2, 0xfd, 0x54, 0x3e,
  0x3e, 0xbe, 0x54, 0x54, 0xfd, 0x3c, 0xd4, 0x65, 0xfd, 0x27, 0x3c, 0x27,
  0xc0, 0x12, 0xe9, 0xfd, 0x51, 0x12, 0x51, 0xfd, 0x27, 0x3c, 0xab, 0x96,
  0xab, 0xc0, 0xc0, 0x65, 0x51, 0x12, 0x96, 0xc0, 0x3c, 0x81, 0x3c, 0xfd,
  0xd9, 0xec, 0x23, 0x10, 0x8f, 0x7f, 0x10, 0xb4, 0xc8, 0x5a, 0xd9, 0x48,
  0xc8, 0xfd, 0xd9, 0xec, 0xd9, 0x35, 0x23, 0x10, 0x35, 0xb4, 0xb4, 0x6c,
  0xb4, 0xc8, 0xd9, 0x35, 0xfd, 0x10, 0xfd, 0xfd, 0x3c, 0x65, 0xfd, 0x12,
  0x7a, 0x3c, 0x51, 0xc0, 0x27, 0x3c, 0x27, 0xc0, 0x12, 0xc0, 0x51, 0x7a,
  0x3c, 0x51, 0xab, 0x51, 0xd4, 0xd4, 0x12, 0xfd, 0x81, 0x27, 0x12, 0x27,
  0x12, 0xe9, 0xab, 0xe9, 0xd2, 0xfd, 0x6a, 0xbe, 0x7f, 0xfd, 0x29, 0xfd,
  0xbe, 0xa7, 0x13, 0x3e, 0x29, 0xe8, 0x13, 0x13, 0x54, 0x3e, 0x29, 0x7f,
  0xd2, 0x92, 0x92, 0xfd, 0xa7, 0x3e, 0x3e, 0xfd, 0xd2, 0xa7, 0x13, 0x13,
  0x2f, 0x3f, 0xde, 0x2f, 0x1e, 0x7f, 0x3f, 0x1e, 0xee, 0xee, 0xde, 0x1e,
  0xfe, 0xde, 0xfe, 0xde, 0x4f, 0xcf, 0xbe, 0xcf, 0x1e, 0xee, 0x2f, 0xcf,
  0x4f, 0x0e, 0xbe, 0x9d, 0x4f, 0x3f, 0xcf, 0xfe, 0x69, 0xc9, 0xda, 0x58,
  0xda, 0x46, 0xfe, 0x10, 0xb6, 0xc9, 0xec, 0x22, 0x81, 0xec, 0xc9, 0x10,
  0xc9, 0xda, 0xa5, 0x22, 0x34, 0x69, 0x10, 0xc9, 0x46, 0xfe, 0xec, 0xda,
  0xc9, 0xb6, 0x46, 0xda, 0x7f, 0xc8, 0x10, 0x48, 0x35, 0x7f, 0x48, 0x23,
  0x23, 0x10, 0xd9, 0x10, 0x23, 0xec, 0x23, 0xd9, 0x23, 0xfd, 0xd9, 0x48,
  0xfd, 0xb4, 0x23, 0xd9, 0xb4, 0xec, 0x23, 0xfd, 0xec, 0x35, 0x5a, 0xa2,
  0xe9, 0x3c, 0xc0, 0x27, 0x81, 0xd4, 0x27, 0x27, 0x27, 0xfd, 0x65, 0xc0,
  0xfd, 0x27, 0xfd, 0x51, 0xc0, 0xd4, 0x96, 0xe9, 0x51, 0xd4, 0x3c, 0xc0,
  0x3c, 0xd4, 0x96, 0x12, 0xab, 0x12, 0xd4, 0x12, 0x48, 0x7f, 0x23, 0xb4,
  0xd9, 0x23, 0xfd, 0xc8, 0x10, 0x48, 0xc8, 0x6c, 0xc8, 0x23, 0x10, 0xec,
  0x6c, 0xd9, 0xc8, 0x23, 0x6c, 0xec, 0xb4, 0xd9, 0xfd, 0xfd, 0x23, 0xb4,
  0xec, 0xd9, 0xfd, 0xd9, 0x54, 0xfd, 0xa7, 0x6a, 0xe8, 0x54, 0x54, 0xa7,
  0x13, 0xa7, 0xfd, 0xfd, 0xd2, 0x7f, 0xbe, 0x29, 0x54, 0xd2, 0xa7, 0xe8,
  0x13, 0x29, 0xa7, 0x3e, 0x29, 0xa7, 0xfd, 0xbe, 0xbe, 0xbe, 0xbe, 0x13,
  0xde, 0xa1, 0xff, 0xff, 0x04, 0x00, 0x00, 0x00, 0x00, 0x01, 0x00, 0x00,
  0x4c, 0xf1, 0xff, 0xff, 0x9f, 0xfa, 0xff, 0xff, 0x50, 0xf6, 0xff, 0xff,
  0x9a, 0xf3, 0xff, 0xff, 0xcd, 0x0b, 0x00, 0x00, 0x2c, 0x08, 0x00, 0x00,
  0x17, 0xf4, 0xff, 0xff, 0xa8, 0xee, 0xff, 0xff, 0x6b, 0x0a, 0x00, 0x00,
  0x98, 0x15, 0x00, 0x00, 0x92, 0x09, 0x00, 0x00, 0xab, 0x0a, 0x00, 0x00,
  0xc1, 0x0b, 0x00, 0x00, 0xb6, 0x07, 0x00, 0x00, 0x2c, 0xfa, 0xff, 0xff,
  0x34, 0xe7, 0xff, 0xff, 0x30, 0x08, 0x00, 0x00, 0x6c, 0xf0, 0xff, 0xff,
  0x89, 0xf6, 0xff, 0xff, 0x22, 0x0c, 0x00, 0x00, 0x17, 0xf7, 0xff, 0xff,
  0x11, 0xf5, 0xff, 0xff, 0xe4, 0xef, 0xff, 0xff, 0x20, 0x0c, 0x00, 0x00,
  0xf1, 0x06, 0x00, 0x00, 0x1d, 0x06, 0x00, 0x00, 0xed, 0xeb, 0xff, 0xff,
  0xf8, 0xf2, 0xff, 0xff, 0xd4, 0x05, 0x00, 0x00, 0xe4, 0x04, 0x00, 0x00,
  0x9d, 0x00, 0x00, 0x00, 0x6c, 0xff, 0xff, 0xff, 0x57, 0xf5, 0xff, 0xff,
  0x7e, 0x00, 0x00, 0x00, 0x50, 0xf1, 0xff, 0xff, 0xdf, 0x05, 0x00, 0x00,
  0x29, 0xfa, 0xff, 0xff, 0x9b, 0x15, 0x00, 0x00, 0x21, 0x0a, 0x00, 0x00,
  0x42, 0xee, 0xff, 0xff, 0x4d, 0x0f, 0x00, 0x00, 0xad, 0xf7, 0xff, 0xff,
  0x7d, 0x18, 0x00, 0x00, 0x1a, 0xf9, 0xff, 0xff, 0x42, 0x03, 0x00, 0x00,
  0x1c, 0xfe, 0xff, 0xff, 0xe6, 0x06, 0x00, 0x00, 0x45, 0x07, 0x00, 0x00,
  0x45, 0xf5, 0xff, 0xff, 0xb4, 0xfd, 0xff, 0xff, 0x8a, 0xea, 0xff, 0xff,
  0x4d, 0xfa, 0xff, 0xff, 0x3d, 0x07, 0x00, 0x00, 0x65, 0x00, 0x00, 0x00,
  0xf0, 0x00, 0x00, 0x00, 0xc7, 0x01, 0x00, 0x00, 0xde, 0xf7, 0xff, 0xff,
  0xf0, 0x11, 0x00, 0x00, 0xd5, 0xf0, 0xff, 0xff, 0xff, 0x03, 0x00, 0x00,
  0x44, 0xf8, 0xff, 0xff, 0x26, 0xfe, 0xff, 0xff, 0x84, 0xf3, 0xff, 0xff,
  0xf0, 0x0a, 0x00, 0x00, 0xea, 0xa2, 0xff, 0xff, 0x04, 0x00, 0x00, 0x00,
  0x40, 0x02, 0x00, 0x00, 0xbf, 0x3c, 0xbf, 0x81, 0xde, 0xfe, 0xa1, 0xde,
  0xa1, 0xe4, 0xfe, 0x7f, 0xe4, 0xcb, 0x65, 0x4b, 0x65, 0xfe, 0x1e, 0xa1,
  0xbf, 0xde, 0xbf, 0x81, 0x81, 0xbf, 0xa1, 0x5b, 0xde, 0xa1, 0x81, 0xde,
  0xa1, 0x81, 0x5b, 0x1e, 0xcb, 0x7f, 0x4b, 0x19, 0xb2, 0x65, 0x19, 0xfe,
  0xe4, 0x3e, 0xfe, 0x92, 0x15, 0xe9, 0xd4, 0xe9, 0x7f, 0xbf, 0x81, 0xfe,
  0x1e, 0x81, 0x7b, 0x7b, 0xa1, 0x5b, 0xfe, 0x81, 0xbf, 0xbf, 0xa1, 0x1e,
  0xfe, 0x81, 0xa1, 0xa1, 0xfe, 0x65, 0xb2, 0x19, 0x7f, 0xfe, 0xb2, 0x4b,
  0x98, 0x3c, 0xfe, 0xfe, 0xbf, 0xa1, 0xa1, 0x5b, 0xde, 0x81, 0x54, 0xd4,
  0xa9, 0x54, 0x29, 0x3e, 0xd4, 0x15, 0x7f, 0x29, 0xe9, 0xbf, 0x15, 0xd4,
  0x15, 0x7f, 0xd4, 0xe9, 0x7a, 0x81, 0x50, 0x7a, 0xfd, 0x29, 0xa9, 0xa9,
  0x81, 0xb5, 0x9c, 0x61, 0x81, 0x2f, 0x48, 0xe5, 0xb5, 0xfe, 0xcb, 0xe4,
  0x19, 0xe4, 0xb2, 0x98, 0x7f, 0x4b, 0xcb, 0xe9, 0xd5, 0x14, 0x81, 0xff,
  0xff, 0xab, 0x52, 0xff, 0xa1, 0x5b, 0x1e, 0x81, 0xbf, 0x1e, 0x81, 0x1e,
  0x3c, 0xfd, 0xd0, 0x53, 0xa6, 0xfd, 0x53, 0x7f, 0x7f, 0x53, 0x81, 0x3c,
  0x81, 0xde, 0xde, 0xa1, 0xde, 0xbf, 0xde, 0x18, 0x2f, 0xb5, 0x81, 0xb5,
  0xfe, 0x81, 0xcd, 0xfe, 0x81, 0xde, 0x1e, 0xfe, 0x3c, 0xfe, 0xde, 0xa1,
  0xbf, 0xca, 0xff, 0x34, 0x11, 0xca, 0x94, 0xff, 0xec, 0x81, 0x81, 0x2f,
  0x48, 0xcd, 0xfe, 0x48, 0xcd, 0xe5, 0x9c, 0x1e, 0xfe, 0xbf, 0xa1, 0x1e,
  0x5b, 0x81, 0x81, 0xfe, 0xc1, 0xe9, 0xd5, 0xab, 0xff, 0x81, 0xc1, 0xab,
  0xd5, 0x14, 0xd5, 0x28, 0x28, 0xab, 0x81, 0xff, 0xc1, 0xd5, 0xde, 0xbf,
  0xbf, 0x81, 0xfe, 0x81, 0xa1, 0xbf, 0xbf, 0xe5, 0xfe, 0x9c, 0x18, 0xe5,
  0x81, 0x48, 0xfe, 0xcd, 0xcd, 0xb5, 0xe5, 0x81, 0xe5, 0x2f, 0xfe, 0xcd,
  0x18, 0xe4, 0xb2, 0xfe, 0x7f, 0xb2, 0x65, 0xfe, 0x4b, 0x4b, 0x7f, 0x2a,
  0x53, 0x53, 0x2a, 0x2a, 0x53, 0x53, 0xfd, 0x31, 0x31, 0xb2, 0x31, 0xfe,
  0xe4, 0x19, 0x7f, 0xb2, 0x31, 0xcb, 0x31, 0xfe, 0x31, 0xfe, 0x7f, 0xe4,
  0xcb, 0xfe, 0xa1, 0xbf, 0xa1, 0xa1, 0xbf, 0xfe, 0x81, 0xde, 0x1e, 0x3c,
  0xde, 0xfe, 0xa1, 0x81, 0xa1, 0x1e, 0xa1, 0xd4, 0x7f, 0x3e, 0x54, 0x54,
  0x29, 0x54, 0xd4, 0xe9, 0x19, 0x4b, 0x7f, 0x19, 0x7f, 0xfe, 0x31, 0x31,
  0x7f, 0x48, 0x2f, 0x81, 0x7a, 0xfe, 0xb5, 0x61, 0xfe, 0xfe, 0xfe, 0x2f,
  0xb5, 0xb5, 0x48, 0x9c, 0x81, 0xcd, 0xcd, 0x9e, 0xdc, 0x3e, 0x7f, 0x9e,
  0x9e, 0xdc, 0xbd, 0xfe, 0x18, 0x9c, 0x9c, 0x2f, 0xe5, 0x81, 0xcd, 0x18,
  0xb5, 0xfe, 0x1f, 0xdc, 0x7f, 0x3e, 0xbd, 0x7f, 0xdc, 0x3e, 0xa4, 0x34,
  0xdb, 0x94, 0xca, 0x11, 0x81, 0xb8, 0x34, 0x5b, 0xbf, 0xbf, 0xa1, 0x3c,
  0xde, 0xde, 0x1e, 0x81, 0x14, 0x81, 0x14, 0xd5, 0x14, 0x67, 0xe9, 0x28,
  0x14, 0xde, 0x5b, 0x3c, 0xde, 0x81, 0x1e, 0xbf, 0x81, 0x1e, 0xde, 0x1e,
  0x81, 0x81, 0x81, 0xbf, 0xa1, 0x1e, 0xa1, 0x19, 0xb2, 0x4b, 0x31, 0xcb,
  0xb2, 0x7f, 0xb2, 0xe4, 0x15, 0xfe, 0xbf, 0x54, 0x3e, 0xbf, 0x7f, 0x15,
  0x15, 0xd5, 0xff, 0xe9, 0xe9, 0x14, 0xab, 0x52, 0xe9, 0x81, 0x48, 0xfe,
  0x2f, 0x18, 0x48, 0xfe, 0x81, 0x18, 0x2f, 0x18, 0xb5, 0x2f, 0x18, 0x2f,
  0xe5, 0x2f, 0xfe, 0x81, 0x2f, 0xcd, 0x81, 0x18, 0xe5, 0xb5, 0xcd, 0xfe,
  0xb5, 0x3e, 0x3e, 0x7f, 0xbd, 0x5f, 0xdc, 0x9e, 0x3e, 0x3e, 0xfe, 0xbd,
  0x7f, 0xdc, 0xfe, 0x5f, 0xfe, 0x9e, 0x7f, 0x7f, 0x6a, 0x29, 0x54, 0x3e,
  0x15, 0x3e, 0x3e, 0xd4, 0x31, 0x31, 0x65, 0x7f, 0x19, 0xe4, 0x4b, 0xb2,
  0x98, 0x81, 0xa9, 0xfd, 0x50, 0xa9, 0x29, 0x29, 0x29, 0x7a, 0xbd, 0xbd,
  0x9e, 0x9e, 0x3e, 0x1f, 0xfe, 0x1f, 0x7f, 0xa1, 0x3c, 0x3c, 0x81, 0x3c,
  0x3c, 0x81, 0x1e, 0x7b, 0xfe, 0xe4, 0x65, 0xb2, 0xfe, 0x65, 0xb2, 0x19,
  0x7f, 0x1f, 0xee, 0xee, 0x3f, 0x2f, 0xff, 0x3f, 0x7f, 0xff, 0x5f, 0xfe,
  0x7f, 0x5f, 0xfe, 0x3e, 0xdc, 0x7f, 0x1f, 0xfe, 0x15, 0xfe, 0xe9, 0x7f,
  0xe9, 0xbf, 0x7f, 0x29, 0x30, 0x53, 0xff, 0xff, 0x3a, 0xa5, 0xff, 0xff,
  0x04, 0x00, 0x00, 0x00, 0x00, 0x01, 0x00, 0x00, 0x00, 0x00, 0x00, 0x00,
  0x00, 0x00, 0x00, 0x00, 0x00, 0x00, 0x00, 0x00, 0x00, 0x00, 0x00, 0x00,
  0x00, 0x00, 0x00, 0x00, 0x00, 0x00, 0x00, 0x00, 0x00, 0x00, 0x00, 0x00,
  0x00, 0x00, 0x00, 0x00, 0x00, 0x00, 0x00, 0x00, 0x00, 0x00, 0x00, 0x00,
  0x00, 0x00, 0x00, 0x00, 0x00, 0x00, 0x00, 0x00, 0x00, 0x00, 0x00, 0x00,
  0x00, 0x00, 0x00, 0x00, 0x00, 0x00, 0x00, 0x00, 0x00, 0x00, 0x00, 0x00,
  0x00, 0x00, 0x00, 0x00, 0x00, 0x00, 0x00, 0x00, 0x00, 0x00, 0x00, 0x00,
  0x00, 0x00, 0x00, 0x00, 0x00, 0x00, 0x00, 0x00, 0x00, 0x00, 0x00, 0x00,
  0x00, 0x00, 0x00, 0x00, 0x00, 0x00, 0x00, 0x00, 0x00, 0x00, 0x00, 0x00,
  0x00, 0x00, 0x00, 0x00, 0x00, 0x00, 0x00, 0x00, 0x00, 0x00, 0x00, 0x00,
  0x00, 0x00, 0x00, 0x00, 0x00, 0x00, 0x00, 0x00, 0x00, 0x00, 0x00, 0x00,
  0x00, 0x00, 0x00, 0x00, 0x00, 0x00, 0x00, 0x00, 0x00, 0x00, 0x00, 0x00,
  0x00, 0x00, 0x00, 0x00, 0x00, 0x00, 0x00, 0x00, 0x00, 0x00, 0x00, 0x00,
  0x00, 0x00, 0x00, 0x00, 0x00, 0x00, 0x00, 0x00, 0x00, 0x00, 0x00, 0x00,
  0x00, 0x00, 0x00, 0x00, 0x00, 0x00, 0x00, 0x00, 0x00, 0x00, 0x00, 0x00,
  0x00, 0x00, 0x00, 0x00, 0x00, 0x00, 0x00, 0x00, 0x00, 0x00, 0x00, 0x00,
  0x00, 0x00, 0x00, 0x00, 0x00, 0x00, 0x00, 0x00, 0x00, 0x00, 0x00, 0x00,
  0x00, 0x00, 0x00, 0x00, 0x00, 0x00, 0x00, 0x00, 0x00, 0x00, 0x00, 0x00,
  0x00, 0x00, 0x00, 0x00, 0x00, 0x00, 0x00, 0x00, 0x00, 0x00, 0x00, 0x00,
  0x00, 0x00, 0x00, 0x00, 0x00, 0x00, 0x00, 0x00, 0x00, 0x00, 0x00, 0x00,
  0x00, 0x00, 0x00, 0x00, 0x00, 0x00, 0x00, 0x00, 0x00, 0x00, 0x00, 0x00,
  0x00, 0x00, 0x00, 0x00, 0x00, 0x00, 0x00, 0x00, 0x00, 0x00, 0x00, 0x00,
  0x46, 0xa6, 0xff, 0xff, 0x04, 0x00, 0x00, 0x00, 0x00, 0x10, 0x00, 0x00,
  0x0a, 0xc6, 0xdd, 0xaf, 0xf3, 0x37, 0xf3, 0x21, 0x37, 0xf3, 0xf3, 0x21,
  0xc6, 0x0a, 0x21, 0x0a, 0x4f, 0x0a, 0x37, 0x4f, 0xf3, 0xaf, 0xf3, 0xdd,
  0x0a, 0xaf, 0x21, 0x21, 0x4f, 0x0a, 0xaf, 0xdd, 0xf3, 0x21, 0x65, 0xdd,
  0xdd, 0xaf, 0x21, 0xf3, 0x37, 0xc6, 0xaf, 0x4f, 0x21, 0xf3, 0x21, 0x0a,
  0x0a, 0xf3, 0xf3, 0x21, 0x37, 0xaf, 0x81, 0x4f, 0xdd, 0xdd, 0xf3, 0x98,
  0x37, 0xdd, 0x0a, 0x81, 0x61, 0xd4, 0xb9, 0xb9, 0x7c, 0xd4, 0x61, 0xf0,
  0x9d, 0x28, 0xd4, 0x0c, 0x7c, 0x61, 0xb9, 0x9d, 0x0c, 0x81, 0x0c, 0x61,
  0x44, 0xd4, 0xf0, 0x44, 0x9d, 0x61, 0xf0, 0x28, 0x28, 0xd4, 0x28, 0xd4,
  0x9d, 0xf0, 0xf0, 0x9d, 0xf0, 0xb9, 0x9d, 0x28, 0x0c, 0x44, 0x9d, 0x9d,
  0xd4, 0xd4, 0x9d, 0x0c, 0x28, 0xf0, 0x61, 0xf0, 0x9d, 0xd4, 0x44, 0x0c,
  0x44, 0x44, 0x0c, 0x0c, 0x44, 0xd4, 0xb9, 0x0c, 0x65, 0x0a, 0xf3, 0x37,
  0xf3, 0xf3, 0xdd, 0xc6, 0x21, 0xdd, 0x21, 0x81, 0xdd, 0x0a, 0x65, 0x98,
  0x7c, 0x21, 0xaf, 0xf3, 0xc6, 0x21, 0x37, 0xc6, 0x0a, 0x21, 0xdd, 0x0a,
  0x4f, 0x21, 0x4f, 0x21, 0x21, 0x37, 0xf3, 0x21, 0x0a, 0xf3, 0xc6, 0x4f,
  0x81, 0xf3, 0xf3, 0x0a, 0x7c, 0x4f, 0xdd, 0xdd, 0xf3, 0x21, 0x21, 0x0a,
  0x7c, 0xc6, 0xdd, 0x65, 0xc6, 0xf3, 0x81, 0x37, 0x4f, 0xc6, 0xc6, 0x37,
  0x45, 0x30, 0x1d, 0x30, 0xe1, 0x6b, 0x1d, 0x1d, 0x45, 0xe1, 0x30, 0xe1,
  0x45, 0x7f, 0xce, 0xe1, 0xba, 0x30, 0xce, 0xf5, 0xf5, 0x30, 0x30, 0x1d,
  0x30, 0xe1, 0x08, 0x1d, 0xf5, 0x1d, 0xce, 0x30, 0x30, 0x30, 0x58, 0xf5,
  0x30, 0xba, 0x1d, 0xce, 0x58, 0x30, 0x58, 0xba, 0xe1, 0xe1, 0xf5, 0x30,
  0xf5, 0x08, 0x45, 0xba, 0x1d, 0xa6, 0xf5, 0x1d, 0x08, 0x08, 0xce, 0xe1,
  0x08, 0xe1, 0x30, 0x45, 0xf5, 0x45, 0xe1, 0xf5, 0x45, 0x1d, 0xf5, 0x6b,
  0xe1, 0xf5, 0x30, 0xe1, 0xce, 0xce, 0x1d, 0x08, 0xf5, 0x30, 0x30, 0x58,
  0x6b, 0x08, 0x08, 0xce, 0x6b, 0xf5, 0xba, 0x58, 0xba, 0xce, 0xa6, 0xe1,
  0xba, 0x1d, 0x58, 0xf5, 0x45, 0x30, 0xe1, 0x08, 0x1d, 0xe1, 0x30, 0x45,
  0xe1, 0x30, 0xf5, 0xe1, 0x08, 0x6b, 0xe1, 0x08, 0xce, 0x08, 0xba, 0xa6,
  0xba, 0x7f, 0xf5, 0x08, 0x45, 0xce, 0x30, 0x08, 0x81, 0x61, 0xb9, 0xd4,
  0xd4, 0x7c, 0x28, 0x0c, 0x44, 0x28, 0xd4, 0xf0, 0x44, 0x44, 0xf0, 0x28,
  0x61, 0xb9, 0x61, 0xb9, 0x0c, 0xf0, 0x28, 0x61, 0x28, 0x9d, 0x0c, 0x7c,
  0xb9, 0xb9, 0xf0, 0x81, 0xf0, 0x44, 0xd4, 0xf0, 0x81, 0x28, 0x7c, 0x28,
  0x0c, 0xf0, 0xf0, 0x0c, 0xb9, 0x28, 0x9d, 0xb9, 0xb9, 0x0c, 0xd4, 0x44,
  0x61, 0x9d, 0x61, 0x28, 0xb9, 0x28, 0x7c, 0x7c, 0x44, 0xb9, 0x28, 0xb9,
  0x08, 0x2f, 0x43, 0x1c, 0xf5, 0x69, 0x1c, 0xbb, 0xbb, 0xbb, 0x81, 0x2f,
  0xf5, 0x43, 0x2f, 0xbb, 0x2f, 0xa8, 0xe2, 0xf5, 0x2f, 0xe2, 0x1c, 0xcf,
  0xa8, 0x1c, 0x43, 0x08, 0x56, 0xf5, 0x08, 0x1c, 0xf5, 0xbb, 0x1c, 0xcf,
  0x08, 0xcf, 0x1c, 0xbb, 0xe2, 0x2f, 0xbb, 0xcf, 0xe2, 0xf5, 0xcf, 0x1c,
  0x1c, 0x2f, 0x43, 0xf5, 0x08, 0x2f, 0x08, 0x43, 0xf5, 0x2f, 0xe2, 0x08,
  0x43, 0x69, 0xe2, 0x08, 0x0a, 0xc6, 0x21, 0x65, 0xaf, 0x0a, 0x4f, 0x0a,
  0xaf, 0x21, 0x0a, 0x21, 0xf3, 0xaf, 0xf3, 0xdd, 0xf3, 0x21, 0x37, 0xaf,
  0x37, 0x65, 0xf3, 0xf3, 0x98, 0x0a, 0xf3, 0xdd, 0xdd, 0xaf, 0xaf, 0x21,
  0x4f, 0x0a, 0xdd, 0xc6, 0xdd, 0x0a, 0xf3, 0x37, 0xaf, 0x21, 0x37, 0x21,
  0x4f, 0x21, 0x98, 0xaf, 0x37, 0x81, 0xaf, 0x37, 0x0a, 0xf3, 0x0a, 0xdd,
  0x0a, 0xc6, 0xdd, 0xc6, 0x4f, 0x98, 0x37, 0xdd, 0xdd, 0x0a, 0x4f, 0xf3,
  0x4f, 0xf3, 0x0a, 0x37, 0x98, 0xdd, 0x21, 0x4f, 0xf3, 0x21, 0x37, 0x0a,
  0x0a, 0xf3, 0x37, 0xaf, 0xaf, 0xf3, 0xf3, 0x21, 0xf3, 0xc6, 0x4f, 0xc6,
  0x21, 0xdd, 0x0a, 0x21, 0x7c, 0xaf, 0x0a, 0x37, 0x65, 0x4f, 0xdd, 0xf3,
  0xf3, 0x0a, 0xf3, 0xdd, 0xaf, 0x21, 0x21, 0x81, 0x21, 0xf3, 0x21, 0x21,
  0x21, 0xdd, 0x21, 0x0a, 0x21, 0x21, 0xdd, 0x21, 0xaf, 0xdd, 0xc6, 0x37,
  0xce, 0xf5, 0x7f, 0x08, 0xf5, 0xf5, 0x7f, 0x30, 0x1d, 0x08, 0x08, 0xce,
  0xf5, 0xba, 0xe1, 0xf5, 0x08, 0xba, 0x08, 0x1d, 0xf5, 0xba, 0x08, 0xba,
  0xe1, 0x1d, 0xce, 0x45, 0x1d, 0x08, 0x30, 0x58, 0x45, 0x58, 0xf5, 0x30,
  0x1d, 0x30, 0xce, 0x08, 0xe1, 0xce, 0xce, 0xa6, 0x08, 0xce, 0xba, 0xce,
  0x45, 0xe1, 0xe1, 0x08, 0xce, 0x1d, 0x45, 0xf5, 0x30, 0xce, 0x30, 0x08,
  0x92, 0xe1, 0xf5, 0x30, 0x08, 0xf5, 0xe1, 0x30, 0xf5, 0x7f, 0x92, 0x45,
  0xce, 0x1d, 0x1d, 0x58, 0xce, 0xba, 0xce, 0xce, 0x30, 0x08, 0x30, 0x30,
  0x30, 0x30, 0x08, 0x1d, 0x08, 0xe1, 0xe1, 0x08, 0x08, 0x58, 0x1d, 0xce,
  0x1d, 0xce, 0xba, 0x58, 0x1d, 0x1d, 0x30, 0x58, 0xba, 0xa6, 0xce, 0xce,
  0x30, 0x30, 0x45, 0xf5, 0xce, 0xe1, 0x1d, 0xe1, 0xce, 0x1d, 0xba, 0x1d,
  0x08, 0x45, 0x30, 0x1d, 0xf5, 0xf5, 0xa6, 0x30, 0xf7, 0x3a, 0xe6, 0x07,
  0x4b, 0x18, 0x3a, 0x18, 0xe6, 0xd5, 0xc4, 0x4b, 0xc4, 0x29, 0xc4, 0x18,
  0xc4, 0x29, 0xc4, 0x29, 0xe6, 0xd5, 0xc4, 0xd5, 0xb4, 0xe6, 0x18, 0x4b,
  0x29, 0xf7, 0xc4, 0x29, 0x18, 0xd5, 0xd5, 0x81, 0x07, 0x3a, 0xe6, 0x29,
  0xe6, 0xc4, 0x29, 0xd5, 0xc4, 0x3a, 0xd5, 0x29, 0x3a, 0x07, 0x07, 0x29,
  0x3a, 0xf7, 0x18, 0x07, 0xf7, 0x29, 0x3a, 0x18, 0xe6, 0xd5, 0xc4, 0xf7,
  0xdc, 0xad, 0xc4, 0x22, 0xdc, 0x0a, 0x0a, 0x39, 0x7f, 0xf3, 0xf3, 0xf3,
  0xad, 0xc4, 0x68, 0x96, 0x39, 0x39, 0x39, 0x22, 0xdc, 0x51, 0x96, 0x39,
  0x22, 0xf3, 0xf3, 0x51, 0x39, 0x51, 0x51, 0xad, 0xc4, 0x22, 0x22, 0xdc,
  0x68, 0x22, 0x51, 0x39, 0xc4, 0xf3, 0xad, 0x51, 0x51, 0xdc, 0xdc, 0x39,
  0x22, 0xdc, 0xf3, 0x22, 0xdc, 0x39, 0xdc, 0x68, 0x39, 0x51, 0x0a, 0x51,
  0x39, 0xad, 0x22, 0x22, 0xd4, 0x7c, 0xd4, 0x44, 0xb9, 0xd4, 0x0c, 0x28,
  0x61, 0xb9, 0xd4, 0xb9, 0x44, 0x7c, 0x9d, 0x44, 0x81, 0x81, 0x81, 0xf0,
  0xd4, 0x0c, 0x61, 0x44, 0x28, 0x44, 0x44, 0xf0, 0xd4, 0x44, 0x28, 0x9d,
  0x0c, 0xf0, 0x28, 0x0c, 0xf0, 0x44, 0x28, 0xf0, 0xb9, 0x7c, 0x0c, 0xd4,
  0xf0, 0xd4, 0x9d, 0x9d, 0xb9, 0x61, 0x61, 0x81, 0x61, 0x7c, 0x7c, 0x0c,
  0xd4, 0x28, 0x44, 0x28, 0xb9, 0x9d, 0x44, 0x28, 0x44, 0x0c, 0x9d, 0xb9,
  0x9d, 0xd4, 0x61, 0x9d, 0x0c, 0x9d, 0x9d, 0x81, 0x9d, 0x61, 0x28, 0x28,
  0x28, 0x9d, 0x0c, 0x44, 0x0c, 0x44, 0x28, 0xd4, 0x28, 0xb9, 0x9d, 0xf0,
  0x0c, 0xf0, 0x61, 0x0c, 0x61, 0x28, 0x0c, 0x81, 0x81, 0x9d, 0x28, 0x61,
  0xf0, 0xf0, 0x0c, 0xb9, 0x44, 0x28, 0xd4, 0x28, 0x81, 0x0c, 0x44, 0x81,
  0x28, 0xf0, 0x0c, 0x28, 0xf0, 0xf0, 0x0c, 0xd4, 0xd4, 0x9d, 0x28, 0xf0,
  0x58, 0x6b, 0x1d, 0x58, 0xf5, 0x30, 0x1d, 0xe1, 0xe1, 0x6b, 0xf5, 0x1d,
  0xe1, 0x30, 0xf5, 0x08, 0x30, 0xce, 0x1d, 0xe1, 0x30, 0x1d, 0x1d, 0x08,
  0x1d, 0xce, 0xba, 0x1d, 0x1d, 0x45, 0xce, 0xa6, 0xba, 0x08, 0x08, 0x30,
  0x08, 0x7f, 0x30, 0x30, 0x6b, 0xe1, 0xe1, 0xce, 0xe1, 0xf5, 0x08, 0xce,
  0x08, 0xce, 0xba, 0xce, 0x45, 0x30, 0x58, 0xce, 0x08, 0xce, 0x1d, 0xf5,
  0xf5, 0xba, 0xf5, 0xba, 0xc6, 0xdd, 0x21, 0xc6, 0x98, 0x21, 0xc6, 0x0a,
  0x21, 0x21, 0xaf, 0xc6, 0x21, 0x21, 0x37, 0xf3, 0x98, 0xc6, 0x37, 0xdd,
  0xaf, 0xf3, 0x21, 0xdd, 0xdd, 0xc6, 0x0a, 0xaf, 0xdd, 0x81, 0x65, 0x37,
  0x37, 0x4f, 0x4f, 0x37, 0x65, 0x37, 0x4f, 0xdd, 0x37, 0xf3, 0x4f, 0x0a,
  0x65, 0x0a, 0xc6, 0x65, 0xaf, 0xc6, 0xdd, 0x37, 0x4f, 0x0a, 0x21, 0x21,
  0xaf, 0x4f, 0xdd, 0x21, 0xdd, 0xdd, 0xdd, 0x4f, 0x45, 0xce, 0xe1, 0x1d,
  0xce, 0x7f, 0xe1, 0x45, 0x1d, 0x08, 0xce, 0x30, 0x08, 0xf5, 0xe1, 0x6b,
  0xa6, 0x08, 0x08, 0x1d, 0x1d, 0x08, 0x30, 0x1d, 0x45, 0xf5, 0xf5, 0xa6,
  0x30, 0xf5, 0x58, 0xf5, 0x45, 0xce, 0x08, 0x45, 0xf5, 0xf5, 0x45, 0xce,
  0xce, 0x1d, 0xce, 0xba, 0x1d, 0x08, 0xba, 0xf5, 0xba, 0xce, 0xce, 0x1d,
  0xba, 0x30, 0xe1, 0x1d, 0x08, 0x6b, 0xf5, 0x92, 0x30, 0xba, 0xe1, 0x30,
  0x37, 0x21, 0x4f, 0x21, 0xdd, 0x98, 0x21, 0x98, 0xf3, 0x0a, 0xdd, 0xc6,
  0xf3, 0x37, 0xf3, 0x0a, 0x0a, 0x98, 0x65, 0xc6, 0x0a, 0x0a, 0x4f, 0x21,
  0x21, 0xaf, 0x0a, 0x37, 0xdd, 0x37, 0x4f, 0xf3, 0x7c, 0xc6, 0x4f, 0x4f,
  0xaf, 0x0a, 0x37, 0x21, 0x21, 0xaf, 0x37, 0x4f, 0xdd, 0x21, 0x98, 0xc6,
  0xc6, 0x81, 0xc6, 0xdd, 0x21, 0x37, 0xf3, 0x0a, 0x65, 0x21, 0xc6, 0xc6,
  0xf3, 0x4f, 0x21, 0x0a, 0x4f, 0xc6, 0xdd, 0x21, 0xaf, 0xc6, 0xc6, 0x37,
  0xc6, 0x98, 0xf3, 0x21, 0x0a, 0x7c, 0xdd, 0x37, 0x65, 0xc6, 0xc6, 0x21,
  0xf3, 0x81, 0xc6, 0xf3, 0xdd, 0x0a, 0x21, 0xdd, 0x4f, 0x37, 0x0a, 0xf3,
  0xf3, 0x98, 0x37, 0xf3, 0x98, 0x37, 0xf3, 0x21, 0x4f, 0x4f, 0x0a, 0x4f,
  0x0a, 0x98, 0x21, 0x37, 0x21, 0x98, 0xaf, 0x37, 0x21, 0x0a, 0xf3, 0xf3,
  0x0a, 0xc6, 0x21, 0x98, 0x0a, 0x37, 0x0a, 0x4f, 0xf5, 0xcf, 0x08, 0x1c,
  0xe2, 0x94, 0x2f, 0xcf, 0xbb, 0xf5, 0xbb, 0xe2, 0xf5, 0x43, 0x81, 0xf5,
  0x1c, 0x2f, 0x1c, 0xbb, 0x43, 0x69, 0xf5, 0xe2, 0x2f, 0x94, 0xcf, 0xe2,
  0x08, 0x2f, 0xe2, 0x2f, 0xe2, 0xf5, 0xbb, 0x94, 0xcf, 0x1c, 0x56, 0x08,
  0xcf, 0x43, 0x08, 0x43, 0x2f, 0x56, 0xbb, 0x1c, 0xe2, 0xf5, 0xf5, 0x08,
  0xe2, 0x1c, 0xa8, 0xa8, 0x2f, 0x2f, 0x2f, 0x1c, 0xf5, 0xf5, 0x08, 0x08,
  0x81, 0xd4, 0xb9, 0xd4, 0x0c, 0x28, 0x9d, 0x28, 0x44, 0xd4, 0x28, 0xf0,
  0xf0, 0x0c, 0xb9, 0xb9, 0x81, 0x61, 0x0c, 0x44, 0xd4, 0x7c, 0x0c, 0x61,
  0xb9, 0x61, 0x61, 0x28, 0x0c, 0xb9, 0xf0, 0x0c, 0x61, 0x7c, 0x44, 0x44,
  0x28, 0xd4, 0xb9, 0xd4, 0x9d, 0xb9, 0x9d, 0xf0, 0x0c, 0x0c, 0x7c, 0xd4,
  0x0c, 0x0c, 0xd4, 0xb9, 0x61, 0x61, 0x0c, 0x0c, 0x61, 0x28, 0x44, 0x28,
  0xd4, 0xb9, 0x81, 0x61, 0xbb, 0xcf, 0xcf, 0x43, 0x2f, 0x94, 0x1c, 0x1c,
  0x1c, 0xf5, 0x08, 0x2f, 0xcf, 0x2f, 0x1c, 0x56, 0x1c, 0xcf, 0xf5, 0x08,
  0x2f, 0xbb, 0x08, 0x56, 0x1c, 0xe2, 0xe2, 0x08, 0xf5, 0xe2, 0x2f, 0xcf,
  0x1c, 0xbb, 0xf5, 0xf5, 0x1c, 0x2f, 0xcf, 0x1c, 0x7d, 0x1c, 0xe2, 0xe2,
  0xa8, 0x2f, 0xe2, 0x1c, 0xa8, 0xbb, 0x1c, 0x2f, 0x08, 0xf5, 0x56, 0xcf,
  0x1c, 0xf5, 0x69, 0x08, 0x81, 0x08, 0xe2, 0xe2, 0x1d, 0xce, 0xf5, 0x30,
  0x6b, 0xa6, 0x92, 0x1d, 0xba, 0x45, 0x30, 0xf5, 0x30, 0xa6, 0x08, 0x30,
  0xba, 0x1d, 0xce, 0xba, 0x30, 0x1d, 0xf5, 0xba, 0x1d, 0xf5, 0xba, 0x08,
  0xce, 0xce, 0x08, 0x7f, 0x1d, 0x08, 0xf5, 0x6b, 0xce, 0x08, 0xf5, 0x58,
  0xce, 0xba, 0xf5, 0x30, 0xce, 0xe1, 0xce, 0xce, 0x08, 0xe1, 0x30, 0xba,
  0x1d, 0x45, 0xce, 0xf5, 0x58, 0xa6, 0xba, 0x58, 0x08, 0xba, 0xf5, 0xe1,
  0xf7, 0xc4, 0x4c, 0xf7, 0xf7, 0xe6, 0x19, 0xf7, 0xe6, 0x07, 0xe6, 0xf7,
  0xe6, 0x4c, 0x3b, 0xd5, 0xc4, 0xc4, 0x07, 0xc4, 0x19, 0xe6, 0x7f, 0x4c,
  0xe6, 0x07, 0xf7, 0xc4, 0xe6, 0xd5, 0xd5, 0xe6, 0xc4, 0x3b, 0x3b, 0xc4,
  0xe6, 0x5d, 0x19, 0xe6, 0x29, 0xe6, 0xe6, 0x19, 0xe6, 0xb3, 0x19, 0x29,
  0x29, 0x3b, 0xf7, 0xd5, 0xf7, 0xe6, 0x07, 0x19, 0x07, 0xf7, 0xd5, 0x29,
  0xf7, 0x07, 0x4c, 0xe6, 0xaf, 0xf3, 0x65, 0xf3, 0x0a, 0xaf, 0x65, 0x21,
  0xf3, 0x65, 0x4f, 0x21, 0xdd, 0xdd, 0x98, 0xf3, 0xdd, 0xc6, 0xc6, 0x21,
  0x0a, 0x21, 0xf3, 0x0a, 0x21, 0xdd, 0xaf, 0x98, 0x0a, 0xf3, 0xdd, 0x37,
  0x98, 0x21, 0x37, 0xf3, 0x0a, 0x21, 0x0a, 0x21, 0x98, 0xdd, 0x37, 0xaf,
  0xf3, 0x37, 0x37, 0x0a, 0xdd, 0xf3, 0x65, 0xdd, 0x81, 0xc6, 0xf3, 0xf3,
  0x37, 0xf3, 0xaf, 0xc6, 0x21, 0x4f, 0xaf, 0xf3, 0xdd, 0x37, 0x98, 0x65,
  0x0a, 0x81, 0x21, 0x0a, 0x4f, 0x21, 0x37, 0xf3, 0x37, 0x65, 0x4f, 0x37,
  0x4f, 0xc6, 0x0a, 0xc6, 0x21, 0xc6, 0x37, 0xc6, 0x98, 0x4f, 0x65, 0x4f,
  0xf3, 0x4f, 0xdd, 0x37, 0x4f, 0x65, 0xdd, 0x21, 0x21, 0xc6, 0x21, 0x98,
  0xdd, 0xf3, 0xdd, 0x37, 0x37, 0xaf, 0xf3, 0xf3, 0xdd, 0x37, 0xc6, 0xc6,
  0xdd, 0xaf, 0xaf, 0x4f, 0x0a, 0x4f, 0x0a, 0x98, 0x98, 0x0a, 0x21, 0x0a,
  0x4f, 0xdd, 0x21, 0xc6, 0x37, 0xf3, 0x7c, 0xaf, 0x21, 0xc6, 0xaf, 0x21,
  0xdd, 0x81, 0x21, 0x7c, 0xc6, 0x0a, 0x21, 0xf3, 0x65, 0x4f, 0x0a, 0x21,
  0xf3, 0x98, 0xdd, 0x21, 0xdd, 0x21, 0xc6, 0x0a, 0xf3, 0xaf, 0x4f, 0xaf,
  0x37, 0xc6, 0xc6, 0x37, 0xdd, 0xc6, 0xf3, 0x0a, 0x0a, 0xaf, 0x21, 0xf3,
  0xf3, 0xc6, 0xaf, 0x37, 0x21, 0x98, 0xf3, 0x21, 0x21, 0x4f, 0xc6, 0xf3,
  0x37, 0xdd, 0x98, 0xc6, 0xc4, 0x51, 0x22, 0xdc, 0x22, 0x39, 0x51, 0x39,
  0x39, 0xf3, 0xad, 0x0a, 0xad, 0x51, 0x96, 0xf3, 0x51, 0x96, 0x22, 0x39,
  0x0a, 0x96, 0x51, 0xad, 0xf3, 0x22, 0xdc, 0xf3, 0x22, 0x96, 0x7f, 0x39,
  0xad, 0xf3, 0x68, 0x39, 0x0a, 0xdc, 0xad, 0x39, 0x0a, 0xc4, 0xdc, 0xc4,
  0x39, 0xf3, 0x22, 0x22, 0xdc, 0x68, 0x0a, 0x0a, 0x39, 0x51, 0x22, 0xf3,
  0xf3, 0xdc, 0xad, 0x22, 0xdc, 0x22, 0x51, 0x0a, 0x28, 0x0c, 0xd4, 0x81,
  0x28, 0x28, 0x7c, 0x61, 0x44, 0xf0, 0xb9, 0x9d, 0x44, 0x28, 0xd4, 0x0c,
  0x44, 0x44, 0xf0, 0x0c, 0xd4, 0xb9, 0x0c, 0x9d, 0x28, 0xb9, 0x61, 0x9d,
  0xf0, 0x0c, 0xb9, 0xf0, 0x0c, 0x28, 0xd4, 0x44, 0x44, 0x7c, 0x44, 0xd4,
  0x44, 0x9d, 0x28, 0x61, 0x0c, 0x44, 0xb9, 0xf0, 0x9d, 0x9d, 0xf0, 0x9d,
  0x7c, 0x44, 0x7c, 0x44, 0x7c, 0xb9, 0xd4, 0xd4, 0x61, 0x9d, 0xf0, 0xb9,
  0x3b, 0x29, 0xe6, 0xd5, 0xf7, 0xe6, 0x19, 0x4c, 0xd5, 0xe6, 0x07, 0xf7,
  0xb3, 0xc4, 0x07, 0xa1, 0x07, 0xc4, 0xd5, 0x07, 0x29, 0xf7, 0xf7, 0x07,
  0x19, 0x3b, 0x19, 0x29, 0x19, 0xe6, 0x19, 0xd5, 0xd5, 0x29, 0xf7, 0x07,
  0xe6, 0x29, 0x19, 0x5d, 0xe6, 0x19, 0xc4, 0xd5, 0x19, 0x29, 0xf7, 0x19,
  0x7f, 0x19, 0xf7, 0x07, 0xd5, 0x19, 0xe6, 0xe6, 0xc4, 0xd5, 0x4c, 0x29,
  0xb3, 0xd5, 0xb3, 0x3b, 0xf5, 0x1d, 0xe1, 0xf5, 0xf5, 0x08, 0xba, 0xce,
  0x30, 0xf5, 0x08, 0xf5, 0xf5, 0xe1, 0x58, 0xe1, 0x1d, 0x08, 0xe1, 0xba,
  0xba, 0xba, 0x08, 0x45, 0x1d, 0xba, 0x45, 0x45, 0xf5, 0x1d, 0xce, 0xf5,
  0xce, 0xe1, 0x45, 0xce, 0xf5, 0x7f, 0x58, 0x08, 0xce, 0xce, 0x1d, 0x58,
  0x30, 0x1d, 0xf5, 0x1d, 0xe1, 0x30, 0x08, 0x45, 0x45, 0x30, 0xce, 0x45,
  0x30, 0xba, 0x1d, 0x08, 0xf5, 0xe1, 0x1d, 0xa6, 0xcf, 0xe2, 0xcf, 0x43,
  0xf5, 0xcf, 0x81, 0xe2, 0xe2, 0xbb, 0x08, 0x2f, 0xbb, 0xa8, 0x56, 0x1c,
  0x1c, 0xcf, 0xe2, 0x2f, 0xcf, 0x08, 0x56, 0x1c, 0x2f, 0x08, 0xcf, 0xcf,
  0xe2, 0xcf, 0x2f, 0x1c, 0xbb, 0xbb, 0xcf, 0x43, 0x2f, 0xa8, 0x2f, 0x1c,
  0x1c, 0xf5, 0x1c, 0x1c, 0xbb, 0xcf, 0xe2, 0xf5, 0x1c, 0xbb, 0x08, 0x2f,
  0x1c, 0xf5, 0xf5, 0xf5, 0x08, 0xa8, 0xa8, 0x1c, 0x56, 0x94, 0x2f, 0xf5,
  0xaf, 0xdd, 0xdd, 0x21, 0x0a, 0x0a, 0x37, 0x0a, 0xaf, 0xaf, 0x0a, 0x0a,
  0xdd, 0xdd, 0x4f, 0x21, 0xc6, 0x37, 0x4f, 0x37, 0xf3, 0xaf, 0xdd, 0x37,
  0x98, 0xaf, 0x0a, 0xc6, 0x65, 0xaf, 0x37, 0x98, 0xc6, 0x21, 0x37, 0xf3,
  0x21, 0xf3, 0xf3, 0x21, 0xaf, 0xf3, 0x21, 0x21, 0xf3, 0xdd, 0xc6, 0x81,
  0xdd, 0xc6, 0xaf, 0x0a, 0x37, 0xaf, 0xaf, 0xf3, 0xaf, 0x4f, 0xdd, 0x21,
  0xf3, 0x0a, 0x0a, 0xf3, 0xf0, 0x7f, 0x29, 0x7f, 0x0c, 0xf0, 0xb7, 0x9b,
  0xb7, 0x7f, 0xd4, 0xf0, 0x46, 0x46, 0xb7, 0x63, 0xf0, 0xd4, 0x63, 0x46,
  0xd4, 0xb7, 0x46, 0xf0, 0xd4, 0xd4, 0x46, 0xd4, 0x0c, 0x0c, 0x29, 0x63,
  0x63, 0xb7, 0xd4, 0x46, 0xd4, 0xd4, 0x0c, 0x9b, 0x0c, 0x29, 0x29, 0xb7,
  0x0c, 0x63, 0xb7, 0x46, 0x0c, 0xd4, 0x0c, 0x9b, 0x46, 0x9b, 0x0c, 0xb7,
  0x0c, 0xd4, 0x63, 0x7f, 0x9b, 0xd4, 0x29, 0x9b, 0xc6, 0x7c, 0xc6, 0x37,
  0x21, 0x98, 0x0a, 0x0a, 0x21, 0x37, 0x37, 0x37, 0x0a, 0x98, 0xdd, 0xc6,
  0x37, 0x0a, 0xf3, 0x4f, 0xf3, 0xdd, 0xc6, 0x37, 0x37, 0x98, 0x37, 0x0a,
  0x0a, 0xf3, 0xdd, 0x4f, 0x37, 0xdd, 0x37, 0x0a, 0xdd, 0x21, 0x37, 0x37,
  0x21, 0xf3, 0xc6, 0x37, 0xf3, 0xaf, 0x0a, 0x37, 0xdd, 0x21, 0x0a, 0xaf,
  0x4f, 0xf3, 0x81, 0x37, 0x0a, 0x21, 0x65, 0xdd, 0x21, 0xc6, 0x21, 0x21,
  0x08, 0xce, 0xa6, 0xa6, 0xba, 0x1d, 0x1d, 0x1d, 0x7f, 0x30, 0xce, 0x08,
  0xe1, 0xe1, 0xf5, 0x1d, 0xce, 0xa6, 0x6b, 0xf5, 0x08, 0xe1, 0x45, 0x45,
  0xce, 0x30, 0xf5, 0xe1, 0x45, 0x08, 0x6b, 0x1d, 0xe1, 0x1d, 0x08, 0x30,
  0x30, 0x08, 0x45, 0x58, 0x1d, 0x1d, 0x92, 0x45, 0xba, 0xe1, 0x45, 0xe1,
  0x08, 0xce, 0x30, 0x08, 0x1d, 0xce, 0xe1, 0xba, 0x58, 0x1d, 0xce, 0x30,
  0xba, 0xba, 0xf5, 0xe1, 0x98, 0x98, 0x37, 0xc6, 0xf3, 0x21, 0x21, 0x21,
  0x21, 0xc6, 0x0a, 0xc6, 0x0a, 0x37, 0xdd, 0xc6, 0x0a, 0xc6, 0x21, 0x21,
  0x21, 0x21, 0xf3, 0x65, 0x0a, 0x37, 0xf3, 0xc6, 0xf3, 0xf3, 0xdd, 0xdd,
  0xf3, 0x65, 0x81, 0x4f, 0xaf, 0x7c, 0xc6, 0x21, 0xdd, 0x21, 0xdd, 0xaf,
  0xdd, 0x21, 0xdd, 0x21, 0xdd, 0xdd, 0x0a, 0x0a, 0x0a, 0x21, 0x21, 0x98,
  0x37, 0x0a, 0x4f, 0x0a, 0xdd, 0xdd, 0xf3, 0x37, 0x21, 0x0a, 0xaf, 0x37,
  0x37, 0xdd, 0x65, 0xf3, 0xdd, 0xaf, 0x21, 0xf3, 0xc6, 0xdd, 0x0a, 0x65,
  0xaf, 0xdd, 0xc6, 0xdd, 0xf3, 0xaf, 0x4f, 0x0a, 0x37, 0x98, 0xdd, 0x37,
  0x0a, 0x0a, 0xc6, 0xc6, 0x81, 0xc6, 0xf3, 0xc6, 0xf3, 0xc6, 0x7c, 0x0a,
  0xc6, 0xc6, 0xaf, 0x98, 0x37, 0xc6, 0x0a, 0xdd, 0x98, 0x65, 0xf3, 0x4f,
  0xaf, 0x7c, 0x65, 0x37, 0xdd, 0xdd, 0xf3, 0x4f, 0x98, 0xdd, 0x21, 0x65,
  0x30, 0xe1, 0x30, 0x1d, 0xe1, 0x45, 0xba, 0x30, 0xe1, 0xe1, 0x58, 0x08,
  0x7f, 0x08, 0xba, 0xa6, 0x6b, 0xf5, 0x7f, 0x1d, 0xe1, 0xa6, 0xba, 0x45,
  0xf5, 0x08, 0x08, 0x08, 0x58, 0xe1, 0xf5, 0xe1, 0xce, 0xf5, 0x58, 0x45,
  0x08, 0xce, 0xe1, 0xe1, 0xe1, 0xe1, 0x08, 0x08, 0xce, 0x45, 0x58, 0x08,
  0xe1, 0x1d, 0xba, 0x08, 0xe1, 0xce, 0xba, 0xf5, 0x30, 0xe1, 0x08, 0xf5,
  0x08, 0xce, 0x58, 0xe1, 0x22, 0xf3, 0x96, 0x22, 0x68, 0xdc, 0x68, 0x0a,
  0xad, 0xf3, 0xf3, 0x51, 0x0a, 0x22, 0xdc, 0x7f, 0xf3, 0xc4, 0x22, 0xf3,
  0xf3, 0x39, 0x39, 0x0a, 0x96, 0x22, 0x51, 0xdc, 0x22, 0x68, 0x39, 0xdc,
  0xdc, 0x51, 0xf3, 0x22, 0x0a, 0x22, 0x22, 0xc4, 0x51, 0x51, 0xc4, 0xdc,
  0xf3, 0x22, 0xc4, 0xdc, 0x96, 0xad, 0x51, 0xdc, 0x39, 0xdc, 0x22, 0xdc,
  0xad, 0xf3, 0x39, 0xf3, 0x68, 0xc4, 0x96, 0x39, 0x1d, 0x08, 0xa6, 0xa6,
  0x1d, 0xf5, 0xf5, 0xba, 0xba, 0xf5, 0xf5, 0xa6, 0x7f, 0xf5, 0x1d, 0x58,
  0xa6, 0x1d, 0x08, 0xe1, 0xce, 0xe1, 0x58, 0x1d, 0x1d, 0x08, 0xba, 0x45,
  0xe1, 0xf5, 0xf5, 0xba, 0x58, 0xe1, 0x30, 0x45, 0xf5, 0x30, 0xba, 0x30,
  0xce, 0xce, 0xce, 0xe1, 0x30, 0x30, 0x45, 0xba, 0x58, 0xf5, 0xce, 0xce,
  0xce, 0xba, 0x30, 0xa6, 0xce, 0xba, 0xa6, 0xba, 0xce, 0x08, 0xf5, 0x08,
  0x21, 0xdd, 0x65, 0xc6, 0x98, 0x37, 0xdd, 0xdd, 0x37, 0xc6, 0xc6, 0x37,
  0x21, 0x4f, 0x21, 0x37, 0x37, 0xc6, 0x4f, 0x98, 0x21, 0x98, 0x0a, 0xdd,
  0xdd, 0xf3, 0x37, 0xc6, 0x37, 0x65, 0x0a, 0x21, 0xf3, 0x37, 0xaf, 0x4f,
  0xf3, 0x4f, 0xaf, 0x37, 0xf3, 0xdd, 0xc6, 0x0a, 0x65, 0x21, 0xdd, 0xc6,
  0xdd, 0x98, 0xf3, 0xdd, 0xc6, 0xaf, 0xc6, 0x4f, 0x4f, 0x98, 0x37, 0x37,
  0x81, 0xdd, 0x4f, 0xaf, 0x22, 0x0a, 0x22, 0xad, 0xad, 0x0a, 0x22, 0x51,
  0x68, 0x51, 0x96, 0x0a, 0x39, 0x39, 0x22, 0x22, 0xf3, 0xdc, 0xc4, 0xdc,
  0xdc, 0x39, 0xc4, 0x51, 0xdc, 0xc4, 0x0a, 0x7f, 0xf3, 0xf3, 0x22, 0xc4,
  0x39, 0x68, 0xc4, 0xc4, 0xf3, 0xdc, 0x22, 0x0a, 0x0a, 0xf3, 0x0a, 0xf3,
  0xf3, 0xad, 0x22, 0x7f, 0x0a, 0x22, 0x22, 0x39, 0x0a, 0x0a, 0x0a, 0xdc,
  0xc4, 0xad, 0x22, 0x96, 0xc4, 0xf3, 0xdc, 0x22, 0x21, 0x0a, 0xc6, 0x21,
  0xdd, 0x21, 0x21, 0x65, 0xaf, 0x0a, 0x0a, 0xf3, 0x21, 0xdd, 0xaf, 0xaf,
  0x0a, 0xf3, 0x21, 0xf3, 0x98, 0x21, 0x21, 0xf3, 0xf3, 0xaf, 0x37, 0x21,
  0xc6, 0x0a, 0xdd, 0x37, 0x21, 0x65, 0x98, 0x37, 0xf3, 0x4f, 0x0a, 0xdd,
  0x37, 0xc6, 0xf3, 0xdd, 0x4f, 0xaf, 0xf3, 0x81, 0xaf, 0xc6, 0xdd, 0xaf,
  0xf3, 0x0a, 0xdd, 0x0a, 0xc6, 0x37, 0xdd, 0xf3, 0x37, 0xc6, 0x98, 0x37,
  0xf5, 0x1c, 0x1c, 0x1c, 0x08, 0xf5, 0x08, 0x1c, 0x1c, 0x43, 0x81, 0xcf,
  0x56, 0xe2, 0x08, 0xe2, 0x43, 0x1c, 0x56, 0xe2, 0x2f, 0x08, 0x94, 0xf5,
  0xcf, 0x69, 0x1c, 0xe2, 0x08, 0x08, 0xe2, 0xcf, 0x2f, 0x08, 0x08, 0x1c,
  0xcf, 0xcf, 0x1c, 0xe2, 0x2f, 0x1c, 0xe2, 0x94, 0xcf, 0x43, 0x43, 0xe2,
  0x81, 0xbb, 0x08, 0x56, 0xbb, 0xe2, 0xe2, 0xa8, 0x1c, 0xe2, 0xe2, 0xa8,
  0x2f, 0x1c, 0xe2, 0xcf, 0xf5, 0x08, 0x45, 0x58, 0xe1, 0xba, 0x30, 0x45,
  0xba, 0x58, 0x1d, 0xf5, 0x1d, 0xe1, 0xce, 0x58, 0x45, 0x30, 0xe1, 0x30,
  0x30, 0x08, 0xe1, 0xa6, 0x45, 0x1d, 0xce, 0xf5, 0xce, 0x58, 0x30, 0xba,
  0xba, 0xf5, 0xf5, 0x1d, 0xce, 0xf5, 0xe1, 0x45, 0xf5, 0xa6, 0xce, 0x1d,
  0x1d, 0xce, 0x08, 0xe1, 0x45, 0xba, 0xce, 0x08, 0x08, 0x1d, 0x6b, 0x45,
  0x08, 0xba, 0x08, 0xba, 0x1d, 0x7f, 0x30, 0x58, 0x0a, 0x51, 0xc4, 0xad,
  0xdc, 0x22, 0x22, 0x22, 0x22, 0x96, 0xf3, 0xdc, 0x96, 0xdc, 0xc4, 0x22,
  0x96, 0xc4, 0xf3, 0xad, 0x0a, 0xf3, 0xf3, 0x7f, 0x22, 0xf3, 0xdc, 0x22,
  0xf3, 0x0a, 0xc4, 0xad, 0xc4, 0xdc, 0x0a, 0xf3, 0xc4, 0x7f, 0x39, 0xad,
  0x68, 0x96, 0xf3, 0x96, 0xf3, 0xad, 0x51, 0xf3, 0xad, 0xad, 0xf3, 0x96,
  0x68, 0x22, 0x0a, 0x39, 0x39, 0xf3, 0x51, 0xc4, 0x7f, 0xad, 0xf3, 0xdc,
  0xdd, 0xdd, 0xf3, 0x0a, 0x0a, 0x0a, 0x98, 0xf3, 0xdd, 0x0a, 0x81, 0xf3,
  0xdd, 0x21, 0x65, 0x65, 0xc6, 0xdd, 0x65, 0x21, 0x37, 0xc6, 0xdd, 0x21,
  0xc6, 0x4f, 0xf3, 0x4f, 0xdd, 0x37, 0x0a, 0x21, 0xf3, 0x4f, 0xdd, 0x0a,
  0xc6, 0xc6, 0x4f, 0x0a, 0x7c, 0xaf, 0x65, 0x37, 0x0a, 0xdd, 0xdd, 0xc6,
  0x0a, 0xaf, 0xdd, 0xaf, 0xf3, 0x0a, 0x98, 0x0a, 0x98, 0x7c, 0xf3, 0xdd,
  0xf3, 0x37, 0x0a, 0x21, 0xf5, 0x1c, 0x08, 0x08, 0xbb, 0x1c, 0x43, 0xcf,
  0x43, 0x2f, 0x1c, 0x94, 0xe2, 0x43, 0xf5, 0x08, 0xa8, 0xcf, 0x43, 0xf5,
  0xbb, 0xcf, 0x1c, 0xe2, 0xe2, 0x69, 0x08, 0xe2, 0x43, 0x08, 0xe2, 0x1c,
  0x2f, 0x1c, 0xcf, 0xa8, 0xf5, 0x43, 0x08, 0xcf, 0xf5, 0xe2, 0x08, 0x2f,
  0xe2, 0x43, 0xcf, 0x1c, 0x2f, 0x1c, 0xbb, 0xf5, 0x2f, 0x1c, 0xa8, 0x08,
  0xcf, 0xf5, 0x1c, 0xbb, 0xf5, 0xe2, 0x08, 0x81, 0x37, 0x98, 0xdd, 0xdd,
  0x37, 0xdd, 0xf3, 0xdd, 0x0a, 0x7c, 0x37, 0x98, 0xdd, 0x0a, 0x21, 0xf3,
  0xaf, 0xc6, 0xdd, 0x21, 0xc6, 0x37, 0xdd, 0x37, 0x0a, 0xaf, 0xaf, 0xf3,
  0xc6, 0x21, 0x98, 0x21, 0x37, 0x21, 0xaf, 0xdd, 0xc6, 0xdd, 0xf3, 0x21,
  0xf3, 0x21, 0x81, 0x98, 0xf3, 0xf3, 0x21, 0x21, 0xdd, 0x65, 0xdd, 0x81,
  0x4f, 0xc6, 0xf3, 0xc6, 0xf3, 0xf3, 0xaf, 0x4f, 0x0a, 0xdd, 0xaf, 0xaf,
  0xa8, 0x43, 0x2f, 0xcf, 0x43, 0x43, 0x08, 0x43, 0xf5, 0x1c, 0xe2, 0xcf,
  0xe2, 0x08, 0x1c, 0x1c, 0xf5, 0x1c, 0xf5, 0xa8, 0xcf, 0xbb, 0xcf, 0x08,
  0x1c, 0x43, 0x2f, 0x1c, 0xbb, 0xbb, 0x43, 0xa8, 0xcf, 0xf5, 0x08, 0xcf,
  0xcf, 0x2f, 0x1c, 0x08, 0x1c, 0x08, 0xcf, 0x43, 0xbb, 0x43, 0xa8, 0xcf,
  0xbb, 0xe2, 0x81, 0x2f, 0xe2, 0xcf, 0x2f, 0xa8, 0xf5, 0x1c, 0xe2, 0xf5,
  0x7d, 0x08, 0xa8, 0x08, 0x1c, 0xcf, 0x1c, 0x1c, 0x08, 0xe2, 0xe2, 0xe2,
  0x1c, 0x08, 0xe2, 0xcf, 0x1c, 0x2f, 0x08, 0xf5, 0xcf, 0x1c, 0xcf, 0xbb,
  0x43, 0xe2, 0x56, 0x94, 0x08, 0xf5, 0x08, 0xbb, 0x43, 0xa8, 0x56, 0xcf,
  0x08, 0x81, 0xa8, 0xcf, 0xcf, 0xcf, 0xf5, 0xcf, 0xa8, 0x1c, 0x2f, 0xbb,
  0xf5, 0xf5, 0x1c, 0x1c, 0xcf, 0x43, 0x2f, 0xf5, 0x1c, 0xe2, 0xbb, 0xcf,
  0x08, 0x69, 0xe2, 0x08, 0x1c, 0xf5, 0x1c, 0xf5, 0x0a, 0xdd, 0x21, 0xf3,
  0x21, 0xc6, 0xdd, 0xc6, 0x37, 0x4f, 0xc6, 0x21, 0xdd, 0x37, 0x37, 0x81,
  0x65, 0xf3, 0x98, 0x65, 0x4f, 0xdd, 0xaf, 0x21, 0x21, 0x21, 0xdd, 0xdd,
  0xdd, 0x37, 0xaf, 0x21, 0x37, 0xdd, 0xf3, 0xdd, 0x37, 0xdd, 0x37, 0x0a,
  0x21, 0x0a, 0xf3, 0x0a, 0x81, 0x98, 0x4f, 0xc6, 0x0a, 0x4f, 0xdd, 0x65,
  0x81, 0x37, 0xdd, 0xf3, 0xc6, 0xf3, 0xc6, 0xaf, 0xf3, 0x21, 0x98, 0xf3,
  0x0a, 0xdc, 0xdc, 0xdc, 0x39, 0x22, 0x39, 0x0a, 0xf3, 0x22, 0xdc, 0x68,
  0x22, 0x96, 0xc4, 0x0a, 0xad, 0x0a, 0xdc, 0x96, 0xf3, 0xdc, 0xdc, 0x39,
  0x68, 0x0a, 0x51, 0xc4, 0xdc, 0xad, 0x68, 0xf3, 0xf3, 0xf3, 0xad, 0x22,
  0x39, 0x51, 0x96, 0xdc, 0x7f, 0xad, 0x22, 0xad, 0x68, 0x7f, 0x39, 0x22,
  0xdc, 0x51, 0x51, 0x68, 0xad, 0x39, 0xdc, 0x39, 0xdc, 0x39, 0x0a, 0xdc,
  0x0a, 0xdc, 0xad, 0xad, 0x08, 0x2f, 0x2f, 0xe2, 0xf5, 0x1c, 0xa8, 0x2f,
  0x08, 0x08, 0xcf, 0x08, 0xf5, 0xbb, 0xbb, 0xcf, 0x08, 0xe2, 0x2f, 0xe2,
  0xbb, 0xbb, 0x1c, 0xf5, 0xcf, 0x1c, 0x2f, 0xcf, 0xe2, 0x2f, 0x2f, 0x94,
  0xa8, 0x2f, 0x2f, 0xe2, 0x43, 0xcf, 0x1c, 0x2f, 0x43, 0x1c, 0xe2, 0x2f,
  0x1c, 0xa8, 0x1c, 0x43, 0x2f, 0xf5, 0x43, 0xf5, 0xbb, 0x69, 0xf5, 0x1c,
  0x2f, 0xe2, 0xbb, 0x81, 0xf5, 0xf5, 0xcf, 0x08, 0x2f, 0xf5, 0x08, 0xe2,
  0x08, 0xe2, 0xf5, 0x1c, 0x08, 0xe2, 0xe2, 0xbb, 0x1c, 0xf5, 0x43, 0x08,
  0xe2, 0x1c, 0xbb, 0xe2, 0xe2, 0xe2, 0xcf, 0xa8, 0x1c, 0xf5, 0xf5, 0x08,
  0x56, 0x08, 0xcf, 0xbb, 0xf5, 0x43, 0xcf, 0x08, 0x08, 0xcf, 0x08, 0xbb,
  0xcf, 0xe2, 0x2f, 0x08, 0x2f, 0xe2, 0xa8, 0xcf, 0xe2, 0x1c, 0x2f, 0xe2,
  0x08, 0x08, 0xcf, 0xf5, 0xcf, 0xcf, 0x81, 0x08, 0xe2, 0x43, 0xe2, 0xbb,
  0x18, 0x07, 0x18, 0xd5, 0xf7, 0xf7, 0xf7, 0x4b, 0x4b, 0x07, 0x29, 0x4b,
  0xb4, 0x07, 0xd5, 0x5b, 0xe6, 0x29, 0x07, 0x18, 0x07, 0xc4, 0x07, 0xb4,
  0xf7, 0xf7, 0x18, 0xf7, 0x29, 0xf7, 0xd5, 0xf7, 0x18, 0x18, 0xf7, 0x18,
  0x29, 0xc4, 0xe6, 0x07, 0x29, 0x18, 0xf7, 0xd5, 0xd5, 0xe6, 0xb4, 0x4b,
  0xb4, 0xf7, 0x18, 0x18, 0xe6, 0xe6, 0xe6, 0xe6, 0x18, 0x18, 0x18, 0x81,
  0x07, 0x3a, 0x3a, 0x07, 0x4f, 0x0a, 0xaf, 0x0a, 0xf3, 0xdd, 0x0a, 0xf3,
  0x0a, 0xdd, 0xc6, 0xdd, 0x21, 0x21, 0xf3, 0xdd, 0x4f, 0xf3, 0xdd, 0x37,
  0x4f, 0x21, 0xf3, 0xc6, 0xf3, 0x81, 0x0a, 0x65, 0x21, 0x0a, 0xc6, 0x81,
  0x0a, 0x21, 0x98, 0x21, 0x37, 0x0a, 0xdd, 0x21, 0x21, 0xc6, 0x65, 0x4f,
  0x4f, 0xc6, 0x0a, 0x0a, 0x37, 0xf3, 0x0a, 0xaf, 0x65, 0x21, 0xc6, 0xdd,
  0xdd, 0x81, 0xdd, 0x0a, 0x21, 0x37, 0x98, 0x21, 0xe2, 0x43, 0x08, 0xcf,
  0xcf, 0xbb, 0xf5, 0xa8, 0x08, 0xbb, 0xa8, 0x69, 0x08, 0xe2, 0x08, 0xf5,
  0xcf, 0xcf, 0x43, 0x56, 0x1c, 0xe2, 0xe2, 0x2f, 0x2f, 0x81, 0x1c, 0xcf,
  0x1c, 0xf5, 0xe2, 0xcf, 0xf5, 0xf5, 0x1c, 0x1c, 0x1c, 0x08, 0x2f, 0xe2,
  0x1c, 0xbb, 0xcf, 0xa8, 0x43, 0x08, 0x08, 0x1c, 0x08, 0x1c, 0xf5, 0x08,
  0xe2, 0xf5, 0x1c, 0x1c, 0xf5, 0x2f, 0x08, 0xbb, 0xf5, 0x7d, 0xe2, 0x2f,
  0x2f, 0x1c, 0x1c, 0xa8, 0x1c, 0xcf, 0x56, 0xe2, 0x08, 0xbb, 0x1c, 0x43,
  0xbb, 0x2f, 0x1c, 0x08, 0xe2, 0xe2, 0xbb, 0x94, 0xe2, 0xcf, 0x2f, 0x2f,
  0x08, 0xe2, 0x1c, 0x2f, 0xcf, 0xe2, 0x08, 0x2f, 0xa8, 0x7d, 0xcf, 0x81,
  0xf5, 0xf5, 0xe2, 0xf5, 0xe2, 0xe2, 0x1c, 0x2f, 0x1c, 0xe2, 0xcf, 0x43,
  0x43, 0xcf, 0xe2, 0xe2, 0x56, 0xf5, 0x1c, 0x2f, 0xcf, 0x08, 0xbb, 0xf5,
  0x1c, 0xf5, 0xf5, 0xe2, 0xdd, 0x65, 0x0a, 0x65, 0x65, 0x37, 0x81, 0xdd,
  0x21, 0xc6, 0xf3, 0x65, 0xdd, 0xdd, 0xdd, 0x21, 0x21, 0xdd, 0xc6, 0x0a,
  0xaf, 0xc6, 0xf3, 0x65, 0x21, 0xdd, 0xf3, 0xaf, 0xc6, 0x0a, 0x0a, 0x4f,
  0xf3, 0xf3, 0x37, 0x21, 0x7c, 0x21, 0xaf, 0xf3, 0x65, 0x98, 0xc6, 0x0a,
  0xf3, 0xdd, 0x37, 0x0a, 0xc6, 0xf3, 0x21, 0xf3, 0xf3, 0x37, 0xdd, 0x0a,
  0x0a, 0x37, 0xf3, 0x21, 0xdd, 0x37, 0xc6, 0x81, 0xdd, 0xdd, 0x0a, 0x98,
  0xc6, 0x81, 0x0a, 0xdd, 0x98, 0x0a, 0xf3, 0x21, 0xf3, 0x21, 0xaf, 0x21,
  0x7c, 0xc6, 0xf3, 0x65, 0xf3, 0xf3, 0xc6, 0x0a, 0xdd, 0xdd, 0x37, 0x0a,
  0x37, 0x21, 0x4f, 0xdd, 0x4f, 0xaf, 0x21, 0xf3, 0x37, 0xdd, 0x4f, 0x37,
  0xdd, 0x81, 0x21, 0x81, 0x21, 0x0a, 0xdd, 0x21, 0xdd, 0x65, 0x37, 0xdd,
  0x0a, 0x37, 0xdd, 0xf3, 0x98, 0x21, 0xdd, 0x0a, 0x21, 0xaf, 0x0a, 0x4f,
  0xce, 0xe1, 0x1d, 0x45, 0x45, 0x58, 0xba, 0x30, 0x1d, 0x08, 0xce, 0x30,
  0x1d, 0x45, 0x08, 0x45, 0xba, 0x08, 0x30, 0x1d, 0x08, 0x30, 0xf5, 0x58,
  0x08, 0xce, 0x30, 0x08, 0x1d, 0x45, 0x45, 0xf5, 0x30, 0xce, 0xe1, 0x45,
  0xf5, 0x30, 0x30, 0xba, 0x08, 0xf5, 0xa6, 0xce, 0xa6, 0x30, 0x08, 0x45,
  0xf5, 0x08, 0x1d, 0xba, 0xf5, 0x45, 0x08, 0x1d, 0xce, 0x7f, 0x1d, 0x30,
  0x58, 0x1d, 0xba, 0xf5, 0x52, 0xb6, 0xff, 0xff, 0x04, 0x00, 0x00, 0x00,
  0x00, 0x01, 0x00, 0x00, 0xe9, 0x15, 0x00, 0x00, 0x23, 0xfa, 0xff, 0xff,
  0x1f, 0xf6, 0xff, 0xff, 0x39, 0x07, 0x00, 0x00, 0xea, 0x12, 0x00, 0x00,
  0x19, 0x11, 0x00, 0x00, 0x72, 0xf3, 0xff, 0xff, 0x8b, 0x00, 0x00, 0x00,
  0x4c, 0xfa, 0xff, 0xff, 0x18, 0xf7, 0xff, 0xff, 0x79, 0xfa, 0xff, 0xff,
  0x5c, 0xff, 0xff, 0xff, 0x3b, 0xf7, 0xff, 0xff, 0x62, 0xfc, 0xff, 0xff,
  0xc3, 0x0a, 0x00, 0x00, 0x2c, 0x0d, 0x00, 0x00, 0x69, 0x00, 0x00, 0x00,
  0xcb, 0xfe, 0xff, 0xff, 0x08, 0xfc, 0xff, 0xff, 0xc9, 0x05, 0x00, 0x00,
  0x2e, 0x05, 0x00, 0x00, 0xc1, 0xfd, 0xff, 0xff, 0x6c, 0x01, 0x00, 0x00,
  0x5d, 0xf5, 0xff, 0xff, 0xf6, 0x07, 0x00, 0x00, 0x83, 0xfd, 0xff, 0xff,
  0x98, 0xf7, 0xff, 0xff, 0x12, 0x02, 0x00, 0x00, 0x42, 0xff, 0xff, 0xff,
  0x82, 0xfb, 0xff, 0xff, 0x65, 0x0c, 0x00, 0x00, 0xec, 0x01, 0x00, 0x00,
  0x77, 0xf9, 0xff, 0xff, 0xc3, 0xfc, 0xff, 0xff, 0x9b, 0x05, 0x00, 0x00,
  0xcc, 0xfd, 0xff, 0xff, 0x73, 0x05, 0x00, 0x00, 0xab, 0x01, 0x00, 0x00,
  0xaa, 0xf3, 0xff, 0xff, 0xec, 0x0e, 0x00, 0x00, 0x6d, 0x04, 0x00, 0x00,
  0xd3, 0xf2, 0xff, 0xff, 0xf6, 0xf8, 0xff, 0xff, 0x41, 0x15, 0x00, 0x00,
  0xea, 0xfe, 0xff, 0xff, 0x62, 0x14, 0x00, 0x00, 0x62, 0xf9, 0xff, 0xff,
  0xc7, 0x02, 0x00, 0x00, 0x73, 0x12, 0x00, 0x00, 0x90, 0x09, 0x00, 0x00,
  0x19, 0x04, 0x00, 0x00, 0xc8, 0x09, 0x00, 0x00, 0xe1, 0xfd, 0xff, 0xff,
  0x1a, 0x00, 0x00, 0x00, 0x14, 0xfe, 0xff, 0xff, 0x50, 0xfd, 0xff, 0xff,
  0x4e, 0xfc, 0xff, 0xff, 0x4c, 0xfd, 0xff, 0xff, 0xa3, 0x01, 0x00, 0x00,
  0x12, 0xf8, 0xff, 0xff, 0x59, 0xff, 0xff, 0xff, 0xab, 0xf1, 0xff, 0xff,
  0xd0, 0x02, 0x00, 0x00, 0x45, 0xfd, 0xff, 0xff, 0x5e, 0xb7, 0xff, 0xff,
  0x04, 0x00, 0x00, 0x00, 0x40, 0x02, 0x00, 0x00, 0x81, 0x3a, 0x23, 0xaf,
  0xf4, 0x0b, 0x81, 0xf4, 0x0b, 0x51, 0x81, 0x51, 0x23, 0x98, 0x68, 0xdd,
  0xc7, 0xf4, 0x31, 0xd0, 0x58, 0x7f, 0x1d, 0x1d, 0x09, 0x09, 0x1d, 0x81,
  0x11, 0xed, 0xa7, 0x5b, 0xa7, 0xc8, 0xed, 0xc8, 0x0b, 0x98, 0x81, 0x98,
  0x3a, 0xc7, 0xc7, 0xaf, 0xdd, 0x6e, 0x08, 0xb4, 0x5c, 0xe6, 0xf7, 0x7f,
  0x19, 0xd7, 0x98, 0xc7, 0xaf, 0x81, 0xc7, 0xf4, 0xc7, 0xaf, 0xc7, 0xd0,
  0x1d, 0xd0, 0xbc, 0x31, 0x81, 0xe2, 0x31, 0xd0, 0x51, 0xaf, 0x23, 0x51,
  0xc7, 0x0b, 0x51, 0x81, 0xf4, 0x0e, 0x0e, 0x47, 0x63, 0xf1, 0x47, 0x7f,
  0x47, 0x7f, 0x7f, 0xf4, 0x23, 0x68, 0x0b, 0x7f, 0x3a, 0x0b, 0x23, 0x51,
  0x0b, 0x23, 0x68, 0xf4, 0x7f, 0x23, 0xf4, 0x23, 0xc7, 0xc7, 0xaf, 0x98,
  0xdd, 0x81, 0x0b, 0xc7, 0xdd, 0x7f, 0xf1, 0xf1, 0x7f, 0xbb, 0x63, 0x2a,
  0x0e, 0xd5, 0x9d, 0x0e, 0x81, 0xbb, 0xf1, 0xbb, 0xf1, 0xbb, 0x9d, 0x81,
  0x2a, 0xf1, 0xf1, 0x2a, 0x2a, 0x9d, 0x2a, 0x9d, 0xbb, 0x0e, 0xf1, 0xf1,
  0xf1, 0x81, 0xd5, 0xf1, 0xbb, 0x44, 0xf6, 0x7f, 0x44, 0x09, 0x7f, 0x58,
  0x09, 0x6b, 0x68, 0x23, 0x68, 0x3a, 0x23, 0x7f, 0x68, 0xf4, 0x3a, 0x47,
  0xbb, 0x81, 0x63, 0xf1, 0x2a, 0xf1, 0x9d, 0xd5, 0xc9, 0x11, 0x81, 0x7f,
  0x11, 0xa7, 0x36, 0xc9, 0x81, 0x7f, 0xbb, 0x47, 0xf1, 0x63, 0xd5, 0x7f,
  0x0e, 0x0e, 0xc7, 0x98, 0x51, 0xf4, 0xdd, 0x3a, 0x0b, 0xaf, 0x7f, 0xc7,
  0xdd, 0xaf, 0xf4, 0x0b, 0xdd, 0xdd, 0xdd, 0x81, 0x63, 0x0e, 0x7f, 0x47,
  0xbb, 0x63, 0x7f, 0x0e, 0x63, 0x47, 0x63, 0x81, 0x47, 0xd5, 0xf1, 0x2a,
  0x63, 0xbb, 0xaf, 0xaf, 0xdd, 0x81, 0xaf, 0x81, 0xc7, 0x98, 0xc7, 0x51,
  0x0b, 0x51, 0x7f, 0x0b, 0x7f, 0x68, 0xf4, 0x0b, 0xbc, 0xe2, 0x09, 0xd0,
  0x09, 0x81, 0xd0, 0x09, 0x09, 0x0e, 0x7f, 0xbb, 0x0e, 0x63, 0x0e, 0x0e,
  0x7f, 0x9d, 0x81, 0xd5, 0x9d, 0x47, 0x9d, 0x0e, 0xd5, 0x0e, 0xf1, 0xc7,
  0xf4, 0x81, 0xaf, 0x23, 0xc7, 0xaf, 0xdd, 0xc7, 0xed, 0x36, 0x5b, 0xed,
  0x11, 0x7f, 0x5b, 0xa7, 0x7f, 0x1d, 0xf6, 0x81, 0xe2, 0xe2, 0xd0, 0x1d,
  0xd0, 0x81, 0x11, 0xa7, 0x5b, 0x7f, 0xed, 0x5b, 0xc9, 0xed, 0x11, 0x81,
  0xdd, 0xdd, 0xaf, 0xdd, 0xaf, 0xaf, 0xf4, 0xdd, 0x98, 0xaf, 0xaf, 0x98,
  0x98, 0xf4, 0xf4, 0x81, 0xc7, 0x81, 0x47, 0xf1, 0xd5, 0x9d, 0x2a, 0x81,
  0x0e, 0x63, 0x81, 0x2a, 0xd5, 0xbb, 0xf1, 0x81, 0xbb, 0x2a, 0xf1, 0xbb,
  0x0e, 0x63, 0x81, 0xf1, 0x47, 0xbb, 0x7f, 0x47, 0xaf, 0x0b, 0xf4, 0x81,
  0x23, 0x0b, 0x81, 0x23, 0x0b, 0x47, 0x2a, 0x2a, 0x47, 0x0e, 0x7f, 0x2a,
  0x7f, 0x2a, 0x9d, 0x0e, 0x81, 0xd5, 0x9d, 0xf1, 0xd5, 0xd5, 0x9d, 0x5b,
  0x5b, 0x7f, 0x7f, 0x5b, 0x7f, 0xa7, 0xed, 0x36, 0x61, 0x07, 0x07, 0x7f,
  0xe9, 0x43, 0x61, 0xf8, 0xf8, 0x81, 0x1d, 0xbc, 0xa8, 0x31, 0x09, 0xa8,
  0x44, 0xd0, 0xf4, 0x23, 0xdd, 0xdd, 0x23, 0xc7, 0x23, 0x7f, 0x51, 0xf1,
  0xbb, 0x63, 0x81, 0xf1, 0x9d, 0xf1, 0x9d, 0x47, 0x37, 0x81, 0x5b, 0x81,
  0xed, 0x81, 0xa7, 0x81, 0x37, 0x81, 0xd5, 0xbb, 0xbb, 0xf1, 0x9d, 0x81,
  0xd5, 0x9d, 0x31, 0xbc, 0x44, 0x44, 0xd0, 0x7f, 0xf6, 0xe2, 0x1d, 0x0b,
  0x23, 0x7f, 0x0b, 0x0b, 0x51, 0x23, 0xf4, 0x7f, 0x9d, 0x2a, 0x81, 0xbb,
  0x0e, 0xbb, 0xbb, 0x0e, 0xd5, 0x11, 0xc9, 0x81, 0xed, 0x7f, 0x81, 0xed,
  0x11, 0xed, 0xc8, 0x81, 0xc8, 0xa7, 0x11, 0x81, 0xa7, 0xc8, 0xc8, 0x2a,
  0x63, 0x47, 0x7f, 0x2a, 0x47, 0x63, 0x2a, 0x0e, 0xed, 0xa7, 0xc9, 0x7f,
  0xa7, 0x11, 0x11, 0xc9, 0x11, 0x63, 0x0e, 0x63, 0x47, 0x2a, 0xf1, 0x63,
  0xbb, 0x7f, 0x0e, 0x81, 0x0e, 0x47, 0x0e, 0x7f, 0x47, 0xf1, 0x63, 0xc8,
  0x5b, 0xed, 0xed, 0x37, 0x81, 0xc8, 0x5b, 0x81, 0x7f, 0x09, 0x31, 0x6b,
  0x09, 0x58, 0x44, 0xd0, 0x44, 0x9d, 0xf1, 0xd5, 0x0e, 0x47, 0x0e, 0x81,
  0x47, 0xf1, 0x81, 0x5b, 0xa7, 0xa7, 0xed, 0xed, 0xc8, 0x11, 0xc8, 0xbc,
  0x58, 0xbc, 0xa8, 0x7f, 0x95, 0xe2, 0x58, 0xe2, 0xaa, 0xb9, 0xff, 0xff,
  0x04, 0x00, 0x00, 0x00, 0x00, 0x20, 0x00, 0x00, 0x4c, 0x02, 0xe9, 0x02,
  0xe9, 0xb6, 0x9d, 0x33, 0xe9, 0xe9, 0xe9, 0x33, 0x1a, 0x02, 0xd0, 0x1a,
  0x4c, 0x66, 0x02, 0xe9, 0xd0, 0x33, 0xe9, 0x33, 0xd0, 0x02, 0xe9, 0xb6,
  0x1a, 0x33, 0xe9, 0x4c, 0xb6, 0x4c, 0x33, 0x33, 0xe9, 0x4c, 0xd0, 0x85,
  0x9d, 0xe9, 0xe9, 0xe9, 0x66, 0x02, 0xe9, 0xd0, 0xb6, 0xe9, 0x4c, 0xd0,
  0x33, 0xe9, 0x02, 0x02, 0xe9, 0x1a, 0x7f, 0xe9, 0x1a, 0x1a, 0xd0, 0xd0,
  0x2c, 0x01, 0x01, 0x2c, 0x16, 0x41, 0x57, 0x01, 0xec, 0x2c, 0x2c, 0xd7,
  0xec, 0x2c, 0x01, 0x41, 0x57, 0xc1, 0xec, 0xc1, 0xd7, 0xd7, 0x01, 0x2c,
  0x41, 0xc1, 0xd7, 0x16, 0x2c, 0x16, 0x16, 0xd7, 0x2c, 0x01, 0x01, 0xac,
  0x81, 0xec, 0xc1, 0x2c, 0x16, 0x01, 0xac, 0xc1, 0x01, 0x01, 0x41, 0x01,
  0x41, 0x01, 0x2c, 0xc1, 0xd7, 0x01, 0x2c, 0xec, 0x41, 0xec, 0x16, 0xc1,
  0x16, 0xc1, 0x57, 0x41, 0x33, 0xe9, 0x02, 0x33, 0x33, 0x33, 0xd0, 0xb6,
  0x9d, 0x02, 0x4c, 0x02, 0x66, 0x1a, 0x1a, 0x02, 0x02, 0x7f, 0x02, 0xe9,
  0x33, 0xe9, 0xd0, 0x66, 0x02, 0xb6, 0x4c, 0x02, 0x7f, 0x02, 0x4c, 0x1a,
  0x1a, 0x9d, 0x02, 0x9d, 0xe9, 0x33, 0xe9, 0x33, 0xd0, 0xd0, 0x4c, 0x02,
  0x4c, 0x7f, 0x33, 0xe9, 0x1a, 0x4c, 0xe9, 0x66, 0x1a, 0x4c, 0x4c, 0x4c,
  0x02, 0x4c, 0x33, 0x9d, 0x1a, 0xe9, 0x9d, 0x02, 0x33, 0x4c, 0xd0, 0x85,
  0x1a, 0x66, 0x1a, 0x9d, 0xd0, 0x02, 0xe9, 0x4c, 0x02, 0xb6, 0x4c, 0x33,
  0xe9, 0xd0, 0x02, 0xe9, 0x9d, 0xd0, 0xd0, 0x02, 0xd0, 0xd0, 0x02, 0xd0,
  0x1a, 0xb6, 0x1a, 0x1a, 0x02, 0xe9, 0xe9, 0x02, 0x33, 0xd0, 0xd0, 0x9d,
  0x02, 0x02, 0xe9, 0x9d, 0x66, 0xd0, 0x4c, 0xe9, 0x02, 0xe9, 0xe9, 0x02,
  0x85, 0x9d, 0x9d, 0x1a, 0xd0, 0x02, 0xe9, 0x4c, 0x9d, 0x1a, 0xe9, 0x7f,
  0x02, 0xd0, 0x33, 0x02, 0x02, 0x7f, 0x02, 0x02, 0x66, 0x66, 0xe9, 0xe9,
  0xb6, 0xb6, 0x02, 0x66, 0x4c, 0x33, 0xe9, 0xb6, 0xe9, 0x1a, 0xe9, 0x33,
  0x1a, 0x1a, 0x02, 0x1a, 0x4c, 0xd0, 0x7f, 0x1a, 0xb6, 0x9d, 0xe9, 0x4c,
  0x9d, 0xd0, 0x1a, 0x33, 0x33, 0xd0, 0x1a, 0x9d, 0xe9, 0x02, 0x02, 0xb6,
  0x4c, 0xe9, 0x9d, 0x33, 0xb6, 0x66, 0x02, 0x02, 0x1a, 0x02, 0x33, 0x02,
  0xd0, 0xb6, 0x1a, 0x66, 0xc1, 0x81, 0x16, 0x41, 0x2c, 0xd7, 0xac, 0x01,
  0x01, 0x01, 0x57, 0x16, 0x01, 0xec, 0xec, 0xc1, 0xc1, 0x2c, 0x2c, 0x57,
  0xec, 0xd7, 0x41, 0x16, 0x16, 0x16, 0x57, 0x2c, 0xec, 0x41, 0xc1, 0xc1,
  0x41, 0xec, 0x01, 0x16, 0xec, 0x57, 0x97, 0x16, 0xec, 0xec, 0xd7, 0x2c,
  0xd7, 0x16, 0x16, 0xd7, 0x01, 0x57, 0xec, 0x41, 0x41, 0xd7, 0x57, 0x41,
  0x16, 0xd7, 0x41, 0x16, 0xd7, 0x01, 0x01, 0xec, 0x1a, 0xe9, 0x33, 0xd0,
  0xb6, 0x02, 0xd0, 0xd0, 0x4c, 0x33, 0x66, 0x7f, 0x66, 0xd0, 0x33, 0x9d,
  0x9d, 0x4c, 0xd0, 0x4c, 0x33, 0x1a, 0x02, 0x33, 0x02, 0x33, 0xe9, 0x1a,
  0xd0, 0x02, 0x1a, 0x66, 0xe9, 0x02, 0x4c, 0x1a, 0xd0, 0x4c, 0xe9, 0xe9,
  0xb6, 0x9d, 0x33, 0x02, 0xd0, 0xd0, 0xd0, 0xd0, 0x33, 0x33, 0xb6, 0x02,
  0xb6, 0x1a, 0xe9, 0x1a, 0xd0, 0x4c, 0x02, 0x9d, 0x1a, 0x02, 0xb6, 0xb6,
  0x2c, 0xc1, 0xec, 0xec, 0x41, 0x2c, 0xc1, 0xd7, 0x2c, 0xd7, 0xd7, 0xec,
  0x01, 0x01, 0x16, 0xc1, 0x01, 0xd7, 0xec, 0xd7, 0x81, 0xd7, 0xc1, 0x16,
  0x16, 0x16, 0x97, 0x57, 0x2c, 0x01, 0xec, 0x2c, 0xec, 0x57, 0x41, 0xec,
  0xec, 0x01, 0x01, 0x01, 0xc1, 0xc1, 0x01, 0x97, 0xec, 0xec, 0x41, 0xc1,
  0xc1, 0x41, 0x01, 0xd7, 0xd7, 0x16, 0xd7, 0xac, 0x16, 0x57, 0x16, 0x16,
  0x97, 0x01, 0x01, 0x16, 0x13, 0x01, 0x01, 0x4b, 0x13, 0x4b, 0x25, 0x01,
  0x25, 0x13, 0x01, 0x13, 0x38, 0x25, 0xef, 0x25, 0x13, 0x81, 0x13, 0xb8,
  0x38, 0xca, 0x13, 0xdd, 0x01, 0xb8, 0xca, 0x38, 0x01, 0xef, 0x38, 0xdd,
  0x25, 0x4b, 0xdd, 0xdd, 0xca, 0xdd, 0x13, 0x38, 0x25, 0xdd, 0x01, 0xca,
  0x25, 0xef, 0x4b, 0x01, 0x01, 0xb8, 0xb8, 0x25, 0x13, 0xef, 0xef, 0x13,
  0x01, 0x13, 0xb8, 0xef, 0xef, 0xef, 0xdd, 0x25, 0xe8, 0xe8, 0xb4, 0x02,
  0x02, 0x1b, 0xce, 0x1b, 0x35, 0xe8, 0x35, 0x4f, 0x4f, 0xe8, 0x4f, 0x02,
  0xce, 0x35, 0xe8, 0x1b, 0x9a, 0x35, 0x1b, 0x35, 0x69, 0xce, 0x02, 0xce,
  0x69, 0x35, 0x35, 0x1b, 0xce, 0xce, 0xe8, 0xb4, 0xb4, 0x35, 0xe8, 0x1b,
  0x1b, 0x02, 0x35, 0x9a, 0x02, 0xe8, 0x1b, 0x81, 0x02, 0x1b, 0x35, 0xce,
  0x9a, 0x02, 0x4f, 0x35, 0x4f, 0xce, 0xe8, 0x9a, 0x35, 0xe8, 0xe8, 0xb4,
  0xed, 0x01, 0x16, 0xc2, 0x01, 0x56, 0x2b, 0xd7, 0xd7, 0x56, 0xed, 0x16,
  0xc2, 0x2b, 0x40, 0xed, 0xd7, 0x16, 0xd7, 0xc2, 0xad, 0xed, 0x01, 0xed,
  0x2b, 0xed, 0x01, 0xed, 0x16, 0xd7, 0xd7, 0x2b, 0xed, 0x16, 0xc2, 0xed,
  0xd7, 0xc2, 0xed, 0xd7, 0x2b, 0xd7, 0xd7, 0x2b, 0x16, 0xc2, 0xed, 0xd7,
  0x16, 0x16, 0xc2, 0x40, 0xed, 0x01, 0xc2, 0x16, 0x99, 0xed, 0x16, 0x2b,
  0xc2, 0xd7, 0xc2, 0x7f, 0xc1, 0xd7, 0xec, 0xc1, 0xec, 0x57, 0x01, 0xd7,
  0x2c, 0x2c, 0x01, 0x01, 0x97, 0x01, 0x01, 0x41, 0xd7, 0x01, 0x01, 0xac,
  0x01, 0x41, 0x2c, 0xec, 0xc1, 0x2c, 0xc1, 0xd7, 0xec, 0xc1, 0xd7, 0x16,
  0xac, 0xec, 0xd7, 0x41, 0x01, 0xd7, 0x57, 0xec, 0x01, 0x16, 0xec, 0xec,
  0xc1, 0xd7, 0xd7, 0x81, 0x2c, 0x16, 0x01, 0xc1, 0x97, 0xec, 0x01, 0xec,
  0xc1, 0xec, 0x16, 0x01, 0x16, 0xd7, 0x41, 0x6c, 0xd7, 0xd7, 0x2b, 0x2b,
  0x01, 0x6a, 0x2b, 0xed, 0xed, 0x56, 0xad, 0x2b, 0x16, 0xed, 0x2b, 0x01,
  0xd7, 0x40, 0x16, 0xd7, 0xd7, 0x01, 0x40, 0x40, 0x01, 0xd7, 0x01, 0x01,
  0x7f, 0xc2, 0x01, 0x01, 0xed, 0xc2, 0xd7, 0xed, 0xed, 0xad, 0x01, 0x01,
  0x16, 0x16, 0xc2, 0xd7, 0x2b, 0xed, 0x16, 0xd7, 0x40, 0x01, 0xad, 0x01,
  0x01, 0x01, 0xed, 0x16, 0xd7, 0x2b, 0x16, 0x01, 0xc2, 0x01, 0xed, 0x2b,
  0x02, 0xd0, 0x1a, 0x4c, 0x4c, 0x7f, 0x66, 0xd0, 0x66, 0x7f, 0x9d, 0x02,
  0xb6, 0xb6, 0xd0, 0x4c, 0x33, 0x02, 0xb6, 0x1a, 0x1a, 0x66, 0xd0, 0xe9,
  0x33, 0x02, 0xd0, 0x1a, 0x33, 0xd0, 0x4c, 0xb6, 0xe9, 0x1a, 0x1a, 0xe9,
  0x1a, 0x02, 0x02, 0xe9, 0x33, 0x33, 0xb6, 0x9d, 0xb6, 0x9d, 0x02, 0x02,
  0xe9, 0x4c, 0xb6, 0x02, 0xd0, 0xe9, 0xb6, 0x33, 0xd0, 0xd0, 0x02, 0x4c,
  0xb6, 0x4c, 0x4c, 0x1a, 0xce, 0x9a, 0xe8, 0xe8, 0xe8, 0xce, 0xb4, 0x1b,
  0x69, 0x1b, 0x1b, 0x1b, 0x02, 0x02, 0x02, 0xe8, 0xce, 0x35, 0x1b, 0x02,
  0xe8, 0xe8, 0x1b, 0x1b, 0x35, 0x02, 0xe8, 0xce, 0x35, 0xe8, 0xce, 0x69,
  0x1b, 0x1b, 0x35, 0x4f, 0xce, 0x1b, 0x02, 0xb4, 0x9a, 0x4f, 0x4f, 0x02,
  0xb4, 0x9a, 0x02, 0xb4, 0xb4, 0x4f, 0x69, 0x02, 0x35, 0x1b, 0x1b, 0x02,
  0xce, 0x1b, 0x02, 0xe8, 0xe8, 0x02, 0xb4, 0x81, 0x01, 0xd7, 0x2c, 0x41,
  0xec, 0x57, 0xc1, 0x01, 0x2c, 0x16, 0xec, 0x16, 0x01, 0x16, 0x01, 0x41,
  0x01, 0x2c, 0xec, 0x01, 0x01, 0x16, 0x16, 0x16, 0x01, 0x57, 0x2c, 0x2c,
  0x2c, 0x16, 0xec, 0x16, 0x2c, 0x16, 0xc1, 0x2c, 0xac, 0x57, 0x2c, 0x01,
  0x97, 0xd7, 0xd7, 0x41, 0xec, 0x41, 0xc1, 0x01, 0x2c, 0x01, 0x81, 0x16,
  0xec, 0x41, 0xec, 0x2c, 0xec, 0x57, 0x2c, 0xec, 0xd7, 0x16, 0x01, 0xd7,
  0x33, 0x1a, 0x9d, 0x9d, 0x02, 0x66, 0x1a, 0xd0, 0x9d, 0xd0, 0xb6, 0xe9,
  0x02, 0x02, 0x1a, 0x1a, 0xd0, 0xd0, 0xd0, 0x02, 0xd0, 0xe9, 0x02, 0x1a,
  0x33, 0x02, 0xe9, 0x4c, 0xb6, 0x4c, 0xe9, 0x02, 0xe9, 0x1a, 0x33, 0x1a,
  0x4c, 0xb6, 0xe9, 0x1a, 0xe9, 0xe9, 0xd0, 0x02, 0x7f, 0x1a, 0x4c, 0xd0,
  0x9d, 0x02, 0xb6, 0xd0, 0x1a, 0x9d, 0xd0, 0x1a, 0x33, 0xe9, 0xd0, 0x66,
  0x9d, 0x02, 0xe9, 0x02, 0xec, 0xac, 0x41, 0xec, 0x01, 0x16, 0xc1, 0x01,
  0x16, 0xec, 0xd7, 0x2c, 0x16, 0x01, 0x2c, 0x97, 0x16, 0x16, 0xec, 0xd7,
  0xac, 0x16, 0x01, 0xec, 0xac, 0x16, 0xac, 0x01, 0x41, 0x16, 0x2c, 0x57,
  0xc1, 0x16, 0x41, 0x41, 0xc1, 0xd7, 0xd7, 0x01, 0x81, 0xec, 0xd7, 0x2c,
  0x2c, 0xec, 0xd7, 0x16, 0x16, 0x41, 0xc1, 0xec, 0x16, 0x41, 0xec, 0xc1,
  0x2c, 0x41, 0x57, 0xd7, 0x01, 0xc1, 0x01, 0x01, 0xe9, 0x4c, 0x4c, 0x33,
  0xe9, 0xe9, 0x33, 0x9d, 0x9d, 0x66, 0x1a, 0xb6, 0x85, 0x33, 0xd0, 0x33,
  0x33, 0x02, 0x02, 0xb6, 0x1a, 0xe9, 0x33, 0xe9, 0x9d, 0x1a, 0x1a, 0x02,
  0x1a, 0x02, 0x02, 0xe9, 0x66, 0xe9, 0xb6, 0x02, 0x02, 0x33, 0x1a, 0x9d,
  0xb6, 0x66, 0xd0, 0xb6, 0xd0, 0xe9, 0x02, 0x4c, 0x02, 0xe9, 0x1a, 0xe9,
  0x33, 0xb6, 0xd0, 0x33, 0x02, 0xb6, 0x02, 0x33, 0xd0, 0xe9, 0x33, 0x7f,
  0x1a, 0x33, 0x9d, 0x33, 0xe9, 0x02, 0x33, 0x33, 0x9d, 0x1a, 0x66, 0x1a,
  0x1a, 0xe9, 0x9d, 0x02, 0x9d, 0xe9, 0x1a, 0x02, 0x1a, 0x9d, 0x7f, 0xd0,
  0x33, 0xd0, 0xe9, 0xd0, 0x1a, 0xd0, 0xe9, 0xd0, 0xe9, 0x1a, 0x9d, 0x1a,
  0x02, 0x33, 0x85, 0x85, 0x02, 0x02, 0x4c, 0x66, 0xe9, 0xb6, 0xd0, 0xd0,
  0xd0, 0x33, 0x1a, 0x66, 0x33, 0x02, 0xe9, 0x02, 0x9d, 0x4c, 0x02, 0xb6,
  0x02, 0x66, 0xd0, 0x02, 0xc2, 0x01, 0x2b, 0x01, 0x2b, 0x6a, 0x2b, 0x01,
  0xed, 0x2b, 0x01, 0xed, 0x16, 0x01, 0xc2, 0x2b, 0xad, 0x16, 0x01, 0xc2,
  0x16, 0x16, 0x7f, 0x16, 0x16, 0xc2, 0x16, 0x16, 0xed, 0x2b, 0x2b, 0x2b,
  0xd7, 0xed, 0xed, 0xc2, 0xd7, 0x01, 0x01, 0x56, 0x01, 0x16, 0x01, 0x2b,
  0xd7, 0x2b, 0x01, 0xd7, 0xd7, 0x2b, 0xd7, 0x16, 0xed, 0xd7, 0x16, 0x40,
  0x16, 0x01, 0x56, 0xc2, 0xad, 0xc2, 0xd7, 0x2b, 0x49, 0x01, 0x25, 0x13,
  0x37, 0x25, 0x13, 0xb9, 0xdd, 0xb9, 0x01, 0xef, 0xef, 0x37, 0x7f, 0x01,
  0x13, 0xef, 0xef, 0xb9, 0xef, 0xcb, 0xdd, 0xcb, 0x01, 0x01, 0x37, 0x25,
  0xcb, 0x25, 0x13, 0x37, 0xdd, 0xef, 0x01, 0xa7, 0x25, 0x37, 0xcb, 0x7f,
  0x01, 0xcb, 0x13, 0x01, 0x5b, 0x25, 0x13, 0xef, 0x01, 0xb9, 0x01, 0x49,
  0x01, 0xdd, 0x37, 0xdd, 0x25, 0x25, 0xef, 0x01, 0x01, 0xcb, 0xcb, 0x01,
  0x2c, 0xac, 0x2c, 0x16, 0xec, 0xac, 0xec, 0x16, 0xd7, 0x16, 0x41, 0x81,
  0xd7, 0x41, 0x97, 0xac, 0x01, 0xc1, 0x6c, 0x16, 0x2c, 0xc1, 0xd7, 0xd7,
  0xec, 0xd7, 0x01, 0x2c, 0x41, 0x01, 0x16, 0x16, 0x01, 0xec, 0xd7, 0x16,
  0x01, 0x2c, 0xec, 0x01, 0xac, 0x01, 0x01, 0xd7, 0x6c, 0xec, 0xc1, 0x16,
  0x16, 0x01, 0x01, 0x2c, 0x2c, 0x01, 0x57, 0x16, 0x2c, 0xc1, 0x2c, 0xec,
  0xd7, 0xd7, 0x01, 0x2c, 0x4c, 0x02, 0x02, 0x02, 0x1a, 0xe9, 0x9d, 0xb6,
  0xd0, 0x85, 0xe9, 0x33, 0xe9, 0x66, 0x7f, 0x02, 0x02, 0x4c, 0x02, 0x1a,
  0xe9, 0x02, 0x02, 0x4c, 0xd0, 0xd0, 0x02, 0x4c, 0xd0, 0x66, 0x33, 0x66,
  0x1a, 0xb6, 0x02, 0xb6, 0x02, 0xe9, 0x85, 0x4c, 0x02, 0xe9, 0x66, 0x1a,
  0x33, 0x7f, 0x1a, 0x9d, 0x85, 0xd0, 0x66, 0x02, 0x4c, 0xb6, 0x02, 0xd0,
  0x1a, 0x33, 0x1a, 0x02, 0xb6, 0xd0, 0xb6, 0xb6, 0x33, 0xb6, 0x66, 0xe9,
  0x1a, 0xd0, 0xd0, 0x33, 0x1a, 0x4c, 0x33, 0xd0, 0x02, 0x02, 0x9d, 0x1a,
  0x02, 0x33, 0x66, 0x7f, 0x33, 0x9d, 0x02, 0x02, 0x9d, 0x02, 0x4c, 0x33,
  0xe9, 0xd0, 0x1a, 0x02, 0x02, 0x33, 0x1a, 0xe9, 0xb6, 0x4c, 0x02, 0xe9,
  0xd0, 0x33, 0x4c, 0xe9, 0x4c, 0x1a, 0x85, 0x1a, 0xe9, 0x1a, 0x02, 0x1a,
  0x1a, 0xd0, 0xe9, 0x1a, 0x1a, 0xb6, 0x33, 0x1a, 0x02, 0x02, 0xd0, 0x1a,
  0x02, 0x33, 0xd0, 0xd0, 0xe9, 0x1a, 0xb6, 0x02, 0x4c, 0x1a, 0xe9, 0x1a,
  0x1a, 0x33, 0xe9, 0xb6, 0x33, 0xb6, 0x66, 0xe9, 0x02, 0xd0, 0x4c, 0xe9,
  0xe9, 0xb6, 0xd0, 0xb6, 0x33, 0x02, 0x33, 0x4c, 0xb6, 0x1a, 0x02, 0xd0,
  0xd0, 0x1a, 0x4c, 0x9d, 0xe9, 0x9d, 0x9d, 0xe9, 0x7f, 0x1a, 0x9d, 0x4c,
  0x02, 0xb6, 0xd0, 0x85, 0x1a, 0xe9, 0xd0, 0x33, 0x33, 0x1a, 0x7f, 0x02,
  0x1a, 0x1a, 0xd0, 0xd0, 0x9a, 0x35, 0x02, 0xce, 0xce, 0xe8, 0x1b, 0xe8,
  0x81, 0x1b, 0x4f, 0xce, 0xe8, 0xce, 0x35, 0xe8, 0x02, 0x02, 0xe8, 0xce,
  0x35, 0x35, 0xb4, 0x69, 0xce, 0x02, 0x02, 0x81, 0xce, 0xe8, 0xb4, 0x1b,
  0x35, 0x35, 0x35, 0xe8, 0x1b, 0xe8, 0x1b, 0xb4, 0xce, 0x02, 0x1b, 0xb4,
  0x02, 0xce, 0xe8, 0x4f, 0xb4, 0x1b, 0xe8, 0x4f, 0x02, 0x02, 0x1b, 0x1b,
  0xe8, 0xb4, 0x4f, 0x9a, 0x35, 0xce, 0xe8, 0xb4, 0xce, 0xce, 0xce, 0xb4,
  0x9a, 0xb4, 0xe8, 0xe8, 0x35, 0x35, 0x69, 0x69, 0x4f, 0x02, 0x1b, 0x02,
  0xe8, 0x35, 0xe8, 0x69, 0x35, 0xce, 0xe8, 0x1b, 0xe8, 0xce, 0x35, 0xe8,
  0x35, 0x35, 0x02, 0x1b, 0x1b, 0xe8, 0xe8, 0x1b, 0x1b, 0xe8, 0x02, 0xb4,
  0x9a, 0xce, 0xce, 0xe8, 0x02, 0x81, 0xb4, 0x4f, 0x1b, 0x02, 0x35, 0x35,
  0xe8, 0xb4, 0x35, 0x02, 0x02, 0x1b, 0x1b, 0xe8, 0x02, 0x02, 0x02, 0xce,
  0xce, 0x02, 0xe8, 0xce, 0x35, 0x02, 0x1b, 0x1b, 0xce, 0xce, 0x4f, 0x9a,
  0x4f, 0x02, 0xce, 0xce, 0xe8, 0x02, 0x02, 0x1b, 0xe8, 0x81, 0x4f, 0x1b,
  0x1b, 0xce, 0x4f, 0xe8, 0xce, 0xe8, 0x02, 0x81, 0xe8, 0xce, 0xce, 0x81,
  0x9a, 0x35, 0xb4, 0x1b, 0x35, 0x02, 0xb4, 0x35, 0x1b, 0x35, 0x1b, 0x02,
  0x1b, 0xe8, 0xe8, 0x35, 0x1b, 0xe8, 0x1b, 0x69, 0x69, 0xce, 0x1b, 0xce,
  0x02, 0x9a, 0x02, 0x1b, 0x02, 0x02, 0x33, 0xe9, 0x1a, 0x7f, 0x33, 0xd0,
  0x4c, 0x66, 0xb6, 0x33, 0x9d, 0x1a, 0x1a, 0xe9, 0x33, 0xe9, 0x02, 0x9d,
  0x02, 0xe9, 0xb6, 0x1a, 0x1a, 0xd0, 0x02, 0x02, 0x4c, 0x33, 0x1a, 0x66,
  0x9d, 0xb6, 0xe9, 0x1a, 0xe9, 0xe9, 0xd0, 0x1a, 0xe9, 0x02, 0x9d, 0xb6,
  0xe9, 0xe9, 0x33, 0xd0, 0xd0, 0x02, 0xb6, 0x1a, 0x1a, 0xd0, 0xe9, 0x1a,
  0xd0, 0x33, 0x9d, 0xe9, 0xd0, 0xd0, 0x33, 0x7f, 0xce, 0x69, 0xb4, 0xe8,
  0xce, 0x1b, 0x1b, 0x35, 0x35, 0x35, 0x02, 0xb4, 0x02, 0xb4, 0x02, 0xb4,
  0xce, 0x02, 0xe8, 0x1b, 0x02, 0xe8, 0x9a, 0xe8, 0x1b, 0x02, 0x1b, 0x81,
  0x81, 0xe8, 0xce, 0x35, 0x4f, 0x02, 0xb4, 0x02, 0x69, 0x4f, 0xe8, 0x02,
  0xce, 0x1b, 0x4f, 0xe8, 0x02, 0x02, 0x35, 0x35, 0x9a, 0xce, 0xe8, 0x1b,
  0xe8, 0x4f, 0xce, 0x02, 0x02, 0x69, 0x4f, 0xb4, 0x02, 0x02, 0xce, 0x02,
  0x9d, 0xd0, 0xe9, 0x4c, 0x1a, 0x1a, 0x1a, 0xe9, 0xd0, 0x1a, 0x1a, 0x33,
  0xd0, 0xe9, 0x4c, 0x02, 0xe9, 0x33, 0xd0, 0xe9, 0xd0, 0x33, 0x66, 0x02,
  0x1a, 0x02, 0x4c, 0x02, 0x33, 0x02, 0x1a, 0xd0, 0x02, 0x9d, 0xe9, 0xe9,
  0x9d, 0x02, 0xd0, 0x02, 0x7f, 0x33, 0xe9, 0xb6, 0xd0, 0xd0, 0x02, 0xd0,
  0x33, 0x33, 0x9d, 0xe9, 0x33, 0x33, 0x02, 0x33, 0xb6, 0xe9, 0xb6, 0xb6,
  0x02, 0x1a, 0xb6, 0xb6, 0x25, 0xef, 0x13, 0xef, 0x25, 0x13, 0xef, 0xb9,
  0xef, 0xcb, 0xdd, 0xcb, 0x37, 0x01, 0xef, 0x01, 0xef, 0xef, 0xef, 0x01,
  0x25, 0x13, 0x37, 0xdd, 0x13, 0x13, 0xb9, 0x37, 0xcb, 0x25, 0x25, 0xdd,
  0x37, 0x37, 0x13, 0xef, 0x13, 0x01, 0xdd, 0x37, 0x01, 0xdd, 0x13, 0xef,
  0x7f, 0x25, 0xcb, 0x01, 0xdd, 0xcb, 0x01, 0xcb, 0x37, 0x25, 0x13, 0x01,
  0x25, 0xdd, 0x01, 0x25, 0xa7, 0x13, 0x25, 0x01, 0x33, 0x4c, 0x9d, 0xe9,
  0x33, 0x02, 0x9d, 0x4c, 0x4c, 0x02, 0x1a, 0xd0, 0x33, 0x02, 0xe9, 0x9d,
  0x7f, 0x1a, 0x4c, 0x4c, 0xe9, 0xb6, 0x1a, 0x02, 0x7f, 0xb6, 0xe9, 0x02,
  0x4c, 0x33, 0x33, 0x02, 0xd0, 0x4c, 0x33, 0xd0, 0xe9, 0x33, 0x33, 0x02,
  0x02, 0x02, 0xe9, 0xe9, 0x02, 0x02, 0x4c, 0x33, 0xe9, 0xd0, 0x33, 0xd0,
  0x02, 0x4c, 0x02, 0x02, 0x02, 0xb6, 0x02, 0xe9, 0xe9, 0x02, 0x33, 0xe9,
  0x02, 0x66, 0xe9, 0x1a, 0x85, 0xd0, 0xd0, 0x33, 0xb6, 0x33, 0x02, 0x02,
  0xd0, 0x02, 0xb6, 0x33, 0x1a, 0x4c, 0x33, 0x02, 0xe9, 0xe9, 0xe9, 0x33,
  0xe9, 0xe9, 0x33, 0xb6, 0x02, 0x4c, 0x1a, 0x66, 0x33, 0x1a, 0x9d, 0x33,
  0x1a, 0x33, 0x66, 0xd0, 0x1a, 0x02, 0x4c, 0x1a, 0x66, 0xb6, 0xe9, 0x7f,
  0x4c, 0x1a, 0x1a, 0x4c, 0x1a, 0xd0, 0xb6, 0x02, 0x1a, 0x33, 0x02, 0x33,
  0xb6, 0x4c, 0x4c, 0x02, 0x1a, 0xd0, 0x02, 0x4c, 0xe9, 0x33, 0xe9, 0x33,
  0x66, 0x1a, 0x02, 0xd0, 0x1a, 0x33, 0x33, 0xb6, 0x66, 0x9d, 0x7f, 0xb6,
  0xb6, 0x9d, 0x02, 0x4c, 0x1a, 0xb6, 0xb6, 0x02, 0x66, 0xd0, 0x66, 0x1a,
  0x33, 0x66, 0x1a, 0xb6, 0xd0, 0xb6, 0x1a, 0x02, 0x02, 0xe9, 0x9d, 0xd0,
  0x4c, 0x1a, 0x33, 0x4c, 0x4c, 0xe9, 0xe9, 0xb6, 0x33, 0x1a, 0xd0, 0x33,
  0x7f, 0xb6, 0x02, 0x33, 0xd0, 0xb6, 0xd0, 0x33, 0x1b, 0x9a, 0xce, 0x35,
  0x02, 0x81, 0x81, 0x4f, 0x1b, 0x1b, 0x02, 0x4f, 0x35, 0x4f, 0x02, 0xe8,
  0x35, 0x69, 0x4f, 0x1b, 0x81, 0xe8, 0xce, 0x35, 0x02, 0x1b, 0x02, 0xce,
  0x4f, 0x02, 0xe8, 0x1b, 0xe8, 0x02, 0x4f, 0x35, 0xce, 0x1b, 0x35, 0x9a,
  0x9a, 0xce, 0x02, 0x02, 0x02, 0xe8, 0xce, 0xe8, 0x4f, 0xe8, 0xe8, 0xe8,
  0xb4, 0x35, 0x1b, 0x1b, 0x02, 0x4f, 0x69, 0xce, 0x1b, 0x1b, 0xce, 0xe8,
  0x33, 0x9d, 0xd0, 0xb6, 0xe9, 0xe9, 0xd0, 0x66, 0x02, 0xb6, 0x1a, 0x02,
  0x1a, 0x4c, 0x02, 0x02, 0xb6, 0x66, 0x02, 0x33, 0xe9, 0xd0, 0x02, 0xe9,
  0xd0, 0xe9, 0xd0, 0x1a, 0x02, 0x02, 0x4c, 0x7f, 0x9d, 0x02, 0xe9, 0x1a,
  0x1a, 0x02, 0xe9, 0x02, 0x85, 0xe9, 0xe9, 0xb6, 0x1a, 0xb6, 0xd0, 0xd0,
  0xb6, 0x4c, 0x7f, 0xb6, 0x9d, 0xe9, 0x66, 0x33, 0x1a, 0x1a, 0xe9, 0x1a,
  0x33, 0xb6, 0xb6, 0x9d, 0xd7, 0x01, 0x01, 0x16, 0x2c, 0xac, 0xd7, 0x41,
  0x41, 0x01, 0xd7, 0x2c, 0xd7, 0x01, 0x2c, 0x16, 0x16, 0x57, 0x2c, 0x41,
  0xec, 0xc1, 0xc1, 0x41, 0x81, 0xec, 0xc1, 0x01, 0xec, 0x16, 0xd7, 0xec,
  0xd7, 0x2c, 0x16, 0x57, 0x41, 0x16, 0x01, 0xec, 0x16, 0x16, 0x57, 0xec,
  0x6c, 0xac, 0x01, 0xd7, 0x2c, 0x01, 0x2c, 0x01, 0x41, 0xec, 0xc1, 0xd7,
  0x2c, 0x41, 0x2c, 0x01, 0xc1, 0xec, 0x57, 0xac, 0xad, 0xc2, 0xc2, 0x01,
  0x56, 0x16, 0x01, 0x16, 0xc2, 0x01, 0x6a, 0xd7, 0xd7, 0x01, 0x2b, 0x56,
  0x2b, 0xed, 0xc2, 0x01, 0x2b, 0x7f, 0x01, 0xc2, 0x2b, 0x99, 0x01, 0x01,
  0x16, 0x16, 0x16, 0x2b, 0xad, 0x01, 0x56, 0xd7, 0xd7, 0x2b, 0x2b, 0x16,
  0x56, 0x16, 0x40, 0x01, 0x16, 0xc2, 0x01, 0x99, 0x16, 0xd7, 0x01, 0xc2,
  0x99, 0xed, 0x16, 0xc2, 0x01, 0x16, 0x01, 0xc2, 0x56, 0x01, 0x2b, 0xad,
  0xed, 0xd7, 0x2b, 0x01, 0x40, 0x01, 0x01, 0xd7, 0xad, 0xc2, 0xed, 0xd7,
  0xed, 0x56, 0x2b, 0xd7, 0xd7, 0xd7, 0x16, 0x2b, 0xd7, 0xc2, 0xed, 0xd7,
  0xed, 0xc2, 0x01, 0x56, 0xed, 0x01, 0xed, 0x01, 0x01, 0x16, 0x40, 0x2b,
  0x01, 0x40, 0xc2, 0x6a, 0xc2, 0x16, 0x16, 0xc2, 0x7f, 0x16, 0xc2, 0x01,
  0xd7, 0xed, 0x01, 0xed, 0x2b, 0x16, 0x40, 0x01, 0xd7, 0x01, 0x40, 0x16,
  0xd7, 0xad, 0xc2, 0x40, 0xd0, 0x1a, 0x33, 0xe9, 0x33, 0xd0, 0xb6, 0x4c,
  0x1a, 0xd0, 0xd0, 0x4c, 0xe9, 0x4c, 0xe9, 0xb6, 0x02, 0x33, 0x1a, 0x1a,
  0x1a, 0x02, 0xd0, 0x1a, 0x1a, 0x33, 0xe9, 0x02, 0x02, 0xe9, 0x4c, 0x66,
  0x9d, 0x4c, 0x66, 0xd0, 0x1a, 0x1a, 0x4c, 0x1a, 0xb6, 0xb6, 0x1a, 0xd0,
  0x4c, 0x9d, 0x33, 0x02, 0xe9, 0xd0, 0x7f, 0xd0, 0xb6, 0x4c, 0xd0, 0xe9,
  0xe9, 0x33, 0x4c, 0x33, 0xd0, 0x4c, 0xe9, 0x85, 0xc1, 0x01, 0xd7, 0x2c,
  0x57, 0xd7, 0xec, 0x16, 0xc1, 0x2c, 0x01, 0xec, 0xec, 0xd7, 0x16, 0x16,
  0x41, 0x2c, 0xec, 0xec, 0x41, 0xd7, 0x2c, 0xac, 0x41, 0xd7, 0x16, 0x01,
  0xd7, 0xec, 0xec, 0xc1, 0x16, 0x2c, 0xc1, 0xc1, 0xc1, 0xc1, 0xec, 0xd7,
  0xec, 0x01, 0x2c, 0x2c, 0xd7, 0x81, 0x01, 0x16, 0xd7, 0xec, 0xd7, 0xd7,
  0x16, 0xec, 0xd7, 0xec, 0xd7, 0xc1, 0xd7, 0x16, 0x16, 0x57, 0x01, 0xd7,
  0x56, 0xed, 0xc2, 0x2b, 0xd7, 0x16, 0x01, 0x01, 0xd7, 0xed, 0xad, 0x01,
  0x16, 0xd7, 0x16, 0x01, 0x01, 0x16, 0x7f, 0x01, 0x01, 0x16, 0x40, 0xd7,
  0x40, 0x01, 0xad, 0x01, 0x56, 0x16, 0x2b, 0x01, 0xed, 0x6a, 0x01, 0xc2,
  0x16, 0x40, 0x16, 0xed, 0x01, 0xc2, 0xd7, 0x01, 0x40, 0x16, 0xc2, 0x16,
  0xc2, 0xed, 0xd7, 0xad, 0x40, 0xed, 0x56, 0x2b, 0x2b, 0x01, 0xd7, 0x16,
  0x01, 0x2b, 0xc2, 0x01, 0x02, 0xd0, 0x4c, 0x02, 0xd0, 0x1a, 0x66, 0x9d,
  0x33, 0x02, 0x02, 0x02, 0xe9, 0xe9, 0x02, 0x02, 0x9d, 0x1a, 0xd0, 0xb6,
  0x66, 0x33, 0x02, 0x4c, 0x02, 0x02, 0x9d, 0x33, 0x1a, 0xd0, 0x1a, 0x1a,
  0x1a, 0x33, 0xb6, 0xe9, 0x4c, 0xe9, 0x1a, 0x1a, 0x02, 0xd0, 0x02, 0x4c,
  0xb6, 0xd0, 0x66, 0x1a, 0x1a, 0x7f, 0x9d, 0x02, 0x33, 0xe9, 0x85, 0x1a,
  0x02, 0x1a, 0x02, 0x02, 0xe9, 0x66, 0x4c, 0x02, 0x1a, 0xd0, 0x02, 0x4c,
  0x02, 0x1a, 0xd0, 0x4c, 0x66, 0x4c, 0xb6, 0x02, 0x1a, 0xb6, 0x1a, 0x33,
  0x1a, 0x4c, 0xd0, 0xe9, 0x02, 0x1a, 0xb6, 0x02, 0xe9, 0x02, 0xb6, 0x66,
  0x66, 0x02, 0xe9, 0x1a, 0x02, 0xe9, 0xe9, 0x4c, 0x02, 0xb6, 0x1a, 0xd0,
  0xb6, 0x9d, 0x9d, 0xe9, 0xe9, 0xe9, 0xd0, 0x9d, 0xd0, 0x66, 0x02, 0xe9,
  0x9d, 0xe9, 0xe9, 0x1a, 0xe9, 0x7f, 0x02, 0x33, 0xe9, 0x33, 0xd0, 0xe9,
  0x4c, 0x1a, 0x02, 0xb6, 0x1a, 0x9d, 0xb6, 0x4c, 0x33, 0x02, 0xe9, 0x4c,
  0x1a, 0x33, 0xe9, 0xb6, 0x7f, 0x33, 0x02, 0x4c, 0x9d, 0xb6, 0xe9, 0x02,
  0x1a, 0x02, 0x85, 0xe9, 0x4c, 0x1a, 0x66, 0x1a, 0xb6, 0x4c, 0x66, 0x33,
  0x02, 0xb6, 0x33, 0xd0, 0xe9, 0xe9, 0xe9, 0xb6, 0x33, 0xb6, 0x1a, 0xe9,
  0x02, 0xe9, 0x1a, 0x02, 0x1a, 0x1a, 0x1a, 0xb6, 0x1a, 0xd0, 0x33, 0xe9,
  0xe9, 0xe9, 0xe9, 0xd0, 0xd0, 0xb6, 0x02, 0xe9, 0x33, 0x1a, 0x02, 0x02,
  0x4c, 0xe9, 0x02, 0x4c, 0x4c, 0xb6, 0x1a, 0x02, 0xd0, 0x4c, 0x9d, 0x4c,
  0x02, 0xe9, 0xe9, 0x33, 0x4c, 0x02, 0x1a, 0x02, 0x7f, 0x66, 0x1a, 0x33,
  0x02, 0xd0, 0x02, 0xb6, 0xd0, 0x4c, 0xd0, 0x4c, 0xd0, 0xd0, 0xd0, 0xd0,
  0xd0, 0xe9, 0x66, 0x85, 0xd0, 0x66, 0x02, 0xe9, 0xd0, 0x66, 0x4c, 0x1a,
  0xe9, 0x33, 0x1a, 0xe9, 0xe9, 0xe9, 0x02, 0xd0, 0xca, 0xdd, 0xdd, 0xca,
  0x38, 0x13, 0x13, 0x01, 0x38, 0xdd, 0xef, 0x13, 0xdd, 0xef, 0xef, 0x13,
  0x13, 0xef, 0xb8, 0x13, 0xef, 0x25, 0x25, 0xdd, 0x13, 0xef, 0x01, 0xca,
  0x25, 0x38, 0x25, 0xca, 0xdd, 0xca, 0xb8, 0xdd, 0xef, 0xa6, 0x25, 0xdd,
  0x38, 0x38, 0xca, 0xca, 0xca, 0x01, 0xef, 0x81, 0xef, 0x13, 0x13, 0xca,
  0xdd, 0x01, 0x01, 0xb8, 0x01, 0x25, 0xdd, 0x25, 0x25, 0x38, 0x25, 0x13,
  0x1b, 0xb4, 0x1b, 0xb4, 0x35, 0xe8, 0xce, 0xb4, 0xb4, 0xe8, 0x69, 0x02,
  0x4f, 0x4f, 0x35, 0xe8, 0x02, 0x4f, 0xce, 0x35, 0x4f, 0x81, 0x1b, 0x4f,
  0x1b, 0x9a, 0x69, 0x4f, 0x1b, 0x35, 0xce, 0x4f, 0x1b, 0xb4, 0x35, 0xb4,
  0x02, 0x02, 0x9a, 0xce, 0x02, 0xe8, 0x4f, 0x1b, 0xe8, 0x35, 0x02, 0xe8,
  0x02, 0x4f, 0xce, 0x1b, 0x35, 0x02, 0x35, 0x69, 0x02, 0x35, 0x4f, 0xe8,
  0x02, 0xb4, 0xb4, 0xe8, 0x13, 0x01, 0x25, 0xca, 0xef, 0x25, 0xef, 0x81,
  0x93, 0xdd, 0xdd, 0x13, 0xef, 0x38, 0x25, 0x01, 0xdd, 0x38, 0xef, 0x13,
  0xef, 0xef, 0x01, 0x01, 0xca, 0xef, 0x01, 0x4b, 0xca, 0x01, 0x01, 0x01,
  0x01, 0x25, 0x01, 0x25, 0x01, 0x13, 0xdd, 0x25, 0x13, 0x01, 0x01, 0x38,
  0x38, 0x4b, 0xef, 0xdd, 0xdd, 0xca, 0x13, 0x13, 0xdd, 0xdd, 0x38, 0x13,
  0x38, 0x01, 0x25, 0xdd, 0xa6, 0xdd, 0xdd, 0x38, 0x2b, 0xed, 0x01, 0xed,
  0x16, 0xc2, 0xed, 0x2b, 0x16, 0x56, 0x40, 0xc2, 0xed, 0x56, 0xad, 0x01,
  0x6a, 0xd7, 0x7f, 0x40, 0x01, 0xd7, 0xc2, 0x16, 0x40, 0xed, 0xed, 0xed,
  0x2b, 0x99, 0x40, 0x16, 0x01, 0x2b, 0x40, 0x16, 0xd7, 0x01, 0x16, 0x01,
  0xd7, 0x01, 0x16, 0x01, 0x40, 0xd7, 0xd7, 0x2b, 0x01, 0xc2, 0xed, 0x01,
  0xed, 0x01, 0x01, 0x01, 0x16, 0xd7, 0x2b, 0x7f, 0xed, 0x2b, 0x16, 0xd7,
  0xc1, 0x16, 0xd7, 0x2c, 0x97, 0x01, 0x16, 0x41, 0xc1, 0x2c, 0x16, 0x2c,
  0x16, 0xc1, 0xd7, 0x2c, 0x16, 0x57, 0x2c, 0x41, 0x2c, 0x81, 0xd7, 0x41,
  0x2c, 0xc1, 0x2c, 0xec, 0xd7, 0x16, 0x16, 0x41, 0x01, 0xac, 0xd7, 0x01,
  0xd7, 0x41, 0x16, 0x2c, 0xd7, 0xc1, 0x16, 0xec, 0x01, 0x16, 0x16, 0x16,
  0x01, 0x2c, 0xac, 0x16, 0xac, 0xd7, 0x01, 0x16, 0x2c, 0x41, 0x41, 0xc1,
  0xd7, 0xc1, 0x16, 0x2c, 0x1a, 0x33, 0x02, 0x66, 0x02, 0x7f, 0xd0, 0xd0,
  0x1a, 0x02, 0xd0, 0xd0, 0x1a, 0xe9, 0x02, 0x33, 0x02, 0xe9, 0x1a, 0x85,
  0xb6, 0x02, 0x02, 0x1a, 0x4c, 0xd0, 0xd0, 0x33, 0x7f, 0x4c, 0x7f, 0x1a,
  0x9d, 0xe9, 0x02, 0xe9, 0xd0, 0x1a, 0x1a, 0x7f, 0xd0, 0x9d, 0xb6, 0x85,
  0xe9, 0x33, 0x66, 0xd0, 0x1a, 0x4c, 0xd0, 0xe9, 0x1a, 0x66, 0xb6, 0x1a,
  0x1a, 0x1a, 0xb6, 0x1a, 0xd0, 0xd0, 0xb6, 0x33, 0xb6, 0xd0, 0xb6, 0xb6,
  0xe9, 0x02, 0x85, 0x02, 0x02, 0xe9, 0x4c, 0x33, 0x02, 0xe9, 0x02, 0xd0,
  0x66, 0x66, 0x33, 0x33, 0xe9, 0x9d, 0x02, 0x4c, 0xe9, 0x1a, 0xe9, 0xe9,
  0x1a, 0x33, 0x1a, 0x1a, 0x02, 0xe9, 0x02, 0x66, 0x1a, 0x1a, 0x33, 0xb6,
  0x85, 0x33, 0xe9, 0x02, 0x1a, 0xd0, 0xd0, 0x1a, 0xe9, 0x7f, 0x1a, 0xb6,
  0x1a, 0x33, 0x4c, 0x4c, 0x02, 0xd0, 0x7f, 0xb6, 0x02, 0xe9, 0x9d, 0x85,
  0xb6, 0x66, 0x33, 0x1a, 0xb6, 0x02, 0x4c, 0x9d, 0x02, 0xd0, 0x02, 0x02,
  0x4c, 0x33, 0x1a, 0xe9, 0xe9, 0x4c, 0x33, 0x02, 0xd0, 0xd0, 0xe9, 0x1a,
  0x4c, 0x9d, 0x33, 0xb6, 0xe9, 0x02, 0x33, 0xe9, 0x1a, 0x02, 0x66, 0xd0,
  0x33, 0x02, 0x9d, 0x1a, 0xb6, 0xd0, 0x4c, 0x33, 0x02, 0x66, 0xd0, 0x02,
  0xd0, 0x9d, 0x1a, 0x7f, 0xb6, 0xe9, 0x02, 0xd0, 0xb6, 0x66, 0x02, 0xe9,
  0xd0, 0x33, 0xb6, 0xe9, 0x40, 0xd7, 0xed, 0x01, 0x16, 0x56, 0xed, 0xed,
  0x01, 0xad, 0xad, 0xed, 0x7f, 0xed, 0x01, 0x01, 0x2b, 0x16, 0xd7, 0xc2,
  0xd7, 0xd7, 0xed, 0x01, 0x16, 0xc2, 0xed, 0x56, 0x16, 0x2b, 0x16, 0x01,
  0x16, 0x01, 0x56, 0xc2, 0x16, 0xed, 0xc2, 0x16, 0x16, 0xed, 0xc2, 0x99,
  0x40, 0x6a, 0x01, 0x01, 0xed, 0xd7, 0xd7, 0xc2, 0x2b, 0xc2, 0x2b, 0x56,
  0xc2, 0xed, 0x01, 0x01, 0xad, 0xad, 0x16, 0x01, 0xd7, 0xd7, 0x2b, 0x2b,
  0x01, 0xc2, 0x01, 0x2b, 0x16, 0xed, 0xd7, 0x99, 0xd7, 0x2b, 0xed, 0xed,
  0xed, 0xc2, 0x7f, 0x01, 0xed, 0xd7, 0x2b, 0xc2, 0x01, 0xd7, 0x16, 0x2b,
  0x6a, 0xc2, 0x40, 0xd7, 0x01, 0x56, 0x40, 0xd7, 0xd7, 0xed, 0xed, 0x16,
  0xd7, 0x40, 0xed, 0x01, 0x40, 0x16, 0xad, 0x56, 0x56, 0xed, 0xed, 0x16,
  0x2b, 0x01, 0xd7, 0xed, 0x16, 0xed, 0xed, 0x40, 0xc2, 0x01, 0xad, 0x01,
  0xef, 0xdd, 0x25, 0xef, 0xef, 0x25, 0xca, 0xef, 0x01, 0xef, 0x13, 0x01,
  0x01, 0xb8, 0xca, 0x13, 0xef, 0x4b, 0xdd, 0x4b, 0x6f, 0x81, 0x13, 0x25,
  0x13, 0xdd, 0x25, 0x13, 0x01, 0x38, 0xca, 0xdd, 0xef, 0xef, 0xb8, 0x25,
  0x01, 0x13, 0xef, 0xef, 0xca, 0x25, 0xef, 0xca, 0xdd, 0x25, 0xef, 0xca,
  0x25, 0x25, 0xca, 0x25, 0x13, 0x38, 0x38, 0x4b, 0xef, 0xef, 0x4b, 0x25,
  0xdd, 0xb8, 0xb8, 0x01, 0x02, 0x02, 0xd0, 0xe9, 0x02, 0x02, 0xd0, 0x66,
  0x02, 0xd0, 0x33, 0xe9, 0xd0, 0x02, 0x33, 0x66, 0x1a, 0x33, 0x9d, 0x02,
  0x9d, 0x02, 0x02, 0xb6, 0xe9, 0x9d, 0xd0, 0xb6, 0xe9, 0xe9, 0x1a, 0x02,
  0xd0, 0x02, 0xd0, 0xb6, 0xe9, 0xd0, 0x33, 0x02, 0x4c, 0x1a, 0xe9, 0x02,
  0xb6, 0x85, 0xd0, 0xe9, 0xd0, 0x02, 0x66, 0xd0, 0xe9, 0xd0, 0x66, 0x9d,
  0xd0, 0xb6, 0x1a, 0xb6, 0x7f, 0x66, 0xd0, 0x9d, 0x56, 0xad, 0x01, 0x99,
  0x56, 0xed, 0x2b, 0x40, 0x16, 0x16, 0x40, 0x01, 0x01, 0x16, 0xc2, 0xc2,
  0x2b, 0xd7, 0x40, 0x2b, 0x2b, 0xed, 0x2b, 0xad, 0x16, 0x2b, 0x16, 0xd7,
  0x2b, 0xc2, 0xd7, 0x01, 0x01, 0xed, 0xc2, 0x16, 0xd7, 0xd7, 0xd7, 0x2b,
  0xd7, 0x7f, 0xed, 0x16, 0x01, 0xc2, 0xad, 0x2b, 0xc2, 0xc2, 0x16, 0x16,
  0x56, 0xad, 0x2b, 0xc2, 0xd7, 0xd7, 0xad, 0xed, 0xd7, 0xed, 0x2b, 0xd7,
  0xb6, 0x1a, 0x33, 0xe9, 0x02, 0x7f, 0x1a, 0x02, 0x9d, 0x1a, 0x1a, 0xe9,
  0x1a, 0x1a, 0xd0, 0x4c, 0xb6, 0x66, 0xe9, 0x1a, 0x02, 0x9d, 0x33, 0x7f,
  0x02, 0xd0, 0x66, 0xe9, 0xb6, 0xd0, 0xd0, 0x1a, 0xb6, 0xd0, 0xd0, 0xb6,
  0xb6, 0xe9, 0x4c, 0x02, 0xd0, 0x02, 0xb6, 0x1a, 0xe9, 0x4c, 0xe9, 0x02,
  0x33, 0xb6, 0xe9, 0x33, 0xe9, 0xb6, 0x33, 0x66, 0x33, 0x4c, 0x02, 0xe9,
  0xe9, 0xd0, 0x1a, 0x66, 0xd0, 0xd0, 0x02, 0x66, 0xe9, 0x7f, 0xd0, 0xb6,
  0x02, 0x9d, 0xb6, 0x4c, 0x4c, 0x02, 0x1a, 0xe9, 0xe9, 0x4c, 0x02, 0x02,
  0x33, 0x1a, 0x1a, 0xe9, 0x02, 0xd0, 0x1a, 0x1a, 0x02, 0x66, 0x1a, 0x02,
  0xd0, 0x9d, 0x66, 0xb6, 0x33, 0xd0, 0xb6, 0x7f, 0x4c, 0xd0, 0xe9, 0xd0,
  0x4c, 0x1a, 0x33, 0xe9, 0xe9, 0xe9, 0xb6, 0x4c, 0xd0, 0xe9, 0x1a, 0x66,
  0x02, 0x02, 0xb6, 0x85, 0xb6, 0x1a, 0x02, 0x4c, 0x40, 0xe3, 0x40, 0x85,
  0x40, 0xe3, 0x21, 0x85, 0xe3, 0xc4, 0x5f, 0x21, 0x85, 0x21, 0x5f, 0xe3,
  0x85, 0x21, 0x02, 0x40, 0x85, 0x02, 0xe3, 0x5f, 0xc4, 0x02, 0xa4, 0x5f,
  0xa4, 0xc4, 0xa4, 0x40, 0xc4, 0x02, 0x21, 0x7f, 0x40, 0x40, 0xc4, 0xc4,
  0xc4, 0x5f, 0x21, 0xe3, 0x21, 0x21, 0x85, 0x40, 0xc4, 0xe3, 0x7f, 0xc4,
  0xc4, 0xa4, 0x40, 0x40, 0x5f, 0x02, 0xa4, 0xe3, 0xa4, 0x40, 0xa4, 0x02,
  0x01, 0x16, 0x6c, 0x01, 0x97, 0x41, 0x01, 0x41, 0xec, 0x41, 0xec, 0x01,
  0xd7, 0xc1, 0xec, 0x01, 0x2c, 0x2c, 0x16, 0x57, 0xec, 0x01, 0x01, 0x2c,
  0x16, 0x2c, 0x16, 0x41, 0x2c, 0x97, 0x57, 0x2c, 0x16, 0x01, 0x01, 0x01,
  0xc1, 0xc1, 0x16, 0x81, 0xec, 0xd7, 0xc1, 0x2c, 0x01, 0xc1, 0xc1, 0xec,
  0x2c, 0x2c, 0xd7, 0x2c, 0x57, 0x2c, 0xd7, 0x2c, 0x01, 0x2c, 0x01, 0x01,
  0xec, 0x2c, 0x01, 0x2c, 0x2c, 0xac, 0x16, 0xc1, 0xd7, 0x41, 0x01, 0xec,
  0x16, 0x41, 0x01, 0x16, 0x2c, 0x2c, 0x16, 0x2c, 0x41, 0x01, 0x2c, 0xec,
  0x16, 0xd7, 0x2c, 0x6c, 0x16, 0x16, 0x16, 0xd7, 0x6c, 0xec, 0x6c, 0x01,
  0xd7, 0xac, 0x41, 0x01, 0x97, 0xec, 0x2c, 0xd7, 0xc1, 0xec, 0x81, 0x01,
  0xec, 0x16, 0xd7, 0xd7, 0x41, 0xec, 0x97, 0xec, 0xc1, 0x41, 0x01, 0x16,
  0xd7, 0xec, 0x2c, 0x2c, 0xc1, 0xec, 0x16, 0x01, 0x33, 0xe9, 0xe9, 0x4c,
